<pad>
<eos>
<unk>
the
,
of
and
.
to
in
a
"
-
for
on
that
is
's
with
by
will
as
be
china
at
)
(
this
has
are
it
have
from
said
was
an
people
he
:
we
not
their
also
hong
kong
;
development
new
two
all
chinese
government
its
year
taiwan
or
should
us
they
which
economic
up
one
were
been
out
between
party
our
more
countries
his
work
other
can
public
'
/
state
united
relations
today
after
world
i
first
three
department
committee
time
over
about
years
there
had
international
states
military
foreign
national
who
trade
but
would
made
so
some
system
under
such
into
country
cooperation
must
president
these
road
[
only
central
may
meeting
during
political
if
when
]
end
council
important
no
than
law
well
members
make
market
$
through
general
further
both
services
information
mr
jiang
last
beijing
police
visit
great
security
situation
since
high
them
li
issue
education
long
policy
various
social
mainland
building
report
any
support
secretary
according
technology
percent
take
do
enterprises
economy
region
many
number
good
while
held
efforts
?
major
you
very
spokesman
use
1
service
billion
reform
areas
news
against
order
sides
five
construction
still
total
however
including
level
minister
million
strait
now
same
financial
day
period
those
following
being
10
japan
forces
management
activities
industry
office
xinhua
issued
special
set
affairs
business
3
defense
rights
measures
most
chairman
zemin
before
developing
each
training
continue
past
what
even
2
peace
local
force
issues
second
war
increase
plan
march
cross
way
pointed
large
group
necessary
become
june
relevant
april
departments
sino
authorities
human
because
2000
investment
agency
among
principle
air
operation
interests
water
part
control
promote
quality
future
present
cpc
vice
traffic
july
problems
community
century
health
power
whether
officers
growth
administration
provide
how
basic
20
1999
cadres
opening
four
study
could
city
here
down
january
develop
making
september
area
conditions
question
exchange
joint
western
current
south
stability
science
japanese
chief
side
leaders
put
director
independence
she
asia
conference
member
leading
strengthen
own
th
army
--
talks
hk
old
2001
role
then
right
commission
bilateral
forward
help
4
environment
bush
another
november
east
improve
within
different
chen
october
5
products
need
research
cases
wto
basis
common
third
possible
views
strategic
statistics
expressed
legislative
august
yuan
zhu
personnel
15
case
district
speech
systems
december
projects
added
legal
february
bureau
like
full
safety
results
company
russia
rate
open
ministry
process
12
land
progress
regional
just
staff
whole
taken
scientific
domestic
ensure
history
did
concerned
wang
term
food
always
production
life
2002
next
society
line
value
practice
north
related
cultural
recent
friendly
30
per
c
attention
man
where
units
reunification
early
planning
resources
point
companies
strong
s
project
promoting
b
months
increased
based
means
used
2004
levels
ends
without
wednesday
6
deputy
enhance
called
place
working
understanding
school
nations
days
2003
carry
official
street
7
overall
am
her
standing
2005
8
see
ties
give
11
key
executive
far
already
capital
six
congress
falungong
organization
importance
every
npc
wan
view
protection
exchanges
him
industrial
scheme
policies
goods
able
shanghai
ordinance
premier
developed
masses
taking
found
come
mutual
nation
officials
changes
pm
parties
given
nuclear
students
home
together
court
delegation
main
socialist
therefore
workers
implementation
addition
serious
meet
fully
change
friday
exports
advanced
pay
21
bank
dollars
organizations
established
above
better
existing
month
off
times
again
centre
administrative
hand
leadership
interest
hope
regulations
authority
thus
agreement
course
position
9
conducted
16
civil
friendship
step
fact
board
14
small
problem
represents
media
shui
play
transport
lee
my
election
spirit
available
noted
works
few
received
18
environmental
section
needs
reached
bring
technological
effective
outside
cause
demand
go
certain
armed
democratic
overseas
private
motherland
sector
housing
province
peaceful
result
requirements
13
ideological
decision
persons
maintain
implement
laws
does
close
missile
stage
russian
provided
equipment
fund
several
hours
met
employment
person
recently
scale
task
2006
weapons
schools
along
non
announced
zhang
hard
achievements
higher
korea
form
investigation
anti
tibet
accordance
comprehensive
sales
article
rural
strategy
toward
industries
took
theory
session
due
stressed
competition
post
back
exercise
19
asian
25
volume
action
groups
cannot
terms
17
press
price
arrangements
west
soon
conduct
incident
supervision
peng
er
structure
hold
culture
operations
no.
points
establishment
strengthening
shall
e
carried
men
space
regions
24
quarter
respectively
around
especially
once
experience
facilities
job
university
fundamental
clear
historical
include
leader
fields
export
respect
oil
customs
positive
ago
money
half
prime
monday
plans
proposed
foundation
un
responsible
inspection
morning
unit
using
thursday
troops
turn
bill
co
big
agricultural
opportunities
much
illegal
earlier
responsibility
regard
thinking
diplomatic
sea
vehicles
association
led
review
global
series
23
funds
tuesday
offices
reply
residents
reported
hui
arms
former
survey
tax
build
wu
establish
arrested
principles
medical
although
light
upon
themselves
forum
middle
european
ceremony
reports
direct
commercial
standards
family
prices
round
children
population
matter
required
show
strength
improving
say
republic
believe
rongji
dprk
www
real
dr
achieve
property
50
22
struggle
bian
criminal
carrying
mainly
statement
u.s.
understand
macao
young
expected
think
women
reduce
free
places
beach
hospital
application
greater
gov
institutions
create
amount
impact
regarding
re
effect
house
index
pacific
26
owned
actively
28
internet
combat
team
care
iraq
relationship
going
approved
low
best
mechanism
annual
1998
particular
later
programme
your
assistance
purpose
signed
27
center
representatives
adopted
involved
hu
enforcement
enquiries
face
prc
currently
fourth
having
senior
others
program
chung
island
opportunity
yet
modernization
get
plane
completed
website
concern
things
nature
published
never
improvement
account
korean
seven
kowloon
went
living
reporter
attended
advised
income
return
network
left
continued
released
cities
increasing
wong
tang
trend
enterprise
knowledge
stand
saying
keep
organs
sale
across
eu
told
know
compared
comrade
experts
insurance
31
station
supply
tasks
provincial
eight
characteristics
decided
american
markets
sovereignty
summit
handling
details
less
100
move
drug
applications
29
india
afternoon
union
asked
governments
communist
call
caused
qian
status
immigration
brought
particularly
closed
sectors
average
agriculture
consultation
limited
rules
internal
ma
guangdong
head
teng
charge
personal
implementing
consensus
fire
europe
crime
me
entire
normal
performance
lead
specific
labour
fine
success
urban
data
closely
difficult
launched
yesterday
speed
implemented
liu
standard
welcome
providing
came
seriously
sha
aircraft
technical
urged
prevent
professional
doing
!
class
effort
corruption
maintaining
act
jointly
let
seek
front
complete
difficulties
successful
example
un@@
short
treatment
written
achieved
latest
hon
site
energy
date
cent
kind
stable
response
electronic
started
meanwhile
sent
wei
week
ground
drive
territory
highly
heavy
largest
clearly
stock
expand
field
entry
individual
figures
red
avoid
airport
focus
follow
import
manner
pla
&
exhibition
agreed
hopes
modern
actions
why
cppcc
draft
saturday
proposal
address
speaking
immediately
reason
contact
re@@
shows
healthy
base
ability
beginning
visited
tung
affected
campaign
extremely
o
itself
negotiations
committees
capacity
1997
links
traditional
park
deal
trust
gradually
proposals
look
welfare
significance
hkt
natural
consider
name
town
employees
u
census
nnnn
bay
self
innovation
start
objective
stay
cooperative
duty
socialism
aged
benefit
reasons
find
d
share
forms
retail
willing
top
200
treaty
methods
contributions
materials
peasants
away
paid
ways
computer
concerning
tai
quite
visiting
sense
command
40
cost
want
registered
facilitate
clinton
correct
visits
gave
too
ah
run
compatriots
test
previous
coming
strive
bus
appropriate
f
tech
n't
external
approval
facts
primary
procedures
active
http
protect
arrived
stop
deng
reporters
done
until
@://@
commerce
cult
indicated
institute
buildings
sunday
maintained
range
crisis
style
outstanding
labor
event
consumer
effectively
goal
3@@
included
sports
imports
fighting
peoples
advance
banks
rapid
finance
actual
promotion
core
prosperity
meetings
encourage
ninth
television
floor
telecommunications
assets
practical
stations
challenges
justice
opinion
chi
join
nmd
dialogue
factors
residential
discussion
sun
examination
attitude
enhancing
final
prevention
similar
throughout
5@@
attack
really
firmly
efficiency
adopt
circles
benefits
serve
live
wide
subject
lower
religious
might
age
israel
balance
discipline
behalf
publications
4@@
allowed
registration
eastern
seeking
seen
please
tourism
reforms
near
raise
connection
holding
ha
independent
confidence
unity
river
france
apply
broad
developments
discuss
launch
condition
crimes
facing
showed
deep
attend
rise
strictly
daily
involving
contacts
germany
actually
accident
paper
washington
generation
directly
uh
access
improved
chai
death
potential
type
mrs
tin
reach
xiaoping
regulation
successfully
africa
missiles
vehicle
demands
moreover
legislation
believed
ahead
division
cheung
direction
hall
provisions
infrastructure
accession
words
majority
rates
po
win
investigations
source
degree
border
handle
st
rather
completely
relatively
resolve
white
anniversary
aimed
design
hoped
abroad
won
opened
influence
introduced
regular
shenzhen
considered
budget
ambassador
british
aid
starting
says
loans
cheng
aspects
parts
fair
maximum
poor
bodies
product
educational
pressure
games
ii
allow
operating
questions
in@@
inform
remain
county
kinds
t
significant
guarantee
representative
amendment
yang
mission
stated
um
phase
localities
s@@
reality
enter
african
recorded
village
greatly
safeguard
ministers
capability
permanent
rule
officer
pprb
body
properly
invitation
setting
travel
visitors
medium
teachers
nearly
mobile
democracy
6@@
suspected
ethnic
imprisonment
lies
chan
judicial
circumstances
functions
guidance
changed
globalization
participate
continuously
matters
york
provides
remarks
square
maintenance
emergency
madam
sar
fight
framework
corporation
concept
giving
began
integrity
harbour
politics
attending
resolution
known
appeal
tomorrow
studies
laid
wen
hksar
assessment
consideration
establishing
k@@
adding
approach
secondary
opinions
partnership
built
autonomous
estate
zone
learning
discussed
territorial
rok
inside
opposition
deputies
wish
professor
lot
ho
passed
woman
grain
learned
towards
yi
raised
weather
safeguarding
60
thought
car
meets
revealed
least
sources
vigorously
apec
80
sound
radio
english
guidelines
physical
communications
provision
conducting
jintao
qichen
tsang
firm
studying
differences
amendments
processing
realize
cold
constantly
documents
list
additional
target
analysis
agreements
tv
scope
gas
satellite
invited
port
g
nine
participation
mentioned
experiences
material
clean
d@@
sites
comrades
hygiene
2007
operators
municipal
respective
elements
ever
looking
beaches
record
depth
threat
language
committed
initiative
apart
truth
played
putin
aim
monitoring
became
provinces
numbers
enable
solve
types
feel
evening
worth
headquarters
territories
investors
purchase
1996
lu
organisations
appointed
participants
mind
passengers
night
mass
enjoy
currency
dangerous
table
securities
created
cover
liberation
structural
requirement
extensive
centres
hongzhi
push
duties
peninsula
longer
late
distribution
emphasized
instead
generally
ms
n@@
festival
g@@
output
7@@
behind
freedom
besides
rich
learn
owners
principal
soldiers
kim
adjustment
organized
shown
film
room
manufacturing
productive
submitted
expenditure
favorable
resolutely
beneficial
marxism
programmes
drugs
entered
olympic
contract
zhou
fu
idea
trading
al
hotline
hands
offer
delivered
ed
pollution
happy
enhanced
acting
ruling
mid
youth
spiritual
method
enemy
engaged
awareness
yu
citizens
uphold
arrangement
rose
navy
link
seized
advantage
advantages
lives
vast
monetary
huge
warning
shi
strengthened
certainly
priority
transportation
himself
planned
c@@
singapore
guiding
revolution
supported
content
operational
follows
selected
premises
payment
technologies
cut
attempt
decreased
b@@
fees
though
briefed
8@@
heart
obtained
britain
guide
evil
accept
ideas
targets
expanding
items
growing
intelligence
risk
leave
trial
talk
bringing
formed
assembly
race
patients
railway
yuen
net
tong
card
driving
via
supporting
employers
discussions
increasingly
advice
express
friends
mao
occurred
charges
consumption
convention
trip
parents
constitution
exchanged
thing
dpp
southern
users
scene
detailed
communication
m@@
despite
channels
scheduled
practices
bid
mr.
credit
civilization
israeli
families
heads
equal
grade
conscientiously
elections
organised
accounts
extended
either
letter
dollar
comprehensively
revenue
guests
presidential
selling
founding
businesses
skills
true
worked
killed
palestinian
9@@
solid
values
orders
telephone
changing
prior
version
federation
figure
located
powerful
commissioner
something
basically
xinjiang
french
smuggling
ten
posts
little
ping
teaching
1992
initial
restructuring
m
moment
estimated
y@@
p@@
iran
appointment
document
tests
cargo
keeping
original
expansion
calls
rapidly
regards
fifth
nor
produced
likely
america
elected
offered
ming
prospects
nato
kok
xu
1995
purchased
complaints
economies
banking
presented
hill
engineering
ing
battle
gain
becoming
king
increases
german
green
pilot
smooth
wife
pakistan
protecting
participating
determined
proper
single
iraqi
indian
profound
fiscal
thanks
etc.
produce
tel
raising
receive
stresses
guangzhou
fujian
conducive
notice
promoted
sustained
warm
finally
attacks
supreme
preparations
listed
offence
reduced
kmt
turned
choice
powers
reserve
p
publication
propaganda
warfare
except
advisory
indeed
gross
relating
marine
seminar
academic
lam
fixed
highest
returned
continuing
onto
boundary
publicity
australia
statutory
consultations
coordination
disease
charged
strict
fell
leung
ready
effectiveness
uses
explore
revised
roads
completion
o@@
attached
stance
southbound
collection
provisional
reference
theoretical
aviation
commander
e@@
everyone
situations
medicine
reduction
accidents
mean
l@@
model
often
parliament
tremendous
anyone
secretariat
businessmen
faced
interview
accepted
measure
costs
mun
serving
essential
reiterated
search
cpi
creating
intellectual
i@@
queen
h@@
invest
k
transfer
concrete
dealing
gdp
manpower
losses
planes
poverty
truly
motion
movement
spread
award
contents
elderly
al@@
statistical
activity
assistant
canada
forth
whose
path
launching
namely
panel
events
repeatedly
submit
followed
suspended
penalty
exercises
thailand
waste
asean
tour
logistics
believes
train
monthly
dead
spending
needed
tsuen
affect
theme
running
ting
poultry
rescue
victims
lin
accounting
temporary
ensuring
display
j@@
jiaxuan
f@@
newly
35
flight
ying
failed
unemployment
embassy
integration
pace
de
suggestions
y
release
@-
courts
lack
extend
extent
victory
instance
lands
leisure
ling
relief
obtain
candidates
loss
identity
individuals
achieving
confirmed
remaining
playing
remains
spoke
deeply
reaching
kept
hit
licence
negative
wars
adhere
70
de@@
t@@
continuous
try
courses
meters
vietnam
aims
saw
grasp
wing
blood
safe
almost
notes
online
sub
steps
academy
lo
grand
earth
45
representing
explained
arts
mail
decrease
governing
integrated
unification
hour
investments
schemes
winning
sign
taxi
collision
agencies
ended
nationalities
popular
decisions
lost
hkma
placed
book
responsibilities
incidents
branch
dis@@
grass
disaster
introduce
bad
ecological
failure
nothing
rest
fall
takes
died
declaration
fee
thoroughly
software
false
challenge
getting
draw
engage
entitled
coastal
recommendations
outline
dalai
quickly
briefing
era
require
roots
es
absolutely
corresponding
injured
oppose
strongly
atmosphere
aggression
requires
sold
wishes
child
marked
stress
communists
investigating
holds
bearing
settlement
jobs
yan
host
everything
contradictions
spring
conclusion
excellent
-@
tsui
powell
300
break
minutes
shan
articles
yau
recovery
vessels
w@@
ers
contribution
objectives
competitiveness
turning
earnestly
yes
chau
cards
moving
reducing
funding
huang
mechanisms
send
concluded
u@@
broadcast
revolutionary
sets
applied
epd
reminded
deepen
includes
felt
swimming
disputes
grassroots
practitioners
putting
surveillance
tibetan
mark
trying
debt
momentum
newspaper
signing
vote
accelerate
500
reasonable
remained
strike
joining
manager
reception
club
evidence
smoothly
resolved
master
prepared
governor
tunnel
an@@
applicants
factor
occasions
pursue
sustainable
1.@@
sentenced
plenary
unified
compensation
passenger
served
shares
note
capable
immediate
makes
designated
announcement
check
hung
operate
contracts
bound
parking
peak
competitive
museum
agenda
profits
z@@
broadcasting
monitor
phone
welcomed
claimed
comments
exist
severe
wage
double
gap
conflict
lau
zhao
fehd
chemical
features
concerns
acts
a@@
suitable
wants
closer
testing
assist
electrical
conflicts
deployment
household
lcsd
plant
reflect
sure
districts
thank
liable
art
historic
wai
straits
diseases
talent
helping
positions
000
decline
handled
request
percentage
adjusted
zedong
below
mutually
paying
biggest
ideology
info
hospitals
diverted
transformation
reconnaissance
equality
intention
cadre
heard
xiamen
determination
causing
funded
votes
managing
1994
separate
message
northern
solution
lai
wrong
motorists
r@@
ask
qualified
designed
expert
federal
belief
hectares
covering
chang
entering
sufficient
supports
interested
alliance
multi
comparison
encouraging
damage
records
enough
realizing
drivers
upholding
conviction
waters
gold
risks
networks
flow
wanted
reporting
mayor
ownership
perform
sell
commitment
complicated
hence
bonds
joined
mankind
professionals
specified
regulatory
tuen
image
covers
guard
black
frequent
deepening
gone
tried
consistent
drawn
prosecution
alone
thereby
observe
ch@@
college
contribute
buses
ate
soviet
criteria
legitimate
offences
il
resolving
sum
distance
organisation
patient
complex
student
weak
appreciation
constitutional
meat
1,000
missing
senate
ip
purposes
90
han
metres
sai
collective
answer
crucial
covered
kung
attaches
fresh
digital
zones
grow
perfect
cooperate
degrees
legco
canal
definitely
got
fast
zeng
commodities
opposed
ding
r
er@@
profit
treasury
seize
licensing
represent
introduction
shipping
suggested
ar@@
feelings
admission
taipei
timely
showing
surplus
exertion
london
continually
intensify
regarded
unable
abuse
ated
carefully
restrictions
1990
background
encouraged
38
informed
pass
preventing
steady
sanctions
effects
greatest
nai
bridge
hearing
receipts
headed
invested
ts
signs
topics
moved
liaison
counter
recognize
afp
collected
contractors
deeds
expanded
ones
factory
directed
loan
reading
sessions
households
song
teams
haotian
tsim
ordinary
admitted
terrorist
numerous
ordered
roadside
mother
drop
institution
heading
yugoslavia
proceed
considering
initiatives
v@@
ating
certificates
universities
topic
lines
consistently
hotel
multilateral
chee
possibility
cars
satisfied
confrontation
conservation
consultative
en
attach
nevertheless
pattern
route
warned
illegally
son
en@@
delivery
oriented
size
totally
claims
discovered
resource
love
sciences
web
drawing
fuel
stamps
dh
receiving
tower
urgent
10,000
allocation
forecast
formulated
harm
pleased
hundred
aspect
hainan
1993
text
boost
eastbound
financing
pre
trafficking
selection
tide
township
civilian
gained
influenza
arduous
dropped
efficient
indonesia
lay
merchandise
nanjing
openly
ratio
aware
declared
55
character
servants
deficit
ocean
10th
guo
opposing
schedule
taiwanese
channel
bangzao
performing
helped
shrine
cash
attract
inter
kwai
over@@
programs
quantity
unique
combined
21st
cabinet
eng
goals
it@@
customers
corporate
hwa
palestine
readjustment
scholars
bases
realized
rely
stepped
philippines
rising
undertakings
music
deposits
platform
ship
v
contingent
taxes
partners
respiratory
coal
flats
southeast
weeks
advancing
female
arrest
stands
ro@@
farmers
northbound
track
comes
resulting
returning
terrorism
400
thorough
vitality
bear
shortly
sichuan
marriage
+@@
certificate
stamp
constructive
crack
fishing
function
ships
findings
islands
permit
continues
fung
overcome
arab
comparing
maritime
linked
electricity
minority
participated
tons
32
feature
marks
imported
calling
enhancement
formation
koizumi
refused
pool
eliminate
innovations
emphasis
proportion
shop
stationed
zealand
ban
hosted
mei
moscow
organize
sh@@
formulate
plus
diplomacy
orientation
progressive
split
thanked
tourist
consolidate
ourselves
abide
violence
debate
eventually
otherwise
steel
trends
decades
regiment
transactions
essence
begin
corporations
examine
annex
directors
easy
latter
resume
ancient
americans
36
block
electoral
procedure
useful
fulfill
w
agree
critical
impossible
jun
tokyo
ministerial
2.@@
ranks
arranged
bookstore
watch
reserves
tell
locations
vietnamese
entertainment
narcotics
speeches
h
periods
proved
lanqing
proceeding
correctly
goes
33
forced
kuomintang
personally
weapon
ozp
significantly
manage
n
procuratorial
blue
naval
@
ates
reflected
guided
granted
vigorous
ji
code
flying
millennium
0@@
concerted
hot
holidays
instructions
upgrading
valuable
detained
interpretation
sd
enthusiasm
expenses
grant
mong
expect
miss
suffered
ted
witnessed
add
landing
vehicular
eyes
famous
1@@
exceeds
sars
unions
variety
wo
34
rational
shek
sincere
am@@
capabilities
ti@@
origin
outlook
wah
westbound
tianjin
limit
consumers
trades
oh
preparation
virus
deployed
establishments
seats
gang
considerable
interference
partner
solving
containing
trouble
wages
republican
stronger
accompanied
kosovo
performed
perspective
2008
burden
renminbi
associations
absolute
computers
kwun
leaving
location
50,000
awarded
convicted
read
allowing
amounted
kilometers
stepping
possession
su
minimum
strategies
machinery
remove
xiang
categories
enormous
investigate
jia
precisely
taxation
vision
feeling
jiabao
relatives
separatist
gathering
formal
marketing
valley
chongqing
offenders
comply
li@@
equipped
experienced
knows
st@@
surely
thousand
arats
mode
waiting
ic
subsequently
buy
expression
moral
routes
causes
game
thai
ching
fish
flag
substantial
sized
employer
eligible
frequently
neither
qiao
recognition
cordial
employed
steadily
hongkong
awards
injuries
video
imposed
realization
feng
names
originally
coordinated
attracted
regime
organizational
doubt
l
mine
behavior
chamber
co@@
plants
jian
restaurant
crew
iii
ation
39
described
kai
37
flyover
raw
difficulty
motor
worldwide
prominent
le
suspension
membership
storage
undertaking
judging
zoned
composite
surface
honor
lane
prolonged
recognized
word
listen
resist
summer
payments
copies
managed
indices
inspections
speeding
cuba
manufacturers
preliminary
avian
cults
decide
persist
sky
refuse
queensway
annette
italy
junction
candidate
km
vacancies
rail
minds
anything
library
appeared
artillery
im@@
secret
bills
simple
vital
criminals
defend
hk@@
holders
houses
beyond
occasion
marxist
cap
circular
gulf
sixth
intended
focused
star
upper
exceeded
father
equivalent
talking
criticized
latin
48
stipulated
66
born
mexico
thousands
debts
forged
delegates
zhejiang
pushing
unprecedented
driver
ranking
spaces
universal
constant
offering
chance
kwan
pursuing
at@@
golden
jockey
counterfeit
controlled
producing
violation
0.@@
begun
concepts
mandatory
agents
judge
repair
diesel
grew
entrepreneurs
superiority
confident
estates
adopting
allies
simply
wider
aids
ce
george
tian
appear
chong
happened
intensive
australian
danger
innovative
prohibited
striving
tackle
books
flood
models
scored
2@@
carrier
flu
defendant
towns
difference
is@@
outcome
container
fairly
transferred
x@@
as@@
choose
issuing
municipality
larger
severely
00
jin
municipalities
wall
declined
controlling
luo
comprising
hua
neighborly
demonstrated
inner
compliance
furthermore
fighter
be@@
officially
es@@
formulating
involve
ruihuan
vessel
breakthrough
quarterly
talked
returns
holiday
spot
obviously
tender
exposed
41
broke
ferry
01
2,000
ations
naturally
arrival
chun
disclosed
specifically
$@@
introducing
mosquito
generations
practicing
electric
sensitive
symposium
crossing
followers
stopped
he@@
replace
season
usually
chapter
reviewed
lung
talents
easily
newspapers
outdoor
sharing
banner
evaluation
promptly
nationwide
scientists
separately
solved
register
tradition
destroyed
qi
reflects
studied
bao
beautiful
restaurants
zheng
autonomy
employee
upgrade
commitments
existence
probably
prosperous
hi
shing
on@@
teacher
concurrently
grounds
outward
rice
package
rain
relying
shen
theories
seems
displayed
mental
sincerity
interfere
corps
extra
protocol
centers
coordinate
42
gives
mpf
offensive
requested
component
turkey
65
excise
grading
gu@@
clothing
fleet
height
permitted
successively
100,000
count
engaging
lunar
outbreak
referred
5,000
guangxi
wave
quarters
goodwill
decreases
handed
lose
sovereign
voluntary
tenants
wanchai
comment
passing
attained
san
shared
suspects
consequences
licences
600
extension
busy
dealt
extensively
lok
x
counties
desire
inflation
meaning
previously
liang
supervisory
yasukuni
ac@@
flexible
hu@@
ji@@
travelling
cambodia
discussing
religion
stood
unchanged
amended
di@@
spent
arising
demanded
guilty
serves
voters
prepare
yuxi
collect
farm
settle
seasonally
ta
closure
speak
fruitful
letters
rent
ye
corrupt
governmental
sp@@
worried
ch
remarkable
repeated
wrote
3.@@
fraud
represented
zoning
explain
merely
neighbors
43
fighters
tickets
weaponry
bombing
category
slightly
to@@
attain
birth
explosion
garden
paris
chow
institutional
petroleum
distributed
abm
batch
reportedly
satellites
separation
transparency
customer
stocks
tonnes
upcoming
improvements
parks
dispute
formulation
adequate
integrate
radar
respects
enquiry
profoundly
ap@@
morrison
parliamentary
ai
decisive
applying
coverage
fail
identify
named
suddenly
friend
mongolia
th@@
voice
afcd
illicit
remark
wealth
criticism
permits
presentation
rectification
interim
organizing
pntr
rmb
sheung
structures
backward
fashion
le@@
removed
venues
preparing
sham
door
formally
honest
jiangsu
observed
sections
ending
supplies
homes
ic@@
sponsored
twice
firms
violated
malaysia
sought
adjustments
assessed
entirely
persistently
qualifications
ang
contain
doctors
exactly
trillion
communique
heritage
shops
sing
eye
obligations
samples
copy
grades
ramp
150
foster
accounted
punishment
cope
deposit
indicates
welcomes
dong
fisheries
struggles
resident
widely
animal
praised
q@@
chaired
el@@
undertake
zxs
i.e.
achievement
illnesses
ab@@
kazakhstan
lu@@
reforming
collaboration
obstacles
ideals
wind
75
circulation
ha@@
ma@@
trees
44
avenue
examined
airspace
arena
exploration
adjust
copyright
delta
proven
self-@@
missions
presided
restricted
fever
su@@
tension
identified
livelihood
statements
accord
recommended
5%
damaged
signal
destruction
disarmament
ideal
laboratory
brief
fined
sincerely
amounts
brazil
flights
john
kwok
procuratorate
regularly
yu@@
2%
battlefield
brand
containers
el
nomination
relation
bo@@
tsing
tourists
components
sharp
breaking
consent
amid
input
owing
permission
selecting
anti-china
clearance
mo@@
appealed
ri@@
sending
creative
looked
treated
involves
expectations
highway
journalists
occupational
venture
answered
hang
concentrate
careful
intervention
emerged
guest
sheng
52
accelerating
shape
cotton
guangsheng
subjects
tak
fm
lien
resistance
associated
outlets
phenomenon
pearl
writing
canadian
gloucester
id
sentence
compiled
macroeconomic
visa
intensified
interviewed
patent
concentrated
inspected
refer
rehabilitation
editorial
greetings
uk
textile
bright
commodity
investigated
male
prison
accelerated
hing
nationality
saddam
kwong
minor
anti-@@
cup
speaker
temperature
exclusive
younger
bird
revision
se@@
villages
contains
reviewing
101
banquet
unless
infection
dance
observatory
3%
allocated
institutes
ltd
resulted
venue
feasibility
kingdom
mortgage
xi
determine
flat
stipulations
wisdom
xiao
1%
eh
eve
installed
closing
coast
decade
faster
neighboring
tei
tertiary
aberdeen
broken
camp
respondents
consult
dignity
forming
submarines
understood
2582
branches
multiple
ng
operated
photo
tactics
saving
accomplish
lessons
utilization
cepa
league
satisfaction
preferential
fan
map
moves
secure
cast
eighth
expo
mountain
sheet
classes
drought
ice
obvious
seizure
expressing
noting
sef
yen
4%
burdens
gore
organ
quoted
proliferation
someone
disasters
girl
ukraine
1991
ong
causeway
classified
specially
victim
46
dialogues
reconciliation
belarus
publishing
robbery
td
communities
picture
urge
charter
divided
industrialization
resumption
mounted
procurement
assigned
ease
presence
cmc
inland
productivity
dedicated
yunnan
advancement
colleagues
departmental
enjoyed
promulgated
rental
theater
equity
incomes
shortage
ad
assess
properties
submarine
transmission
disabled
gathered
ag@@
56
capita
propose
27@@
ad@@
aspirations
pro
exposure
flexibility
lan
mentality
pan
seeing
temporarily
wearing
focusing
10@@
inspect
3,000
transit
47
guns
constitute
contained
contributed
53
esd
fax
messages
regulate
sub@@
whereas
03
communiques
donald
noon
ranging
save
treat
4.@@
6%
accumulated
shandong
contractor
patriotic
sin
stages
stephen
whatever
analysts
geneva
inter@@
lei
whom
bu@@
gambling
51
disposal
northeast
ribao
smes
1980
becomes
humanitarian
limits
siu
symptoms
transition
800
asset
ca
poll
satisfactory
sometimes
05
realistic
iron
liaoning
select
suspect
terminal
contrary
internationally
phenomena
philippine
semi
subsequent
58
claim
cracking
armament
separated
tau
triad
congresses
defined
tenth
websites
olympics
reaction
reliable
soil
undertaken
delay
examples
franchised
seventh
councils
promised
demonstration
pakistani
punished
authorized
specialized
disciplinary
hostile
enforce
founded
poland
wireless
judges
killing
settled
non-@@
retired
creativity
netherlands
or@@
quota
rank
reinforce
advocate
creation
timetable
initiated
congratulations
residence
suffering
tan
phoenix
roles
tu@@
earthquake
unite
airlines
grants
peasant
excessive
facilitating
glorious
prerequisite
preserve
registry
ru@@
interior
pieces
title
career
com
noise
smoking
entourage
finding
postal
me@@
mtr
solemn
49
casualties
factories
gao
inevitably
politicians
urgency
aroused
du@@
jianxing
ke@@
protected
renewal
preventive
printing
italian
02
7%
ar
prize
coalition
swd
te@@
mis@@
smaller
utmost
wholesale
banned
staged
lasting
replaced
qing
victoria
counterparts
hear
inevitable
notable
publicly
savings
tobacco
18@@
birds
chu
offers
applicable
suicide
ak@@
colleges
passage
protest
stalls
textbook
tough
waves
explicitly
performances
hegemonism
observation
root
tariff
cigarettes
lofty
95
accurate
advances
convenient
kam
sacred
adoption
certified
demonstrate
fly
leighton
macau
page
pe@@
animals
endorsed
kilograms
minute
plays
wannian
1.2
da
gazetted
match
normally
orderly
soccer
squad
9%
adhering
hom
slow
tree
glad
depend
item
worker
54
deploy
judiciary
rejuvenation
shot
discharge
older
recruitment
chosen
lawyers
prove
resolute
temple
wait
conveyed
councilor
devices
proceedings
brilliant
shopping
talented
options
shaanxi
stressing
surveys
xian
ter
trained
athletes
judgment
kin
boat
deaths
hunan
impose
syndicate
bangguo
bit
composed
con@@
fu@@
ka
lo@@
requests
seminars
managers
mpfa
mu@@
story
ba
gorges
indonesian
photos
splittist
1.5
il@@
annan
fundamentally
geographical
laying
pao
traditions
bond
egypt
pressing
're
57
aside
breakthroughs
entrance
jin@@
ke
piece
academies
afghanistan
attacked
positively
59
exploring
philatelic
discrimination
issuance
jiangxi
diversions
occupation
involvement
joseph
mobilization
sake
u.n.
underground
viewed
advocated
encountered
fierce
intermediate
pretext
tactical
winter
consecutive
explanation
pharmaceutical
alert
combating
emissions
harmony
storm
celebrate
homepage
withdraw
chile
twenty
vicinity
tmd
valid
aegis
checks
parliaments
phones
shift
preparatory
rushed
700
boy
collecting
economics
alternative
delegations
extending
harmful
impetus
politically
watching
david
ine
occur
option
owner
asking
ex
nearby
occupied
pledged
splitting
accepting
michael
offshore
substantive
destroyers
ds
primarily
06
8%
pursued
voting
informal
james
negotiation
examining
exceed
succeed
hearts
routine
chairmen
fei
hotels
movements
pursuit
surrounding
undermine
grave
immigrants
imperative
upheld
consultancy
format
futures
opens
urges
5.@@
deliver
filled
tonight
machines
purchasing
smart
64
climate
drafting
mainstream
troop
lpg
mar@@
shoulder
tendency
op@@
accused
blair
devote
extreme
initially
les
marking
quick
si@@
syria
warmly
connected
seoul
yun
98
adapt
contemporary
enabling
hundreds
promise
violent
welcoming
acute
assumed
earnest
exists
ings
spain
suffer
attracting
pier
villagers
yeoh
affecting
answering
crowd
electronics
preceding
yao
bought
rocket
dragon
machine
ne@@
anhui
considerations
gan
intercepted
passport
seat
amend
bribes
bureaux
favor
psychological
zhong
failing
forever
genuine
grown
overwhelming
62
appointments
ous
rare
removal
tiananmen
enabled
mini
20,000
box
cable
commanding
journey
medicines
massive
regardless
vocational
z
1,@@
audience
man@@
consciousness
remember
solutions
stipulates
04
depends
motions
yam
ao
bin
rd
tested
annually
ant
graduates
providers
arrange
attempted
ongoing
summary
consolidating
falling
hidden
tariffs
widespread
examinations
liao
mistakes
preserving
recipients
respond
rumsfeld
considers
defensive
resumed
smoke
store
baghdad
cruise
pictures
19@@
exercising
commissioned
exit
subscription
warships
withdrawal
07
ballistic
cssa
devoted
listing
qin
bo
counterpart
perhaps
sudden
13@@
23@@
coexistence
cultivate
presidents
qiyue
recovered
remind
99
destroy
everywhere
firepower
impacts
remote
stall
streets
bomb
defending
denied
else
substantially
-@@
2010
edition
sit
spots
stadium
xin
accurately
fatal
giant
integrating
masters
possess
possibly
25@@
approximately
cao
driven
indicate
print
pushed
tao
affirmed
bidding
guideline
investing
vigor
120
acted
dai
exceeding
suit
unremitting
85
ist
pragmatic
convey
familiar
lie
pirated
pre@@
salary
ci@@
complaint
kang
pending
prosecuted
relationships
mostly
prescribed
zhi
adverse
barriers
estimates
raid
soft
em@@
invite
ju
pools
simultaneously
targeted
threatened
acknowledged
finished
hubei
jurisdiction
typhoon
jing
replacement
stick
faces
lift
murder
breeding
expenditures
fear
merger
min
nam
ofta
precious
retirement
walks
yue
assume
censtatd
dispatched
downloaded
ultimate
0
68
announce
discount
exert
hoping
maintains
opposes
accomplished
adjusting
commencement
gratitude
nd
salaries
telecommunication
tseung
departure
reputation
euro
foot
granting
intensifying
autumn
tanks
violating
cutting
hebei
spokeswoman
weight
yong
yong@@
ec@@
la@@
millions
mon@@
tajikistan
wild
cuban
dates
frontline
narrow
te
unlicensed
deeper
fang
flags
pose
rong
threats
unanimously
breach
curriculum
expertise
guaranteed
henan
lantau
counts
exhibitions
gains
incorporated
intensity
typical
unemployed
compete
farming
principled
unauthorised
aerospace
happiness
optimistic
resolutions
tr@@
cambodian
gazette
bar@@
characters
crackdown
iranian
ren
settling
excuse
kejie
sample
900
apparatus
bigger
educate
entrusted
gradual
optical
palace
peacekeeping
sen
subsidies
survival
transparent
ventures
acquire
affair
bi@@
drill
metal
out@@
patrol
stanley
28@@
7.@@
comprises
min@@
mining
mori
polling
rally
releases
spend
consultant
ent
ethics
frank
predicted
restriction
species
6.@@
bottom
farms
magazine
resignation
noticed
impression
myanmar
shi@@
spreading
cleansing
di
redevelopment
tribunal
cell
helps
accordingly
controls
intense
'm
audit
emphatically
ex@@
hai
jordan
listened
ps
undergoing
xie
addressing
afraid
brigade
buying
chain
competitions
nathan
rejected
courage
ul@@
update
yin
api
deadline
e.
shenyang
unswervingly
2878
approve
installation
ir@@
operator
prefecture
quarantine
respected
stimulate
suspend
als
appeals
flowers
heretical
afterwards
length
nt
observers
protective
score
transform
zero
mechanical
88
clinics
fireworks
stopping
automobile
covenant
football
meantime
multinational
yeung
mm
commit
completing
hennessy
linking
15th
conforms
convenience
ho@@
ltd.
papers
supervisors
tool
usual
chp
cultivation
per@@
repeat
so@@
tam
concessions
economically
edge
file
listening
ly
meteorological
qinghong
sole
yee
attempts
enjoys
frontier
islamic
pedestrians
ports
stringent
volunteers
citizen
clearing
feasible
highways
notices
governance
requiring
seeks
boats
po@@
acceptable
discharged
drainage
prince
us@@
user
wholeheartedly
auditing
balanced
everybody
fuzhou
pleasure
undoubtedly
checking
hub
norms
updated
warnings
brunei
estimate
husband
obtaining
players
reservoir
revise
sharply
whenever
10%
8.@@
execution
forest
none
pilots
piracy
relative
yellow
bed
reclamation
abilities
acknowledge
chengdu
depending
laos
leap
pneumonia
portion
silver
we@@
14@@
aspiration
fallen
miscellaneous
om@@
ruled
textiles
commenting
compulsory
facility
id@@
parked
pedestrian
secretaries
've
4,000
beat
conventional
detail
jing@@
mar
techniques
tense
92
ing@@
vigilance
appropriately
fulfilling
hao
independently
lowest
ministries
renmin
rivers
1.3
allows
ammunition
demanding
profession
fake
liability
margin
movie
planting
regulating
tackling
appliances
convened
representations
xi@@
conform
czech
endeavor
frequency
setup
armies
defeat
inviting
infectious
pl@@
printed
viewpoint
77
appearance
ness
backing
proposes
reorganization
disabilities
plastic
swimmers
applicant
dream
motive
quan
strengths
adherence
forget
htm
lesson
76
falun
gong
heed
phases
smashed
blind
eating
gather
sex
commanders
diversified
filling
guarantees
heroin
insufficient
relaxed
congressmen
download
write
yiu
9.@@
forge
ia
jie
premise
realities
restraint
yugoslav
71
administering
quanyou
readjust
weekend
ally
band
crude
ian
ko
mountains
respecting
violate
wen@@
advise
breakdown
deliberately
formalism
successes
78
est
mu
revenues
memorial
rear
ages
analysed
civilians
emb
superior
textbooks
angle
certification
civilizations
farmland
fellow
pioneering
recreational
regret
500,000
fa
ss
car@@
attacking
empty
lama
laundering
signals
wimax
appreciate
choi
directions
films
infected
chickens
servicemen
doctor
telecom
tic
characterized
consulted
prospect
convictions
se
16@@
civilized
demonstrations
loving
mention
personages
appraisal
backbone
conspiracy
cultivating
domain
enjoying
installations
nationals
purchases
proud
shooting
trans@@
72
dynamic
flooding
greece
outer
coli
dare
exemption
gun
junior
satisfy
turkish
turns
arouse
daughter
ters
youngsters
biological
erroneous
promotional
walk
accompanying
albright
argentina
emerging
fruits
guizhou
non@@
proactive
pyongyang
attempting
commentary
hardly
ies
trainees
under@@
08
assisting
eliminating
exported
harmonious
los
ni@@
pick
weekly
belong
kcrc
liabilities
plot
restore
arrive
die
oral
reaffirmed
rooms
contest
downloading
element
intervals
somewhat
willingness
cctv
consciously
du
emission
ol@@
82
envoy
recommendation
separatism
allowance
cater
combine
committing
functional
illness
63
canton
mobilize
no@@
opposite
patriotism
placing
tens
ultimately
20@@
deceased
expounded
for@@
okinawa
traders
celebration
reaches
spheres
standardized
workshop
constitutes
ning
punish
suen
sw@@
urgently
fulfilled
hoi
prd
touch
denghui
foreigners
objection
ons
qualities
ren@@
satisfactorily
theft
yield
altitude
posed
refers
dark
leaflets
looks
pak
screen
kg
pa@@
parent
pro@@
readiness
the@@
addressed
happen
qu@@
hurt
inward
statisticalbookstore
supervise
brings
carriers
ec
enables
minimise
normalization
tools
transnational
15@@
contracted
employing
firing
manufactures
raided
renowned
claiming
fry
lasted
lived
ou@@
ra@@
ang@@
dengue
rainfall
winners
73
advocating
definition
identification
macro
reconstruction
specialists
worries
xin@@
96
laden
nominal
proof
retain
worry
250
commence
gate
kyoto
payable
subsidy
thoughts
choices
detected
kyrgyzstan
processed
stolen
suppliers
ta@@
yeltsin
catering
et@@
hong@@
meter
abandon
enthusiastic
florida
fun
insisted
recognised
refugees
supplementary
undergo
xiong
17@@
arafat
helicopters
landed
mines
moderate
neighborliness
recreation
trips
67
acquired
markedly
stores
subsidiary
tank
ai@@
ans
arm
borne
deepened
eliminated
rectify
row
xing
chang@@
clients
condemned
magistracy
qinghai
2.5
3025
adviser
ators
bombs
derived
distinguished
necessity
visual
fate
magnificent
mixed
solidarity
soul
analyze
chinas
imf
instruments
knew
occurrence
ordering
painting
posted
slope
zhaoxing
consolidated
jp
61
boosting
palestinians
chiang
dozen
organise
systematic
blow
cleaning
complementary
exception
grasping
particulars
youths
94
combining
generated
inauguration
resettlement
sewage
tropical
calculated
dinner
entries
hosting
seemed
combination
dissemination
fired
focal
lebanon
par@@
spokesperson
artistic
hegemony
jilin
secrets
accountability
cl@@
cultures
prevailing
runs
cracked
shuibian
tie
0%
af@@
circle
conspicuous
contingency
hair
ran
adhered
ance
boxes
concession
importing
sweden
acceptance
implications
reflecting
announcers
armored
caught
commonly
deciding
snow
atypical
boards
falls
ill
keen
postmark
importantly
northwest
nr
1989
and@@
auction
demonstrates
do@@
native
ou
prisoners
ton
wantonly
130
30,000
che
comparatively
concert
fill
notification
poisons
situated
suggestion
wished
appears
commissions
emphasize
lending
turmoil
26@@
ative
cancelled
christian
faith
iv
sdds
seizing
sorts
taxis
violations
appreciates
budgets
determining
fat
forging
logistical
memorandum
referring
wounded
libraries
sfc
ura
alleviate
authoritative
cancer
luncheon
pork
producer
qiu
secondly
wartime
.@@
anti@@
automatic
identical
magistrates
privately
stops
ve@@
abandoned
guaranteeing
haste
interaction
j
ks
memory
pr@@
spare
audio
buddhist
losing
ph@@
attributable
castle
dc
employ
midnight
navigation
pair
res
dutiable
licensed
ment
religions
ugc
24@@
analyzed
bangkok
bankruptcy
chancellor
enemies
inaugural
intend
nan
stricken
wake
09
19.@@
200,000
competent
declare
milestone
reward
steering
unhealthy
carries
clinical
context
dumping
eat
fought
fuels
html
nets
soldier
alleged
dr.
footing
insist
merits
00@@
commissar
forthcoming
lao
polls
routed
abundant
cemetery
constructing
earnings
la
ladies
obligation
unfavorable
belgium
energetically
fi@@
helicopter
relaxation
tsai
upgraded
assurance
civic
earned
fe@@
fines
saudi
carpark
changchun
closures
consequently
garrison
stone
unknown
considerably
extraordinary
indignation
payroll
peacefully
pointing
prompt
relax
representation
surprise
urging
86
bar
deception
discs
honourable
interfering
isolated
lc
mi@@
organic
viewpoints
agent
cs
designs
guesthouse
policemen
veteran
ator
ded
inspectors
literature
meant
promises
undergone
apr
cycle
fare
rating
romania
summing
zhongnanhai
blocks
chirac
curb
et
excellency
forests
henry
letting
practicable
remuneration
ur@@
austria
consulate
contradiction
experiments
fails
hungary
practiced
recalled
zhong@@
6,@@
couple
detachment
emancipating
fortune
lifting
substance
ya
feudal
manned
nursing
staying
tive
carriageway
har@@
jul
observing
odd
revising
standardize
8,000
com@@
democrats
license
mistake
nigeria
ok
priorities
royal
spanish
interactive
lowered
valued
12@@
caroline
cease
cherish
detention
fong
gr@@
hello
indicating
reconnaisance
researchers
risen
shoes
terminus
conservancy
ge
invasion
ism
striking
switzerland
yi@@
liberal
presents
submissions
tighten
trials
advertisements
catch
engagement
instruction
1972
1979
97
che@@
matsu
nepal
pillar
succeeded
74
broaden
flew
forums
objects
recall
shu@@
soong
12.@@
69
advocates
betting
compromise
explosives
rectifying
unreasonable
wuhan
apology
convinced
damages
militarism
universally
ca@@
drink
hoisted
hsieh
locally
ming@@
modes
necessarily
princess
submission
admit
cited
drew
gansu
makers
uruguay
ver@@
commended
divisions
jan
mature
pledge
screening
slowdown
utilizing
associate
hos
leaps
lecture
mineral
vegetables
workshops
appreciated
brussels
church
discovery
influential
lots
shanxi
arise
han@@
os
triggered
6,000
renovation
slopes
composition
crash
der
fit
floating
moon
organising
20th
colonial
cyberport
developers
epidemic
fairness
medium-sized
nominated
presidency
straight
sung
visibility
160
attributed
huaicheng
ig@@
jailed
ki
spacecraft
towed
unwilling
diet
disseminate
recover
syrian
thomas
toll
transaction
'll
anticipated
can't
paul
penalties
possessing
treaties
ward
ba@@
bail
coordinating
dong@@
enforcing
manufacture
townships
brother
characteristic
consists
criterion
ep
leads
lhasa
resisting
workplace
alarm
amongst
approaching
bosnia
deliberation
grateful
resort
theatre
zhuang
e.g.
expresses
inquiry
intentions
leninism
perfecting
pleaded
rush
souvenir
supplied
tables
usage
wear
zhuhai
ambassadors
beliefs
capitalist
digest
inseparable
responded
sexual
stayed
timing
totaling
angeles
easing
electors
go@@
ignored
intends
precondition
q
railways
rid
sentences
tpb
81
arrogance
enacted
forefront
manufactured
precision
shu
threatening
visitor
br@@
ce@@
currencies
feb
hau
object
strikes
w.
championship
chicken
dual
emergence
opec
sphere
totaled
transitional
trigger
worse
announcing
correctional
exchanging
exploitation
finland
fruit
gentlemen
incurred
jeou
ked
cheng@@
delighted
freely
ists
mix
scenes
slip
supervising
8,@@
attendance
cooked
dry
flows
jerusalem
mediation
premium
terrorists
18.@@
cautious
exposition
fled
interchange
jo@@
readers
styles
tions
allowances
announces
bags
bold
flower
kill
ko@@
measuring
solemnly
accommodation
cc
conferences
earliest
largely
moftec
widening
experimental
exporting
motives
portugal
sick
tea
2,@@
battles
blueprint
capitalism
conversation
gaining
instrument
pipeline
rounds
urbanization
yan@@
airports
belt
collapse
corner
protests
termination
whoever
83
absence
approached
cubic
suspicious
verification
aggressive
arriving
catholic
jian@@
miles
sa@@
sme
abridged
define
etc
exemplary
guards
petrol
rec@@
sitting
threaten
zhen@@
accomplishing
accords
continent
cu@@
diverse
monopoly
philosophy
300,000
administrations
arranging
chaos
iz@@
liberalization
mapping
seekers
broader
classification
forestry
fulfillment
girls
quantities
rampant
sharon
succession
thinks
3.5
clothes
disciplined
executed
highlight
interviews
publish
summed
unfair
91
ard
assault
borders
dominant
kuwait
pride
qinglin
restoration
tracking
3,@@
cr@@
destiny
indicators
leaves
16.@@
1988
assign
color
dynasty
heavily
ity
lying
pentagon
sch@@
shocked
subordinate
themes
unlawful
xiao@@
1978
calm
clauses
helpers
lieutenant
occupy
poisoning
qing@@
syndrome
translation
worthy
checked
detection
economist
pig
shores
22.@@
ballot
defence
expedite
fraudulent
lively
og@@
treasure
van
wise
au@@
blockade
chiu
constituted
festive
inflow
ngos
plaza
pu@@
sort
yongtu
argument
au
authorised
bribery
conservative
lifted
offset
sal@@
senator
tight
underway
20.@@
albert
auto
elders
emerge
fostering
hkmc
ju@@
sydney
vi@@
89
93
contrast
conversion
crops
economists
macedonia
responding
sri
zhi@@
academics
deterrent
floods
inconvenience
margaret
prosecutions
spy
tennis
appoint
ay@@
campaigns
enrich
helpful
recession
ty
bounds
cd
complement
consulting
develops
explored
heartfelt
mideast
myself
processes
provident
tae
worst
ber@@
chuen
cultivated
dozens
educated
kaohsiung
managerial
skill
4,@@
artists
da@@
gangs
jail
lin@@
mobilized
politburo
1,500
29@@
commentator
destination
doubts
publicize
smuggled
spite
xia
enforced
nobody
rainy
witness
84
87
air@@
ali
assuming
commenced
drastic
enthusiastically
innocent
junichiro
literary
specialist
transforming
aiming
commented
defendants
encourages
instructed
watched
20%
centralized
diversity
ensured
faction
polish
reviews
23.@@
clique
commemorative
des@@
drinking
engineer
grams
legislators
stream
super@@
unauthorized
unceasingly
venezuela
voted
congestion
informationization
nominations
receipt
transliterated
viewing
whereabouts
dalian
stabilize
visible
79
cantonese
christmas
fronts
greek
morale
possesses
qaeda
+
a.
deploying
injury
measured
orbit
quicken
supplement
destroying
equally
feet
officiating
painstaking
rock
speakers
treating
yun@@
attractive
device
dispatch
embodied
expose
heroic
proceeds
qiang
tragedy
berlin
deficits
delayed
incentive
jung
obstacle
racial
sabotage
tion
1950
counselling
lunch
victories
defeated
evident
mobility
slogan
sur@@
unnecessary
dogs
escape
heat
scientifically
approving
briefings
editor
herself
investigators
lectures
ob@@
ously
peiyan
proceeded
sentiments
technicians
unilateral
arrears
avoiding
chemicals
dismissed
egyptian
ethical
prudent
southwest
ticket
bing
cape
consolidation
imposing
ku@@
mo
ordination
ors
patterns
uniform
yip
ze
110
advertising
carnival
diligently
elect
hai@@
headway
indoor
ized
jurisdictions
sustaining
travellers
acquisition
consultants
criticize
drills
foodstuffs
ov
pension
posters
vanguard
analyses
educating
endangered
guang@@
honorary
privacy
pudong
successive
gen@@
kei
obstructed
persistent
preservation
qualification
readjusting
sed
starts
sustain
symbol
banning
counting
licensees
manila
postmaster
songs
suffrage
unify
1.6
5,@@
bi
cur@@
dangers
deadlock
diplomats
ed@@
heaven
peacetime
prh
racing
seconds
shareholders
tolerate
unlikely
assessing
confiscated
god
inmates
partly
recruit
setbacks
ste@@
vicious
vigilant
baby
broadband
clarify
constituency
end.
firearms
heights
luk
neighbor
utilize
yuanhua
13.@@
aggregate
ass@@
confidential
congratulated
heighten
indication
interception
leg
ring
san@@
wa
countryside
ery
executives
shake
transmitted
accountable
adds
irrespective
merit
ours
peter
appointing
passports
pin
ranked
ses
troubles
viewers
window
7,@@
approaches
ats
geological
gnp
graduate
ipr
jewellery
joins
kun
optimize
avoided
des
handful
plb
tricks
ants
chiefs
dec@@
forecasts
guarding
intellectuals
percival
pharmacy
sand
sts
'@@
ars
bal@@
castro
chatham
colin
confirm
cor@@
diversion
emancipate
embrace
hardware
personalities
retailers
shatin
ts@@
windows
administer
encounter
england
expense
hinterland
isd
launches
portuguese
puts
sticks
switch
aa
addresses
authorization
california
impressed
intent
refuses
responses
spur
conjunction
dissatisfaction
distinct
donations
endless
engineers
fewer
gu
inferior
nongovernmental
oc@@
pays
tensions
vatican
1970
@/
aug
availability
dependent
duration
guam
manual
parallel
robust
standardizing
tac
9,@@
brazilian
conscientious
contacted
countermeasures
incoming
married
parade
retained
suited
ably
contracting
demobilized
easier
exclusively
hamas
hrs
ize
patrick
res@@
stories
17.@@
bangladesh
culprits
destinations
exercised
featuring
lease
overnight
removing
rumors
sophisticated
yoshiro
15.@@
begins
behaviors
enters
fans
harbor
notified
potentials
sport
eastward
heung
indefinitely
languages
lights
medal
multi@@
okay
outflow
purely
radiation
truck
24.@@
afghan
captured
confusion
mouth
pertinent
secured
sister
sk@@
contractual
deterioration
divisional
elementary
expecting
morality
passive
prestige
refrain
shelters
zhen
ap
blows
chao
crises
dog
email
fanling
intermediary
lacks
ology
pdf
virtually
28.@@
arrivals
ary
cheong
choosing
favored
fifty
filed
infringement
polluted
soe
tall
auxiliary
contributing
delivering
deny
encouragement
excluding
hardcopies
raids
reveal
salisbury
tenders
zh@@
cai
clause
ent@@
generating
hardships
imminent
lake
oi
reliance
teach
tours
whereby
yuk
1985
333
cheney
crashed
interesting
java
legislature
meticulous
reject
richard
subhead
super
amounting
chunyun
custody
descriptions
ise
journal
st.
trains
ups
utilized
walls
yung
140
chip
ering
explorations
ge@@
micro@@
multipolarization
apartment
concluding
eager
happens
jong
junctions
manifested
profile
sarah
shenzhou
sympathy
wet
alternate
asem
entities
fuk
healthcare
plateau
quotas
sampling
tse
winner
av@@
chin
concentration
gratifying
shelter
tien
vacancy
beauty
ccp
celebrations
chilean
engine
everyday
hsu
ker
landscape
loading
prohibition
robert
stabilizing
sudan
ter@@
toys
unexpected
zi
'd
27.@@
commemorate
existed
homeland
ised
outlet
picked
reinforcing
solely
1.4
40,000
ches
coach
refusing
slight
till
transformed
walked
applause
barrels
boundaries
discover
hy@@
inspecting
ley
presently
reversion
vetting
ati@@
booking
changqing
denmark
dongshan
eg@@
favourable
fires
gar@@
hi@@
mat@@
ns
searching
1.1
aging
apparently
benefited
bulgaria
definite
excess
nowadays
reserving
ung
verdict
apologize
bag
construct
declining
deflation
factions
feedback
ins
loyal
mal@@
pain
pw
rockets
zhan
1.8
abode
burning
cloudy
co.
geometric
hostility
ising
keynote
projected
supporters
walking
withstand
cornerstone
elder
gh@@
grim
inadequate
instituted
medals
preparedness
salt
seriousness
celebrating
clinic
dedication
methodology
minded
promotes
restored
sugar
advisers
amending
annum
atomic
charging
clock
conclude
displaying
investor
mentally
npcsc
photographs
targeting
up@@
believers
chi@@
izing
lawful
virtue
wood
10.@@
explanations
inappropriate
incorporating
postage
secretly
sees
simulated
varieties
affects
constructed
long@@
negotiate
quo
undermined
voiced
answers
arabia
connections
elimination
elizabeth
explosions
her@@
mas@@
proficiency
tian@@
1986
anti-corruption
boldly
breaks
comfortable
exploit
fastest
keeps
livestock
render
sa
adopts
allied
applies
bai
camps
clashes
comfort
emperor
ep@@
gift
hiv
isolation
licensee
partial
procession
shuttle
1.7
attaching
bas@@
belongs
budgetary
regulated
rooted
singing
uzbekistan
26.@@
7,000
administered
cap@@
crowds
database
disneyland
essentially
expectation
finish
laser
ordinances
rendered
slogans
slowly
suggest
traveling
watches
ys
21@@
centering
embodies
handover
improper
infrastructural
matches
shun
struck
surrender
tor@@
350
accessible
ach@@
aforementioned
austin
citing
competitors
downward
emphasizing
explicit
feels
lodged
lowering
mc@@
understands
andrew
champion
divorce
monument
portal
str@@
tri@@
usa
whilst
zhongyu
chun@@
disclosure
drama
horse
ireland
journalist
koo
lockhart
platforms
praise
rainstorm
retraining
stakeholders
surge
terror
tim
volunteer
athens
azerbaijan
down@@
experiment
freedoms
hangzhou
inalienable
indispensable
ingly
jun@@
meticulously
announcements
fishermen
lists
magic
restrict
skilled
spectrum
tieying
touched
widen
zi@@
barrel
divide
fishery
greening
mongolian
rigorous
superintendent
taxpayers
tenure
1,0@@
assured
az@@
bl@@
confronted
constituencies
developer
disciplines
end@@
recruiting
tai@@
1987
analyzing
armaments
consul
corridor
intervene
kindergartens
martyrs
referendum
toilet
conventions
croatia
delhi
dr@@
errors
facilitation
frozen
logic
mainstay
overcoming
uploaded
verbal
aerial
albanian
cigarette
concentrating
expiry
heilongjiang
maneuver
replacing
sight
winds
austrian
bloody
cancellation
csd
deliberate
expects
fl@@
gi@@
inc@@
ulterior
workforce
2.4
addicts
bars
beef
density
exceptionally
freight
gets
harder
legally
nan@@
prosecutors
pui
reserved
teus
50%
meaningful
nepalese
outlined
portfolio
rationally
stimulating
tunnels
ant@@
fatf
hitting
humanity
integral
kinmen
layout
mount
openness
reflection
shock
you@@
afford
ascertain
dam
gifts
granville
highlighted
joy
precautions
unilaterally
wan@@
worsening
abusers
bil@@
commissioning
continual
cyber
holdings
ir
na@@
nurses
obstruct
pages
professions
seem
stern
tenancy
ukrainian
upsurge
wei@@
0.5
absurd
buyers
legislator
maybe
modified
monitored
negotiating
proves
seas
seasonal
separating
voluntarily
wishing
assisted
bureaus
chose
importation
inherent
irrigation
popularization
vacant
cpv
geared
generate
matching
postponed
republicans
shifted
soes
spirits
vladimir
1982
anxious
basketball
belgian
codes
dealers
focuses
fore@@
ful
ments
pensions
placement
rated
resuming
tolerance
180
ash@@
delegate
hand@@
jinan
oct
pang
realm
sc@@
sentiment
solicit
bombings
cas
changxing
comparable
def@@
explaining
genuinely
orchestra
pull
similarly
tendencies
unacceptable
weakened
consents
dec
donation
honesty
priced
putonghua
shadow
surveyed
tears
abu
adjacent
burst
centered
conducts
endanger
evasion
forty
ization
mor@@
pien
sc
scholar
telling
william
barracks
compare
digit
evaluate
excellence
prizes
scattered
scores
sin@@
toilets
upward
wu@@
xu@@
yielded
advantageous
aided
deals
demolition
den@@
fares
foods
ines
ivanov
militants
minorities
oneself
refusal
swiss
underemployment
0.1%
150,000
burn
eleven
fabricated
kau
movies
outdated
pollutants
posing
sco
sect
stubbornly
uganda
absorb
cuts
disregard
eggs
ence
evolution
gaza
lacking
mac
metre
opponent
safely
splendid
threshold
unusual
woo
2869
ample
backed
diamond
ely
evade
intercept
jiechi
loaded
pan@@
silk
11.@@
adjudication
coaches
guan
hab
ics
images
impoverished
jumped
pigs
recognizing
recruited
recurrent
shih
silverstrand
thirds
uniting
14.@@
accommodate
admiration
can@@
distorted
guo@@
learnt
promulgation
qi@@
recording
25.@@
accumulation
barrier
excited
expositions
furthering
harmed
objectively
player
protracted
ra
shut
stipulate
substances
supportive
waged
wins
2.30
accomplishments
b.
del@@
exempted
ga@@
gardens
hal@@
honored
logistic
owed
p.m
persisted
pressures
rc
sang
verified
voices
waterfront
accorded
architectural
attaining
hegemonic
howard
immolation
indicator
marching
pri@@
shore
worship
yat
brothers
disclose
elsewhere
infringing
install
irresponsible
positioning
promising
reactionary
replied
0.2%
airline
endorsement
incomplete
lawyer
mexican
obscene
pipelines
ser@@
verify
bul@@
complexity
duma
enactment
explosive
formula
icac
imperial
re-@@
recycling
relieve
romanian
slovakia
subcommittee
syndicates
ac
atlantic
author
automation
ben@@
championships
chaotic
cleanliness
column
condolences
eligibility
hanoi
inclusion
mainlanders
outbreaks
plain
reasonably
relocation
societies
accuracy
alive
exhibits
ff
guofang
xianglong
ak
ality
constraints
cooperating
footwear
indirect
lanes
litigation
mak
mou
operates
sir
tablets
ves
wherever
writers
yangtze
yearly
analytical
believing
chairperson
cheque
containment
cul@@
doors
jet
opera
pretty
radical
tied
ye@@
airplane
circuit
cool
councillor
fo@@
frederick
glass
imperialist
incorporate
ler
noticeable
rescued
tabled
vulnerable
wales
war@@
consisting
desk
dutch
emsd
francisco
funeral
halt
instability
jiang@@
labelling
panels
readjustments
roc
survive
tw@@
vaccination
vienna
0.1
challenging
conclusions
discusses
earmarked
folk
hsiung
identifying
incumbent
ld
nov
pc
sorry
wire
1984
25%
colombia
confederation
confronting
congratulatory
criticisms
fleming
kunming
lanzhou
loopholes
obstruction
relay
stating
unstable
versions
virtual
2.3
airplanes
angola
assessments
ban@@
cement
chairmanship
determines
earn
onwards
self-immolation
sion
splittism
strange
twelve
twists
aries
clouds
cure
embody
enriched
entity
exposing
firstly
libya
os@@
revisions
subjected
sums
touching
0.3%
7.30
continuation
desert
doesn't
ecology
environments
fa@@
irrational
lion
patriot
petrochemical
predicament
relied
teenagers
vivid
wkcd
advisor
cluster
exerted
graduated
inspector
militia
pure
resign
sacrifice
witnesses
angry
arbitrary
cohen
freeze
multimedia
perfection
roving
ten@@
violates
warheads
1960
broadest
cooperated
damaging
daohan
feng@@
inspired
kashmir
lanka
peru
precautionary
restoring
superpower
tendering
xing@@
affiliated
attachment
corp
culprit
greenhouse
holder
liberalisation
neglect
neighborhood
stars
60,000
adversely
aff@@
artificial
buddha
communicate
instantly
morocco
mubarak
ningxia
presenting
recovering
scandal
anticorruption
bombers
coins
cre@@
dcs
modernized
replies
si
sternly
yang@@
zhu@@
camouflage
cia
communism
correspondent
countless
locality
pornography
schedules
spoken
tangible
thirty
toronto
admiral
belonging
bridges
brown
c.
ignore
mid@@
popularity
possessed
powered
pricing
recognizes
rival
ying@@
1949
5.5
adheres
advertisement
calculation
captain
colorful
ently
finds
guides
hazards
iaea
ird
ki@@
norway
posture
punishments
relies
weaken
:@@
arguments
biao
foresight
of@@
predict
professionalism
proposing
safeguards
undermining
22@@
buddhism
distribute
ish
jones
nonetheless
tap
val@@
2.6
29.@@
ambulance
catching
cc@@
chair
distinguish
influenced
ldp
mer@@
pp@@
producers
provocation
star@@
strides
swiftly
y2k
11@@
backgrounds
careers
confront
dafa
destroyer
forcefully
guangen
inf@@
museums
notify
qatar
qingdao
rmrb
singh
string
zheng@@
abolished
adult
blitz
boosted
crux
deprived
domestically
emphasizes
ents
homage
jaffe
premiums
rome
varying
70%
appealing
ball
cairo
ccb
clarified
crop
cui
dialog
els
h5n1
martin
maturity
mrs.
sha@@
solar
stored
sun@@
tournament
understandings
ana
compatible
ef@@
ideologically
interpret
laboratories
passes
regina
shantou
transferring
uncertain
yongbo
blocked
brands
broadly
cen@@
classroom
compact
counters
directorate
donated
dy
embarked
ess
fs
guinea
hiring
industrialized
influences
likewise
noticeably
prevented
prohibit
reinforced
searched
simulation
sl@@
sponsor
win@@
collided
disrupt
huai
huh
indirectly
musharraf
polarization
sooner
streamlining
trails
weighing
agrees
helper
iceland
judged
locked
ly@@
nuisance
pen@@
rebound
remedial
struggling
suggests
surrounded
um@@
30%
bs
connecting
description
dimensional
hksarg
insists
lam@@
sam@@
tend
85%
ade
blindly
brave
bypass
caring
chips
dae
developmental
extraordinarily
fallacies
guangya
handicapped
happily
hd
interface
juvenile
levy
meng
mil@@
misunderstanding
qinghua
quiet
spouses
50@@
beidaihe
blame
campus
cleared
enc@@
ens
fyp
heng
muslim
punishing
recommend
reminds
repairs
sheng@@
ya@@
2842
a.m
altogether
cis
disadvantages
distinctive
duo
durable
ical
insight
liquidity
malaysian
practitioner
rebels
sons
tone
wine
bao@@
bol@@
bur@@
comprise
confirmation
counter@@
eradicate
hardship
head@@
motorcycle
occurs
opponents
procuratorates
roll
shaking
strip
thin
zhaoguo
zhongguo
attraction
biden
bu
controversial
dispersed
downturn
farewell
ie@@
ises
iso
meritorious
paragraph
popularize
raymond
realistically
relocated
saved
swedish
titles
wi@@
wonder
0.5%
50th
aw@@
booklet
breaching
compiling
hussein
ku
lifestyle
mentioning
notably
shield
warrants
bitter
bonn
cas@@
croatian
frankly
hire
innovate
knocked
relics
residing
speaks
squarely
subjective
sundays
clubs
commits
experiencing
grasped
hearings
ious
noble
pat@@
penetration
prefectural
requesting
reverse
upholds
congo
connect
controversy
cumulative
diversification
harbin
jakarta
kidd
lady
nixon
proposition
renewed
ret@@
s.
schroeder
upright
valuation
16th
beings
boeing
capture
dawn
doctrine
dropping
expressions
finals
finnish
gear
hazard
irish
irregularities
kennedy
random
sat
throw
turkmenistan
varied
asi@@
bel@@
caution
chances
cohesion
colour
criticizing
distant
fed
gallery
happening
harsh
husbandry
limitations
load
ought
pol@@
practically
progressing
ure
0.4
abiding
argentine
ballots
celsius
craft
fr@@
greeted
jewish
persuade
reagan
rents
tor
warn
wui
adaptation
boys
ched
posting
reveals
ri
shed
sil@@
submitting
uc@@
underneath
vary
writer
1983
7.5
arbitration
bell
conscious
debates
gateway
groundless
guy
mood
occurring
ov@@
patents
recurrence
renew
sen@@
suspicion
traveled
trick
tripartite
tvb
ws
0.4%
albania
blast
compilation
converted
designing
euros
founder
hired
huang@@
judgement
migration
mp@@
que
scenic
sihanouk
standardization
sticking
subsector
warming
15%
arrives
cameras
clearer
connotation
consequence
dear
decree
detrimental
gender
greet
highlights
infantry
interpreted
ioc
kar@@
prominence
readjusted
tal@@
uncle
withdrawn
0.7
2.2
abolish
astronauts
den
disinfection
hoc
judgments
obsessed
physics
roasting
shoulders
sinister
slowed
storms
systematically
0.7%
1.9
15,000
arroyo
attitudes
ceo
collectives
cyclone
eac
emily
excessively
featured
golf
harms
hosts
juncture
koreas
lun
persisting
rowse
slaughtering
supplying
tehran
tightly
tong@@
zou
0.3
1990s
arbitrarily
bc
cents
charitable
conscience
feed
imagine
perfected
pledges
racecourse
rarely
tactic
tat
terminals
urumqi
warship
2.8
accomplishment
airborne
assistants
ay
camera
duc
embargo
ideologies
pfp
pregnant
thick
0.2
09@@
25,000
30@@
abnormal
ae
apparel
assignment
cry
der@@
ders
differ
fication
fying
glory
greeting
hor@@
lawfully
mere
musical
optimization
organisers
planted
reciprocal
safeguarded
saturdays
turnover
unmanifested
wh@@
wholly
1-@@
1.1%
aiding
behaviour
churches
competing
counsel
daughters
demonstrating
dissatisfied
efficiently
engines
globe
hungarian
ish@@
oned
pipes
questioned
sam
specifications
sweeping
tan@@
tic@@
xia@@
1,200
35@@
ani
blaze
confused
cum
deliberations
doomed
ev@@
georgia
honour
jump
pu
races
ram@@
readily
reservations
sailing
summarized
tak@@
thirdly
toxic
ultra
warrant
11th
170
6.30
80th
algeria
binding
cal@@
cemeteries
chin@@
crossed
denounced
don@@
ff@@
kes
knowing
licenses
mody
ngau
pac
pi@@
pupils
ster
terminated
4.5
alcoholic
amidst
battalion
birthday
chronic
dan
disseminating
envoys
exceptional
hospitality
kazakh
lap
recruits
rises
sul@@
torture
turtle
u.
collapsed
defraud
dished
embark
expensive
hei
merchant
merge
objections
packaging
probe
ratified
sions
sober
tors
alan
allocate
ble
curbing
dismissal
enshrined
equip
hko
infiltration
ite
jiao
kenya
prospective
quietly
ratification
soberly
sword
technique
thrown
usable
1000
3.2
ambiguous
black@@
dereliction
downs
edward
functionaries
ina
interpretations
knife
mazu
pei
rebate
shell
stir
tes
tiger
wash
wetland
90%
burglary
destructive
detect
dominated
drinks
dust
erected
furniture
hegemonist
insurers
ore
protectionism
shirt
thereafter
toured
tur@@
ve
ventilation
water@@
yunlin
...
5.30
acceleration
bargaining
buried
drove
forgotten
invites
kan
ls
nobel
presidium
presse
purchasers
researcher
roof
stem
ulsd
’s
bankrupt
bears
collectively
competence
displays
drafted
fi
fied
hiding
inquiries
longest
maker
microsoft
ner
occupying
packages
trio
uranium
weakness
2020
3.8
bd
cad
chuan
cove
describing
emergencies
fin@@
impaired
initiate
interconnection
madrid
magistrate
materialism
observations
sau
specify
subscribers
supermarkets
tragic
trucks
voter
benchmark
burned
charles
cooking
distributing
doha
eased
hero
impartial
inspiring
israelis
lifeguards
lui
optimizing
shang@@
unofficial
2.1
ann@@
cancel
centuries
describe
espionage
extremism
finances
formerly
governed
hawk
ignoring
kiong
lawsuit
merchants
nationalist
peripheral
sighted
80%
apparent
arthur
automated
banners
dna
ets
fitness
foundations
helms
keung
kilometres
leasing
macedonian
operative
spotted
sti@@
swim
trans
vi
waging
wheat
yourself
aquatic
broadcasts
condemnation
cordially
designate
desired
dow
fold
gates
hel@@
hostage
inhabited
jiefangjun
lightly
mud
multi-@@
pres@@
proclaimed
railroad
rejuvenating
reversed
rogue
strongest
tering
tony
1.5%
10,@@
automobiles
calendar
cfa
clash
deceive
emphasised
hide
massacre
minimize
plots
raidi
rightwing
strata
volumes
yeah
ambrose
chart
congressional
correction
devoting
hanging
headlights
indigenous
laborers
outsourcing
rezoning
shau
strategically
subsidised
taught
trademark
trustee
tune
widened
yuan@@
adults
ceaselessly
deter
fame
graduation
isation
lobby
marsh
misleading
offenses
publicizing
receives
reformed
sealed
simultaneous
surcharge
tells
alized
attractions
conferred
equ@@
faithfully
hostages
kidnapped
ned
noes
parameters
qu
quake
rou@@
slightest
slovenia
speculation
accusations
basin
col@@
confined
continental
environmentally
habits
halls
intentionally
kuo
mary
ny
pursues
sponsorship
summonses
tenant
agence
ast@@
collusion
comparative
demarcation
embodiment
forbidden
relate
robbed
rumor
sheetlet
tid
und@@
wal@@
xiang@@
2.5%
75%
9,000
ambition
anger
boarding
concessionary
cru@@
dialectical
diving
dramatic
elite
error
gasoline
gratia
guang
imperialism
insider
itsd
liquor
pipe
restricting
straighten
streamline
totalling
uncovered
wonderful
1,6@@
atory
brain
chilled
convert
crowded
declines
dispose
far@@
historically
hun
immense
jol
moldova
observer
pboc
reiterate
selfless
tb
throughput
tightening
tuition
0.8%
anxiety
blackspots
breaches
ceiling
comprised
declaring
disastrous
disorder
genetic
goers
labels
popularizing
preserved
reliability
revival
shortcomings
shouted
studio
sudanese
88@@
ack
ageing
backdrop
belgrade
bent
businessman
compound
disturbance
emancipation
exact
flames
gun@@
herzegovina
hou
ie
landmark
milk
org
ow@@
pack
pictorial
seafood
sep
symphony
taliban
4.30
automatically
colombian
concealed
departing
deterrence
directing
enlarged
frame
loved
motivation
pleasant
rebates
regiments
stroke
subsistence
sunshine
supplier
terminate
ths
tries
tt@@
vain
depart
jiyun
layer
ling@@
magnitude
procurator
relieved
repulse
resentment
shaped
shareholding
shifting
shubei
transported
vibrant
14%
anti-ballistic
arrogant
bru@@
cells
counted
divert
fault
importers
injuring
kiu
loyalty
periodicals
psychotropic
restrained
rolling
ron@@
shipped
swift
uygur
vincent
10.30
abused
cho
commonwealth
convincing
dao
energies
fac@@
farther
foremost
humans
ketamine
liver
maps
obey
om
oversee
pave
principals
reads
shijiazhuang
tanzania
1910
cardinal
ceased
climbed
csb
enact
evaded
globalisation
hometown
ily
indiscriminate
kindergarten
lian
manufacturer
militaries
ms.
pandas
patience
phrase
3.1
36.@@
accessories
afterward
ancestors
beating
continuity
deed
dictatorship
dioxide
ethiopia
fai
haikou
malta
mayors
misgivings
niger
poison
shook
sponsoring
sulphur
totalled
tribute
132
alization
allegations
awaiting
badly
claimants
commands
cook
energetic
fang@@
fenwick
harvest
hatred
improves
ion
littering
nurturing
quit
reemployment
ripe
shark
sunny
tseng
unavoidable
wound
0.6%
11%
2.7
47@@
baltic
biotechnology
bor@@
escort
generals
geographic
govern
mag@@
presentations
relaxing
reunifying
stake
surged
tracks
urbtix
yeh
3.4
academician
barak
elevated
habit
heated
immunity
intelligent
itinerary
jen
lgv
merging
mtrcl
outgoing
pertaining
tdc
thaksin
timor
updating
xian@@
1,3@@
60%
alised
appearing
bei
comp@@
discarded
fies
flourishing
lukashenko
marriages
mh
oecd
perception
protesters
ride
rolled
senators
soliciting
speedpost
ther@@
ti
voyage
xuanping
1.4%
450
ari@@
bronze
crewmembers
disturbances
friction
healthily
hol@@
hsin
kit
kofi
millimetres
mobilizing
ne
reimbursement
rightist
robinson
sponsors
staunch
stoppage
underwater
unmanned
warsaw
aforesaid
allegedly
bio@@
brazenly
disappointed
dongjiang
ecstasy
excluded
gmt
honorable
instant
kerry
kidnapping
kilogrammes
mike
occupies
plunged
possibilities
post@@
prostitution
pursuant
securing
wi
240
adequately
back@@
bilingual
decides
declarations
defects
dependence
fy
honestly
imbalance
incentives
ismail
manifest
metals
mighty
obuchi
plenum
presiding
scolar
shao
strain
surpassed
tape
ugly
wa@@
04@@
1.3%
105
abreast
approves
backwardness
charity
conditioning
cruel
discriminatory
extremist
impressive
indebtedness
kissinger
manifestation
men@@
mi
nie
nurture
queuing
refund
ric@@
rthk
searches
showcase
treasures
trusted
zts
0.6
abe
abusing
appraised
arrests
boss
cycling
disney
drastically
dressed
enrolment
evoked
modest
pa
panama
questionnaire
releasing
sci
successor
suits
1.7%
1945
aboard
actors
afforestation
attainment
basing
bro@@
bulk
chambers
clo@@
consular
deemed
disappeared
fluctuations
formidable
lab
lag
meal
militarists
missed
networking
provider
puc
sec@@
temperatures
transfers
underlying
unrealistic
vo@@
0.8
1981
2537
alcohol
argued
cafeteria
cer@@
chih
chu@@
contamination
decadent
defining
designer
disability
fsd
ging
hawker
inbound
invaded
pamphlets
prosecutor
repay
socialized
tu
unfortunately
vacation
weaknesses
1.6%
alignment
ams
bureaucracy
chat
cho@@
clues
deliberated
emotional
exciting
forcing
heroes
khatami
kin@@
mechanized
organizers
road@@
spared
stalemate
superstition
tolerated
vowed
wheel
0.9%
12%
airfield
anthony
arming
cherished
chuk
creates
erosion
fluctuation
homicide
huaren
miners
mozambique
ordinate
originated
oxygen
physically
pronounced
sizes
suppress
35.@@
alize
benefiting
congratulate
doubled
excuses
flesh
flu@@
ford
ham
kicked
liber@@
o'clock
pact
painful
refined
sept
shan@@
shouldering
telegram
unveiled
wsd
ze@@
1.8%
350,000
bogus
bulletin
degeneration
drag
duan
elling
forceful
frigates
gm
hkcec
imp@@
irreplaceable
leaflet
neglected
packed
qin@@
reactions
retaining
spectacular
turbulence
universe
unswerving
vis@@
visas
wanton
2-@@
6.5
appropriation
cher
chou
codenamed
colors
contaminated
directional
est@@
expeditiously
fbi
files
filing
fulfil
geng
ile
outlines
permanently
plenty
readings
reshuffle
roughly
shocking
steal
sufferings
tenancies
translated
vancouver
venezuelan
wellington
4.6
abdullah
alism
assembled
bravely
competitor
cyprus
expelled
guangkai
ignorance
immd
infringed
jia@@
kou
kuan
lighting
ovitrap
recalling
rs
stones
subvented
subway
tantamount
viruses
vis
1,4@@
33@@
80,000
activated
denying
directives
discretionary
garments
gg@@
gl@@
hits
invincible
mingqing
oau
ol
pyramid
rel@@
sive
sufficiently
1.9%
affiliation
bottles
clp
commendation
complained
criticizes
embassies
hkia
journeys
justified
levied
lit@@
magazines
na
nanning
perfectly
rainstorms
registering
resigned
reversing
singaporean
sm@@
softcopies
surprised
vaccine
zambia
999
additionally
armitage
batches
bathing
bonded
buhe
circuits
courageously
decreasing
deleted
governors
indecent
lagos
lobbying
ment@@
metric
modification
offender
patrolling
poses
proletarian
prone
questionnaires
regeneration
repayment
servant
shao@@
unclear
workload
12,000
attorney
borrowing
celebrated
ch'en
daring
decoration
diplomat
festivals
firemen
gauge
hua@@
ide
med
nor@@
petition
pornographic
prisoner
procedural
professors
reckless
sk
standpoint
thereof
tly
tra@@
troupe
vajpayee
1,5@@
ada
allegation
conformity
diligent
eia
exempt
extradition
fears
grace
gy@@
maneuvers
new@@
nu@@
praises
prof
recognise
roundup
seated
signature
simplified
texas
thesis
tomb
tunisia
winding
~@@
benign
coping
curtain
enrolled
exploiting
fer@@
ger@@
hawkers
intermediaries
ished
latvia
moderately
non-public
polar
por@@
propagate
roa
ry
sleep
sluggish
sol@@
suzhou
tela
tics
tsunami
unexpectedly
updates
vegetable
0.9
1,7@@
360
4.3
400,000
assure
badminton
chunlin
circumstance
creatively
edinburgh
forecasting
hazardous
irresistible
ited
lan@@
mahathir
nonsense
ping@@
pulled
reo
sided
2805
8246
academicians
approvals
ash
assignments
ata
bombed
commemoration
cyl
dealings
demonstrators
devotion
enrichment
hay
installing
islamabad
miracle
mur@@
neutral
ped
perspectives
prospecting
surveying
tsz
unfolding
2,500
8.30
beside
breakfast
chavez
chest
commencing
faculty
inject
jacques
kick
litre
loud
meals
merged
neighbouring
nice
ola
outsiders
paramount
remarked
sail
shipbuilding
shorten
skin
span
spr@@
thematic
trousers
unlike
withdrew
1687
2.7%
2009
260
4.2
all@@
apprehended
carparks
climbing
exploded
feeding
fiber
hereby
iis
inconsistent
jianhui
liquid
lock
lodge
multiparty
personality
postpone
prisons
prosecute
publicized
reasoning
self-defense
speedy
streamlined
tail
topped
ven@@
1.0%
2511
9.30
antidumping
babies
cat@@
chechen
commend
deteriorating
enriching
forbearance
guardian
ky
mad
missionaries
monitors
partially
plate
pok
restructure
riding
righteous
sad
shaken
slowing
swing
sworn
trail
unpopular
warplanes
13th
14th
220
230
acquiring
ah@@
arousing
ational
blocking
broadening
commensurate
cow
credentials
creditors
din@@
h5
intake
iting
kcr
mastering
obstructing
preferred
quickening
renewable
rough
shortened
transhipment
utilisation
veterinary
1.2%
9th
absorbed
ation@@
burma
chairwoman
consuming
exhibited
exile
gene
hinder
inclusive
incorrect
matched
mirror
nguyen
nights
paintings
panic
pat
prod
rammed
refugee
shoddy
stubborn
sy@@
tenet
transcript
zhubin
4.7
ali@@
caritas
cha
compelled
demerit
expressway
facilitated
globally
inflicted
insisting
invention
leakage
produces
quoting
recipient
retreat
thriving
usd
washing
102
3.6
alizing
caribbean
centralism
challenged
drilling
enlai
ensures
evaluating
farce
fred
gs
ham@@
interfered
land@@
lebanese
midst
nose
notorious
paths
pit@@
repercussions
seed
uruguayan
withstood
xue
’@@
40%
accreditation
anyway
bubble
crown
deceived
gist
hackers
jinmen
lagging
lord
nokia
notwithstanding
patrols
pillars
pt
refuted
revitalization
shimbun
trap
ture
wounds
1980s
6.8
64@@
accepts
aggravate
chartered
elaborated
evaluated
fitted
fur@@
goh
iraqis
itu
kai@@
lastly
lucky
needy
opium
rebuilding
scenario
serv
sustainability
toy
vol@@
wards
withdrawing
1975
=
capacities
childhood
confrontations
describes
dividing
extricating
hectare
hinges
inspire
ja
nigerian
pairs
penghu
quickened
resettling
slump
squadron
storey
transporting
wil@@
190
3.9
bauhinia
bing@@
bomber
brigades
calligraphy
disintegration
elevation
explains
jean
kiosks
liquefied
luxembourg
mounting
pamela
promenade
prosper
rch
reap
segment
uncertainty
usher
vertical
xun
5.6
anson
aziz
battlefields
bloc
consumed
depression
discard
noteworthy
peking
precedent
registrar
roundabout
song@@
stealing
tailor
unfold
vtc
wasn't
wool
work@@
worrying
worsened
zimbabwe
zu@@
112
amb@@
arm@@
berg
bra@@
caliber
cont@@
cp@@
disparity
disruption
dragged
escaped
evolved
gal@@
ged
harming
ishihara
kuen
legqog
lim@@
neck
overthrow
progressively
seeds
switched
tentative
ton@@
transmitting
volatile
600,000
:00
agreeing
akayev
alist
alities
antiaircraft
breath
briefly
cholera
columbia
condemns
cooperatives
councillors
exerting
hearted
jasmin
legs
lifetime
mau
narrowing
nasdaq
nervous
nowhere
prague
reeducation
rong@@
setback
sheets
slovak
sounded
tc
threw
wax
5.2
aftermath
bacteria
blackmail
booth
chicago
choy
dated
eng@@
equitable
gatt
i.
irregular
lacked
likes
mad@@
negotiator
rendering
stabilized
tation
tom@@
tro@@
uneven
vested
warmth
1480
863
adapted
bathers
beds
belts
cables
carrie
climb
collinson
condemn
deceiving
ear
earning
eco
failures
flowing
gmb
holy
ill@@
nov.
preliminarily
projections
questioning
reinforcement
researches
surging
tasked
trapped
wipe
wishful
xue@@
70,000
balkan
bullied
colonel
connaught
coupled
discharging
emb@@
enrollment
evading
gaps
intending
internally
invigorating
lorry
misconduct
mul@@
negotiated
ological
privileges
ran@@
seaborne
urs
veto
0000
55@@
7.8
8844
asks
awa
beaten
ber
breached
bullets
consummation
converting
dawamat
depot
divorced
grey
heavier
incompatible
internationalization
kabul
kan@@
label
lays
loc@@
mel@@
obstinately
paterson
pitch
precise
protects
rape
redundant
resorting
ry@@
smile
socio
stuck
supremacy
sze
tre@@
trunk
unjust
unloading
vague
warns
xi'an
3.3
absorbing
accusation
aps
bai@@
bolton
chapters
cpis
dental
ell@@
fok
greenspan
honoured
jfjb
jpc
martial
materialize
ong@@
pioneer
premiers
prohibiting
ratify
reductions
remarkably
reservoirs
she@@
staging
testimony
throwing
zhongshan
5.3
6.3
6666
ain@@
amphibious
anc@@
carbon
classical
contention
democratization
disciples
dp
dushanbe
fil@@
izes
jiahua
kuala
kui
lingshui
litter
lumpur
mus@@
proprietary
pur@@
retire
ruan
scholarship
scrutiny
shortages
spaceship
terrible
tively
zing
1,600
2.9
adequacy
ais
amat
assumption
calculations
convergence
deduction
deserves
disguised
dominating
equals
falsely
fire@@
ich
igor
jialu
leong
loudly
pioneers
rap@@
rehousing
rubbish
tically
tis
tonnochy
trustees
wat@@
2.6%
5.4
ceremonies
char@@
commemorating
complied
confucius
departed
evidently
hopefully
hydro@@
intercepting
leather
lian@@
motorola
nitrogen
poon
precinct
prueher
sar@@
scs
unpaid
113
117
270
ads
atively
breadth
compensate
convening
disposed
distinctly
edged
ey
gangchuan
guan@@
logical
pe
photographic
refuge
rejecting
shouting
signatory
strained
suppression
victor
volleyball
weakening
2.1%
bun@@
butterfly
casting
changsha
circulated
clarification
client
deserve
dining
disrupted
expire
fox
inherit
kee
lightening
lithuania
multipolar
nar@@
northwestern
officiated
organically
oversight
politician
prescription
rebuild
seng
springboard
surcharges
unidentified
unremittingly
16%
280
3-@@
3.1%
38.@@
39.@@
ankara
anywhere
balances
benevolence
chase
correspondents
discretion
dominate
dongguan
escalation
ili
ili@@
jinhua
kono
kuk
luck
mails
mild
prefectures
qui@@
ranges
rein
restrain
rubber
shaomin
shoot
shou@@
stealth
stuff
teenage
titled
tomur
umbrella
youde
108
37.@@
4.4
adb
bin@@
clocks
counterfeiting
empowered
endeavors
form@@
gpo
heresy
instigated
lif@@
luli
mosquitoes
probation
pulling
scenery
sisters
telephones
2.2%
213
3.7
ame
anna
asylum
bins
ceasefire
chinanews
cloud
cnn
cy@@
dly
hketo
iling
lightning
lily
luxury
matthew
migrants
militarily
nanchang
pit
plates
pot
prejudice
pressed
profitable
prompted
relayed
scoring
shen@@
socialization
som
som@@
souvenirs
stagnant
taste
tram
wealthy
13%
2,0@@
accountants
alexander
amp
ceaseless
columns
correspondingly
crystal
deck
decrees
dg@@
eling
estonia
faithful
generous
gran@@
indications
ingredients
invariably
kitchen
lets
locate
optimism
pains
pet
phased
photo@@
pin@@
pope
ratios
ridge
runway
s6
shouldered
smash
thermal
unanimous
undertook
unfortunate
yed
accidental
adapting
advisors
att@@
avi@@
balancing
bun
burundi
chunwang
dared
draws
erg@@
expired
foo
instructors
intensively
karaoke
liberating
marketization
mortality
picking
programmatic
rom
schooling
solicitors
stockholm
2.3%
3.2%
carter
christopher
countrymen
dic@@
execute
imagined
infections
johannesburg
lately
mislead
nominate
origins
ot
pistol
ratings
ray
signboards
spaceflight
spouse
tier
uncertainties
1,8@@
2.4%
alliances
births
cp
crafts
credibility
diehard
directive
enacting
filipino
garment
hkcee
huanggang
hygienic
ically
lamy
loose
milosevic
nationalism
off@@
preaching
screened
shots
smith
undergraduate
whatsoever
zong@@
07@@
104
2527
303
abandoning
affixed
beforehand
blu@@
bri@@
brink
covert
daniel
danish
dramatically
duplicate
elsie
enduring
ened
enti@@
fanny
functioning
gre@@
guoqin
heightened
indifferent
partnerships
predecessor
psychology
realise
reopened
rers
rio
tip
tra
unhappy
ved
210
alike
altered
annotated
arsenal
artist
attentively
ballet
canceled
cass
continents
deliberating
dependants
discounting
domains
don
foreseeable
graphic
hkmds
hunting
ict
implements
individually
leavers
mergers
monastery
ologists
progressed
repatriated
robberies
ruchao
scales
sightseeing
sporting
superstructure
termed
trace
truthfulness
viable
waiver
zz@@
06@@
12th
4.8
alma
ambiguity
bare
beihai
ben
bosnian
bulgarian
cargoes
distorting
em
ening
fc
hairpin
incorporation
injected
ipu
ishan
ist@@
maldives
narcotic
nazarbayev
nethersole
peres
photography
prevail
reiterates
ruin
sanction
snake
straightening
surrendered
sweepers
swept
tiny
unifying
worthwhile
wounding
yptp
0-@@
1st
4.9
8.2
^
abolition
advising
ambitious
bon@@
calamity
chil@@
cm
conceal
consulates
documentary
extricate
hkcc
ial
infofax
jobless
jumping
kids
kip
lau@@
lawless
nonproliferation
oning
osaka
pal@@
ple@@
potentially
practising
provocative
queue
quotes
reas@@
refueling
reservation
revive
sentencing
shells
shorter
son@@
tures
uncompleted
underwent
zhuo
1,300
2.
43@@
9568
accessibility
advocacy
affection
boxiong
cattle
cheap
condemning
deceptive
deficiencies
electromagnetic
exhausted
fitting
garbage
geo@@
jinglian
kilometer
megawati
mps
newsletter
ni
oct.
overriding
populated
prohibits
psb
runner
samsung
scre@@
sends
steadfastly
sted
tonnage
typhoons
underwriting
wives
wording
1,400
1900
2802
accumulate
airways
alter
assigning
capitals
co-@@
consist
convene
disadvantaged
eventual
federations
gordon
guesthouses
jose
lcq
liberated
lifeline
limitation
ruined
sensitivity
sor@@
sounding
stimulated
strains
straw
tides
traded
vividly
zed
zuo
1,9@@
2.0%
320
57@@
aired
bishop
chien
cites
cri@@
dancing
diaoyutai
elevate
exporters
financed
holland
hom@@
impasse
indomitable
intel
irreversible
jizhou
liaise
metallurgical
minibus
mothers
nautical
penny
proprietors
pt@@
pun
recount
registers
satisfying
sdf
shiu
sho@@
sixty
stride
tips
uan
weaker
2887
balkans
bei@@
cannabis
centr@@
countering
dig@@
escalating
eternal
ev
facilitates
fairs
foreshore
fulness
grasslands
hawaii
herdsmen
hey
ica
instances
invaluable
istic
juan
lantern
lawsuits
leases
lido
mol@@
mysterious
outlying
pharmaceuticals
piano
pole
powder
prediction
references
repairing
screens
tion@@
trampling
undesirable
unfolded
unrest
za
zhao@@
abyss
advises
ambitions
arch@@
ari
attendees
attracts
berger
blamed
bly
buyer
crossings
deteriorate
discerning
discounts
eries
ero@@
firecrackers
genes
hab@@
hkex
hsbc
inc
koreans
monuments
obliged
oci
phnom
retaliation
revitalizing
sells
settlements
somebody
souls
suburbs
tk
vaccines
warehouse
2868
4.1
6.7
8.1
acftu
bands
banknotes
basket
beverages
booths
cannon
cohesive
communiqu
creditor
cs@@
day@@
denies
downtown
earthquakes
employable
excitement
expediting
fifteen
hollywood
indexes
indiscriminately
infrared
ites
law@@
motor@@
mui
ous@@
polytechnic
reacted
resorted
revoked
scrap
secrecy
selfish
smugglers
tical
treatments
xiulian
08@@
5.1
6.6
antiquities
appliance
aum
breathing
chen@@
confuse
conserve
consistency
crematorium
desires
devise
dying
ell
endeavour
filming
flushing
heating
horizon
hurry
lags
metropolis
militarist
overcast
penetrating
penh
poster
ram
rectified
reunion
salvage
slide
tackled
tru@@
utterly
xes
yo@@
115
1974
aggressors
bamboo
bookorder
boris
bureaucratism
burns
canonization
chess
coin
complying
confrontational
contend
coordinator
courageous
dirty
dispersal
dness
dur@@
exhibit
females
formations
grows
hurricane
inspiration
kwu
kyrgyz
lab@@
low@@
mathematics
motivated
percentages
policeman
provoke
qizheng
remittance
self-discipline
ss@@
statesmen
sto@@
sultan
supervisor
vegetation
wenchang
wit@@
zu
.01
34@@
36@@
5.8
75@@
academia
acan
antagonism
are@@
blockades
brighter
default
defenses
delinquency
diabetes
distinction
enterprising
entitlement
fdi
hoo@@
ier
ium
kor@@
lip
marx
med@@
oceans
rented
rer
sacrificed
siwei
superficial
surgery
technically
utility
variations
ys@@
adjourned
alongside
angang
bat@@
chechnya
cou@@
counterattack
courtesy
deadly
disc
discontent
epoch
geographically
glo@@
hon@@
humiliation
incidence
jade
jan@@
kite
kongs
leftist
mai
migrant
mir@@
northeastern
pivotal
protestant
separatists
teachings
tops
transmit
underworld
ur
vel@@
webpage
6.4
acy
ailing
alleviating
anytime
ardent
avoidance
book@@
ci
coexist
communicable
deaf
dem@@
ding@@
dispel
ee
finalized
galleries
hat@@
ita
leg@@
mafia
miller
netted
nicaragua
ozps
pesticides
plunge
rescuing
sn@@
southeastern
sters
strives
surpass
t.
ung@@
wor@@
xuan
”
,@@
1800
2.8%
7.9
80@@
ashing
battery
borrow
brains
bre@@
chok
cracks
discounted
euro@@
fertilizer
foothold
grassland
hesitate
hysan
ians
ices
jinlong
liked
meted
mountainous
muslims
my@@
obsolete
pavilion
plan@@
purity
qualitative
recommends
riot
rotating
seattle
sh
substantiated
temples
traditionally
vomiting
wooden
3,500
ab
architecture
asserted
aver@@
bone
boundless
cleaner
conception
corrected
cote
decisionmaking
desertification
edmund
electing
ement
endangering
gao@@
hotlines
ign@@
kitty
knives
kun@@
lakes
m2
methadone
permitting
power@@
rallying
sand@@
serviced
smo@@
spectators
stipulation
theses
thoroughgoing
troubled
unconditionally
validity
worshippers
yingfan
1,700
1500
1971
ale
amazing
angolan
arises
bureaucratic
checkpoints
closest
collectivism
convocation
dies
ek
elled
embezzlement
enjoyment
enlightened
extremists
feudalism
ful@@
gro@@
gui
insofar
ishing
jr
k.
kh@@
kingston
mac@@
micro
par
periodic
pped
referral
regrets
short@@
specialties
stri@@
supervised
tieshan
vac@@
wastes
yin@@
zhang@@
‘@@
“@@
2.9%
3.5%
44@@
7.2
7177
acid
ambush
bribe
ced
comprehend
confirms
constraint
gotten
hardcopy
hate
kuangdi
manh
manifests
mbeki
md
mit@@
nansha
nat@@
ningbo
officiate
ombudsman
packs
participant
postgraduate
pronged
psychiatric
rushing
seepage
shue
specialty
suggesting
surprising
sweet
tongue
unequal
upset
willfully
woe
zhenghua
106
17%
3.
6.1
66@@
ail@@
billions
bumped
capital@@
clerk
collaborate
copper
dean
exc@@
excavation
forwarded
freed
invigorate
jeopardize
kerbside
laotian
meizhou
metro
musicians
nb
nicholas
notion
od@@
painted
proportions
rebel
scandals
shin@@
silicon
sim@@
slaughtered
strenuous
stretch
successors
ticketing
traffickers
unequivocally
unipolar
workplaces
3.6%
6111
8.5
accustomed
actor
aides
algerian
attends
boarded
cli@@
diagnosis
extends
flies
floors
flown
ft
grid
gui@@
ilin
iss
jeffords
kuchma
malpractice
pai
performers
rationale
rwanda
showers
sing@@
solicitor
tamar
ther
victimized
120,000
8.3
ace
allan
alumni
bonuses
bou@@
conditioned
curing
delaying
deposited
downhill
emotion
fernando
financially
flourish
fo
fre@@
fso
hop
interceptor
introduces
iv@@
keys
louder
mer
mock
murray
nam@@
nong
oriental
practise
prof@@
prop@@
refine
regulators
rehabilitated
rigid
sis
solicited
sorting
tanaka
theaters
top@@
unlimited
2030
45@@
aggravated
aligned
analyst
boom
breast
coll@@
colored
compartment
defended
dense
dge
dian
diverting
ei
ements
enlarge
enrol
executing
exploited
fal@@
fix
gemini
haul
hkd
implies
invalid
ities
je
lar@@
leverage
majesty
moore
ponds
proletariat
prudently
pumping
rep@@
scientist
southwestern
spell
stirring
wanting
0,000
2824
7.1
accusing
athletic
backs
bottleneck
boutros
calculating
cam@@
casam
casual
changeable
charts
clark
closes
cro@@
deteriorated
expulsion
gang@@
genome
hills
hindered
hostel
hun@@
inaugurated
jets
ka@@
kov
loo@@
mapped
offs
optimized
procurators
rain@@
rejection
reopen
researching
sailed
serial
speeded
sub-@@
supermarket
tube
weal
250,000
administrators
arresting
bachelor
budapest
cle@@
dam@@
dered
designation
destined
distortion
educators
empower
hktb
im
iness
jackson
kohl
landfills
lcq3
lifts
mc
motorcycles
nbs
non-governmental
ori@@
proponents
propositions
qef
restrictive
rewards
rotation
rsd
sailors
selective
silent
siyuan
softcopy
tapping
tended
tran
tt
verbally
zhengzhou
125
13,@@
5.7
accredited
acknowledging
anda
ashes
assumes
calmly
contradictory
coup
diameter
disparities
doctorate
ducks
facto
fair@@
fuss
gong@@
guangzhao
hamper
hsiang
ibm
incessant
ja@@
kadoorie
kw@@
lat@@
metered
mp
npt
nurtured
oping
owns
pas@@
plagued
react
reluctant
robot
signatures
signifies
sounds
squ@@
survivors
transshipment
turnaround
variable
wore
0.0@@
103
135
1973
70@@
750
affirming
ain
ained
audiences
calamities
cautioned
chop@@
collaborative
computing
connotations
distort
donate
dreams
dro@@
emotions
fol@@
fostered
ga
harvard
hashimoto
honda
huan
impartiality
instituting
jichuan
kil@@
kon@@
lit
logo
m3
mastery
mercury
nandan
negate
ok@@
ome@@
onset
piers
piling
playground
plenipotentiary
plotted
pondering
pop
sacrifices
serbian
serbs
simplify
slower
steep
stirred
west@@
1959
48@@
6.9
anonymous
array
atic
batteries
booming
bumper
confessed
convince
democrat
edited
erb
flame
fringe
harcourt
inventory
itation
lcq6
luong
lured
malpractices
mastered
mfn
moments
pic@@
prestigious
projection
proximity
quote
raises
reconsider
ref@@
reit
reminding
safer
shipment
subvention
supposed
tar@@
tends
torch
undercover
unscrupulous
van@@
wildlife
xinwen
xiu@@
xna
18%
9.7
ahmed
bahrain
bounded
cad@@
cadets
confiscation
convertibility
credits
cyclists
dang
discovering
disregarding
distributors
disturbed
easter
enlightenment
exaggerated
exp@@
gala
grief
hec
hou@@
huai@@
infrastructures
jan.
kelly
kenneth
ker@@
kevin
lasts
lifelong
misery
pesticide
poisonous
pro-taiwan
regimental
resisted
scholarships
shame
soared
solicitude
speci@@
understandable
wrapped
yel@@
4.5%
5.9
60@@
7.3
accompany
alerted
alice
arose
ass
blazing
bluntly
borrowed
cautiously
classic
constrained
contentment
designers
devised
eclipse
explo@@
fog
franchise
iled
imposition
innovating
intruded
islam
lax
len@@
liang@@
measurement
monsoon
mtrc
overtime
predecessors
renounce
reunified
skies
stances
tran@@
vcds
yardstick
158
1930
1976
19th
8.9
anthem
armenia
bourgeois
capsule
carcasses
confidentiality
contr@@
dan@@
drops
economical
exclude
formalities
gged
ills
inception
incite
inquired
interactions
invisible
liberate
narrowed
offense
oo@@
ordinated
paek
paint
pandemic
pedestrianisation
pei@@
quiz
reciprocity
retention
ruins
senses
statue
tightened
turbulent
unbalanced
variables
veterans
wells
123
13,000
138
14,@@
7.6
7.7
abolishing
advent
audited
belonged
bow
charities
cohesiveness
collections
conveying
cooling
coupon
feb.
freeing
huo
ick
ink
jordanian
kang@@
lcq7
morals
muk
norm
overdue
peiding
privatization
provoking
pun@@
sampled
show@@
spark
tin@@
uk@@
unconditional
yiren
19%
amnesty
authors
bang@@
beneficiaries
cabin
carlos
cheques
constituting
dedicate
deviated
eds
eoc
escalated
favors
flo@@
fun@@
gases
ghua
hydrogen
icelandic
inch
indictment
ipd
lovers
mingwei
necessities
organiser
paradise
pro-@@
processions
refining
roc@@
rongrong
rostrum
scal@@
sco@@
summoned
thirteen
threatens
triads
ui
unilateralism
visually
zes
3.8%
allocating
ancillary
ao@@
app@@
auditorium
ays
bingguo
chek
culturally
dec.
elaborate
equilibrium
eradicating
fri@@
havana
herbal
hole
injection
inscription
invading
io
kur@@
lawmakers
legacy
longstanding
mandate
mechanics
mg
ounding
pel@@
proactively
ranged
regularization
revitalize
reviving
rings
rocks
russell
sid@@
slack
spo@@
ster@@
stu@@
subsidized
surpassing
tapes
terrain
ut@@
38@@
bans
breakdowns
caihou
eli@@
europeans
fixing
forensic
gan@@
geo
graft
guangying
hardline
highlighting
houston
importer
industrialists
inst@@
integrates
internation@@
keming
ken
maria
millenium
norwegian
positioned
quest
regrettable
ro
sects
shrink
sickness
sign@@
snow@@
tal
tanzanian
tranquillity
uneasy
unshakable
vs
wb
yam@@
yew
2,5@@
2200
ack@@
ades
antony
ately
bicycle
bids
clusters
coffee
dares
depositors
dismiss
emp@@
farmer
fights
flexibly
formats
fraternal
handing
heresies
holes
hot@@
ide@@
inhabitants
intensification
inventions
investigative
jamming
juveniles
kasyanov
maj@@
mortgages
nak@@
negligence
oper@@
opportune
optimal
outbound
ovic
parliamentarians
path@@
perseverance
regimes
revealing
rob
staffing
subsectors
tajik
tam@@
trampled
wings
worsen
1.30
14,000
2734
9.8
accountant
affirm
alertness
ano
bacteriological
beneficiary
by@@
cared
complications
cop@@
debris
diligence
diploma
distress
fragile
galaxy
hunger
idly
indignant
intimidation
jianguo
kad@@
mark@@
maternal
memories
modernize
mohammad
nurse
outs
patronage
peiyun
pine
plbs
pounds
real@@
renamed
reorganized
richer
saint
shang
sheikh
simon
solidly
sorties
spurring
stal@@
tanker
tel@@
traced
warhead
wedding
whichever
yanhong
.2000
1.
1.0
9.3
ach
aggressively
aide
angles
appraise
ast
avenues
bag@@
bets
bio
conf@@
deducted
densely
depicting
disguise
dispatching
disputed
disseminated
equities
fundamentals
haven't
identities
inability
investhk
landsd
lcq14
lcq5
lcq8
mart
metropolitan
mitsubishi
panchen
preference
reminder
responsive
rivals
sai@@
sak@@
sav@@
shrank
shrinking
strengthens
thread
wang@@
xizang
15,@@
2,4@@
2545
3.4%
3.7%
4.1%
4th
activists
admire
afar
bucharest
conditioners
contravention
dishes
dominance
ear@@
eighty
ella
enhances
fascist
footbridge
fortunate
ghui
hawking
headline
ima
infringe
johnson
lateral
lcq4
mall
mandela
mbs
mediate
minimal
mitchell
namibia
oath
outsourced
particulates
passion
pawn
pce
plight
pre-@@
reef
reg@@
retaliatory
revolutionaries
salient
slaughter
spying
taiyuan
trustworthy
unprecedentedly
unsafe
124
133
2835
2921
330
380
4-@@
8.6
8.8
9.2
carnarvon
celebrities
correcting
dioxin
echoed
egg
eless
erupted
expedition
fixtures
hen@@
huangpu
impacted
justify
klebanov
kwa
magnetic
monks
mortem
ngo
overstayers
pastoral
planet
populace
promulgate
radi@@
repaid
sever
squads
substitute
supplemented
switching
torn
unita
unitary
unwell
ushered
uss
welding
yongkang
ywets
zhangzhou
+3
65@@
abetting
acknowledges
adjoining
ag
arcades
ces
checkpoint
cpg
deepest
defeating
dialect
emigration
ere@@
expressly
extortion
forcibly
gesture
green@@
guilin
handles
headache
illustrate
interpreting
kiev
lcq17
m1
marginally
not@@
oman
overlooked
pamphlet
permeated
phrases
pocket
prefer
restructured
sectoral
servicing
sheer
storing
superb
transplant
tta
ula
unconscious
utilities
weights
109
111
18,000
37@@
39@@
4.9%
9.9
antly
bottle
cat
cinema
complies
consignments
datestamping
duly
dynamics
ecuador
evacuated
evils
fengchao
harnessing
hydropower
informing
inheritance
intact
je@@
lcq2
limiting
nos
numerical
obstructions
oming
op
ory
outreach
persists
pi
pil@@
pon@@
prevalence
privilege
procuring
propagating
py@@
rad@@
registries
sellers
signboard
sson
stock@@
suppressing
symbolic
teller
template
terrace
therapy
tional
ul
unwaveringly
willingly
2,7@@
54@@
6182
abc
acclaimed
alise
alteration
belongings
beware
bidders
bullying
canberra
cha@@
compares
contingents
costa
cream
d.
darfur
deficiency
disregarded
dissolved
dormitory
effected
ei@@
envisaged
fen@@
fle@@
ick@@
infant
inform@@
justifications
lamma
landfill
lcq13
ldc
lun@@
mang@@
mediterranean
minors
misled
modernizing
neighbourhood
novel
oms
ops
penetratingly
phan
pong
rallies
regulator
remedy
repaired
ries
seemingly
ski
soaring
sou@@
sped
sr
summar@@
travelers
tvbs
ums
undertakes
uniforms
yev
youngest
2832
550
9.5
agu@@
aki
antibiotics
antisubmarine
apped
bak@@
buildup
cages
champions
colluded
contests
copying
dances
diarrhoea
dilemma
drain
eagle
echelon
eled
engages
float
foiled
fortunately
futile
ger
graduating
guess
hailed
horses
ignorant
kuwaiti
lanterns
lcq9
lighten
lining
louis
mansion
marathon
medi@@
meng@@
misuse
mohammed
octopus
payers
polluting
pping
regain
rosanna
santiago
sky@@
thin@@
tranquility
unesco
uniformity
waver
yields
1700
310
4.8%
6.2
9.6
artificially
attractiveness
bang
cda
cherishing
compile
definitions
distinguishing
dog@@
eo
fatah
finishing
gatherings
gri@@
gru@@
hails
idle
immigrant
inheriting
intimate
kw
lamps
lcq10
liqun
litres
main@@
miu
nominees
oring
persuaded
philip
poorest
popularized
pretexts
quarry
realms
rit@@
seventy
sewerage
stan
sting
tang@@
tings
treasured
ty@@
unsc
web@@
zha@@
1,800
1967
200@@
3g
40@@
>
airbus
alisation
alists
anticipate
arable
ath
auckland
baoshan
boao
chairs
cleaned
commentaries
complacent
confirming
consignment
costing
declares
delegated
departures
djibouti
fan@@
guoquan
hon.
iti@@
j.
kers
lcq15
lcq16
mas
modify
obtainable
oldest
overt
pen
penal
periodical
peruvian
proprietor
quanzhou
siew
stationing
tab@@
terminating
verdicts
violin
xiaoming
100%
23rd
abu@@
atv
bonus
chan@@
cheat
cn@@
constructions
dal@@
delays
descendants
ears
elector
ency
establishes
externally
finalised
fingers
fischer
genetically
ghali
hkp
hsien
interviewing
inv@@
journals
lankan
lcq1
lend
mai@@
modus
nuc
parcel
ponder
portrait
seasons
semiconductor
shoe
technologically
til@@
tted
tting
tumor
underpinned
undetermined
uni@@
wasted
williams
xiu
yafu
zhili
zo@@
16,@@
18th
amusement
appropriations
arian
ball@@
bn
boston
cocaine
collects
concurrent
confession
daya
denounce
devaluation
differing
eagerly
eous
fearing
fidel
flagrantly
fourteen
halted
hin
humanities
iec
instructor
ishes
lcq11
leased
lengthy
lieu
localization
loves
manipulation
microelectronics
module
netting
ologist
operandi
ottawa
pilgrimage
play@@
seldom
sheep
smokers
tim@@
token
tragedies
wholehearted
xuezhi
zhe
2891
3.0%
3.3%
4.4%
73@@
90,000
angrily
bali
ble@@
boasts
bookmaking
ch'@@
chretien
condoleezza
controller
cremation
detecting
dick
droughts
embarrassing
endure
entrepreneur
escorted
esteem
fiercely
finger
footman
fps
haven
heightening
hes@@
hopeful
hyd
idi@@
imper@@
influx
iro
khan
levies
lure
marshall
mercy
ore@@
overlapping
patrons
paving
poisoned
poly@@
publishes
residues
sabotaging
secession
sensible
severed
shareholder
shelved
sideline
slu@@
streptococcus
sures
tracing
wiped
yl
*
155
2,9@@
bingcai
cert
cit@@
cmps
co-operation
conversations
custom
disposable
evasive
fetch
fifa
fro@@
glasses
hij@@
honours
horn
insolvency
institutionalized
jazeera
jigme
kenyan
kk
lic@@
loses
mess
ml@@
nuisances
obesity
overly
person@@
professionally
revolving
rui@@
sank
silence
spearhead
stan@@
summation
touring
verifying
vers
wantong
wreath
zukang
107
114
21%
2nd
4.2%
allawi
anybody
appendix
arrow
ascertained
assassination
baptist
broadened
classmates
concludes
contributes
currents
defiance
dependents
doctoral
emirates
endorse
ered
favour
flash
frauds
freezing
g8
gabon
hague
hiking
hsiao
huawei
incompetent
jiu@@
kmb
ky@@
lessen
levying
mandarin
notch
optimum
our@@
outlays
painstakingly
pessimistic
predicts
productions
prominently
qualifying
quar@@
rains
rea@@
reconsideration
reiterating
ridiculous
shine
speedily
steadfast
steer
summons
tag@@
tedly
teeth
therein
underestimated
unfounded
ures
v.
vel
vice-@@
weekdays
wheels
wholesalers
122
49@@
5.6%
650
90@@
adaptability
aires
any@@
authenticity
brokers
cartoon
cheating
comic
conceptual
consume
cour@@
doubtful
dress
ese
gastroenteritis
geotechnical
hap
hid
hinted
hongxi
hs
hui@@
ii@@
ineffective
instigating
istanbul
lcq19
marital
melbourne
mentation
meteorology
mom
moroccan
oc
partys
pets
poem
portable
qualify
qun
racecourses
receiver
restraints
retirees
scenarios
school@@
sit@@
steam
summarised
tapped
tougher
waited
wmo
wolfowitz
yohei
yourselves
1953
3.9%
63@@
7.4
8.4
antiballistic
anymore
backup
beer
benchmarks
bet
bones
boycott
brisk
busiest
chuan@@
compatibility
critically
deb@@
decorated
dil@@
dock
ebb
employability
ences
enumeration
eric@@
frankfurt
freshwater
fullest
grains
grand@@
gravity
grouped
haocai
influencing
inquire
irrefutable
junk
kao
kimberley
lcq12
liaising
ll@@
militiamen
motors
net@@
ngong
ordinating
organisms
orient
perverse
ph
prodi
proficient
r.
ration@@
redress
retrogression
run@@
sacrificing
sandy
sensing
serfs
slaughterhouse
sup@@
telegraph
ting@@
uniformed
yangon
05@@
11,000
1823
1964
3.0
affluent
anti-missile
antimissile
ara
argue
ax@@
belarusian
bop
bourgeoisie
careless
catastrophe
clarifying
dar@@
deviate
dou@@
duck
enclosed
eradication
eu@@
gunpowder
has@@
holistic
hurting
imagination
intrusion
kehui
lcq18
lined
loco
malicious
mega
modifications
momentous
monopolies
moratorium
narayanan
nutrition
occupants
ordnance
particulate
propelling
quantitative
reimbursed
rein@@
rentals
resemb@@
restraining
rests
rope
rulers
serb
strang@@
subordinates
survived
sweat
tortuous
translate
undue
unsatisfactory
useless
ware
weighed
wpk
zaixi
1,100
111.@@
126
1940
1956
abuses
ade@@
admitting
affordable
architect
arisen
assembling
biased
biomass
bookings
cans
casualty
cellular
cheated
coloured
compromised
dings
dissolve
dover
eminent
employs
ems
freest
fusion
genoa
guise
hard@@
helsinki
hop@@
jianmin
justly
kit@@
lessly
lotteries
massage
mindset
moi
newest
opt
ox@@
ozone
procured
prosecuting
provoked
ramos
redouble
rejuvenate
ru
shinrikyo
siren
sp
spies
streams
tibetans
tienong
trademarks
triggering
21.@@
2343
77@@
ane
annexes
arf
aunt
badges
blood@@
bogged
brutal
cathay
competency
contravene
correctness
corrosive
couples
courteous
digitized
enting
estimation
evolving
grids
hampered
hynix
ib@@
incineration
intercontinental
jury
kam@@
kel@@
khamtay
kinkel
mah@@
mak@@
mann
nov@@
pennington
plotting
poured
pulse
reaped
remembered
revaluation
richter
sab@@
shop@@
sleeping
slim
tations
timber
unresolved
villa
viral
waving
weizman
wenzhou
yeping
1977
2255
35,000
56@@
abbas
administrator
ances
ath@@
automotive
bran@@
brooks
celestial
charm
colonialism
conveniences
d'ivoire
denomination
desirable
differently
downer
dun@@
embracing
entrants
ethiopian
google
huzhou
illustrated
imperialists
ine@@
informationized
initiating
kets
lions
lodging
manipulated
noninterference
perry
pooling
publicise
rejects
relates
scam
sim
similarities
suis
syn@@
tible
travelled
unfamiliar
unsold
vector
victorious
wetlands
zy
19,@@
1958
1969
2398
290
ables
antagonistic
appraising
ater
atlanta
authorisation
bis@@
blank
certainty
chlor@@
citybus
clan
combines
commanded
concerts
conditional
conductor
corners
cries
enormously
eurasian
fat@@
flee
hang@@
harshly
induced
int@@
journalistic
ken@@
kobayashi
leaping
lifeguard
marketable
miniature
murayama
neg@@
overview
papua
partisan
pavement
placements
radioactive
reactor
reelection
renaissance
reopening
rigorously
scared
shifts
shou
siemens
singers
slips
solo
sop@@
stipulating
stricter
stubbs
sty
subscribed
swap
swe@@
tives
tract
tured
unshirkable
warmest
wn
136
17,000
208
30th
4.3%
5.0
852
abducted
abdul
abided
activate
align
alising
arity
aya
brokerage
capturing
cheaper
chk
choir
cla@@
comfortably
comparisons
compartments
compounds
concocted
confusing
consortium
demirel
denial
desp@@
differentiate
doubling
dried
eable
embarking
ender
exhaust
formosa
hao@@
har
homeless
huaqiu
hwfb
ichi
illusions
implication
incur
instigate
jersey
lil@@
mate
mediating
nyse
officio
oll@@
orbital
ousness
panda
premature
progresses
pump
reclaimed
revenge
revoke
rewarding
rezoned
rows
shisun
sle@@
sorrow
stripped
summarize
suppressed
televised
thorny
tile
tolerant
transfusion
triangle
trivial
underdeveloped
undermines
unregistered
wow
zuo@@
145
148
1955
5.7%
700,000
8.7
alley
arenas
aviv
bashar
bec@@
biology
browse
bullet
cafe
conflicting
contraband
conver@@
daqing
deco@@
defective
denouncing
dialogs
dini
disappear
drains
effecting
eness
ere
evacuation
favorite
fla@@
graded
harbors
heroism
horizontal
initi@@
interbank
invade
kim@@
landslide
lcq20
lilan
linkage
master@@
mb@@
mile
militant
mirage
mitigation
moderated
msn
ners
ota
pap@@
persuasion
plague
plastics
prelude
prohibitions
pul@@
qamdo
rat
recommending
recorders
russians
sadr
sanitary
sequ@@
sierra
solidify
supporter
synergy
tremendously
truthful
varies
wind@@
zhan@@
1965
4.0%
9.4
ami
anti-drug
apis
apologized
atm
aug.
but@@
ccdi
celebrants
cessation
changjiang
cloth
compag
convener
conveyance
cosmopolitan
crying
deepgoing
depreciation
devising
dismantling
dle
donor
dor@@
ea
equipments
fabrics
feared
gal
hereinafter
huan@@
hurriedly
icao
implicated
incited
inciting
inclement
jacket
jiaquan
ladder
layers
leak
madeleine
malls
niu
palm
pouring
propel
protesting
retro@@
ridden
risky
roman
ros
scrupulously
sequence
serbia
shelving
shiite
ship@@
shoo@@
sla@@
smell
sparked
stro@@
tac@@
tains
tear
theatrical
ular
ussr
viol@@
volatility
weekends
wl
yanan
zambian
zoellick
17,@@
1954
340
4.7%
46@@
5.1%
addis
applauded
atc
ato
bet@@
calculate
changli
cons
conservatives
curbed
d.c.
depots
dev@@
dispens@@
editors
eller
engels
exemptions
flagship
fond
geography
gfs
grap@@
hat
hkc@@
hybrid
ind@@
kremlin
lenient
mist@@
mouse
nazi
nit@@
outcomes
pants
participates
policymaking
polio
populous
ppp
preach
protested
saints
sayyaf
scru@@
sharpen
skillfully
specifying
theoretically
tless
toast
tsunamis
voip
wastage
127
16,000
1951
2,6@@
89@@
<
absent
after@@
ale@@
ama
arcade
arson
associates
bbs
belarussian
bernard
bla@@
botswana
chemistry
clamor
classrooms
commentators
conciliation
costly
crazy
dehuai
detachments
differs
disgrace
displaced
episode
eration
erous
exco
frag@@
gearing
guoqiang
hardworking
heaviest
hesitation
hideki
hierarchy
hostilities
iccpr
inc.
ino
intercourse
king@@
legend
luen
manifestations
median
mend
merkel
midair
miserable
misunderstandings
mitigate
mobilised
mongkok
munitions
mystery
norodom
omar
ony
ornaments
perceived
pest
pits
podium
privileged
repe@@
script
sig@@
smoky
tered
thrust
thy
torpedoes
tranquil
trusting
yining
yue@@
'an
1970s
2015
22%
af
archives
arg@@
attache
authentication
awarding
bankers
bath@@
behave
breakup
chaoyang
cheuk
chorus
ck
clever
climatic
clin@@
countdown
davis
degenerate
diehards
emancipated
empowers
eric
exporter
extr@@
gra@@
harmon@@
hoisting
hospitalized
humanitarianism
inexhaustible
interviewees
intrinsic
invaders
jeans
malaria
mosque
nic@@
nonferrous
onboard
philosophical
poa
salvador
severity
shar@@
shortfall
singer
siying
struggled
surgical
suring
takeoff
throat
triumph
turtles
ugandan
wenzhong
yafei
yard
116
156
1968
24%
7-@@
800,000
anal@@
assad
athlete
atten@@
berths
burial
burmese
chann@@
ciif
communicating
correspondence
definitive
detainees
devastating
disorderly
dol@@
encirclement
evolve
expands
fertile
fic@@
friendliness
frightening
gall@@
gcn
grouping
guiyang
hair@@
hil@@
hur@@
ingredient
inherited
insistence
jr.
kal@@
longing
multi-polarization
neutralised
occupations
ples
predictions
procure
prostitutes
qian@@
qigong
questionable
randomly
remainder
reorganizing
sad@@
shim@@
snatched
sowing
spar@@
temper
therefrom
thri@@
thunderstorms
tojo
towers
tsinghua
uttered
va
virtues
wiping
10646
1946
23%
30.@@
ababa
appraisals
architects
arguing
armenian
awe
bad@@
buenos
bye
cafes
complain
complexion
conce@@
conforming
crashing
cyber@@
dedicating
defu
defy
disposition
donors
dynamism
elegant
enders
eritrea
everlasting
gerhard
golan
gor@@
highland
hue
ida
indefinite
inputs
instrumental
invitations
invoices
justification
lou
lou@@
marshal
nail
neutr@@
ney
occasionally
onward
outskirts
oz@@
pccw
perceive
persian
phil@@
post-@@
propelled
proponent
pros
puppet
queries
reaffirm
renovated
rita
rodent
sanya
seal
sergeant
shirk
sixteen
sophie
specifies
sunlight
surfaced
surnamed
tendered
tom
unrestricted
uphill
ving
voeux
wo@@
yarn
yuet
(@@
175
2852
3.30
5.9%
abstract
acs
admits
anticipation
avail
azerbaijani
bravery
cameron
capitalists
carpet
coasts
collaborated
corpse
coupons
eco@@
enzhu
erships
fleeing
fossils
goodbye
hill@@
impartially
incessantly
inclined
insecurity
instill
interpersonal
interrupted
jupiter
landscaping
leone
lottery
males
miriam
ngawang
normalize
octb
overcame
phieu
pledging
pollutant
preconditions
primakov
publishers
rches
side@@
solana
straightforward
tacit
takeover
tcu
utensils
134
139
144
1961
31st
5.2%
58@@
abettors
accede
ancestral
ancy
anti-chinese
archive
arts.
atmospheric
awa@@
barg@@
bay@@
bloom
booklets
busan
chiefly
chui
clarity
compassionate
contested
corrections
cri
d'aguilar
dai@@
dd@@
discord
disqualified
ds@@
dues
embedded
encountering
enter@@
fel@@
flag@@
forfeiture
geese
goddess
gol@@
handbook
hastily
hindering
hok
horizons
ils
imply
incapable
irving
itc
karimov
margins
mauritania
meaningless
minerals
missionary
monkeys
od
ounded
penetrate
petitions
prey
regularizing
sel@@
sic
simplifying
sneaked
steve
suffers
susceptible
tally
tankers
taxpayer
tenderers
tho@@
tigers
tps
tuberculosis
undersecretary
unwarranted
ushering
ver
washed
wenyuan
xilai
1001
128
141
1957
5.3%
6.8%
76@@
8845
absorption
abst@@
abulahat
beneath
betrayed
clamored
cling
commercialization
consecutively
considerate
constraining
contempt
ct@@
depicts
deployments
drag@@
emitted
encroachment
escalate
exits
fooled
forgery
frictions
fulin
gen
hypocritical
ini
innumerable
insect
journalism
keizo
kills
kl@@
laundry
lequan
lovely
mali
mauritius
maximize
normalized
nw@@
omitted
onal
organisational
periodically
petty
propagation
purchaser
repatriation
rocky
ron
rua
sag@@
scr@@
sensi@@
siveness
spurred
stopover
sui
technician
than@@
versus
warehouses
yonghuai
yp@@
zan@@
zhanjiang
11.30
118
143
1600
17th
2,200
2860
460
9.1
aiders
amateur
ashi
brook
burnt
cardoso
cfs
colourful
complementarity
conquer
controllers
cried
defines
denise
dish
drc
efficacy
emblem
encies
ess@@
fen
gic
gn@@
grabbed
gunmen
harvests
headlines
huaiyuan
intangible
invented
jardine
lenin
log
m.
manages
maximise
mes@@
minus
msar
naked
organizer
patented
peninsular
photograph
pik
prerequisites
provisionally
qiong
raging
relentless
replenishment
reputable
rev@@
ribbon
roundtable
scaled
sedan
shipments
singles
sofia
speeds
stat
supersonic
tandem
teenth
tenacious
tici@@
tism
troublemaker
trump
verge
well@@
wenhua
wilfully
wreck
wrongly
yao@@
+1
+2
187
2152
390
4.
5.8%
6.7%
accumulating
admired
ake
alia
alleviation
apple
assemble
bb@@
bl
blown
cel@@
chop
climax
congratulating
consequential
constable
contravenes
contravening
cr
degenerated
disks
fallacy
fengshan
fertility
firmness
fist
footpaths
francis
grip
hike
ides
illiteracy
immortal
itis
jer@@
jieping
justifiable
libyan
marginal
mgv
mok
monopolized
negating
o.
ordinarily
paraphernalia
rac@@
rmb@@
seizes
sensation
shining
slander
spelled
tentatively
tolo
wea@@
03@@
137
154
1962
199
225
85@@
abundance
addiction
aer@@
affirmation
aggrieved
appreci@@
arabs
authentic
buc@@
caac
comb@@
contravened
corridors
cos
crushed
delicate
depressed
descent
disrupting
drives
edi@@
ensemble
entirety
extracurricular
fabrication
falsi@@
fcc
fits
flooded
g.
gifted
gps
guanzheng
heavenly
horrible
imaginary
impe@@
initiation
interact
itf
kilowatts
kuang
lah
liberia
marijuana
minh
mozambican
nickel
offerings
omed
opined
outpatient
paved
pay@@
piles
poles
pond
populations
rafael
rakhmonov
resided
rewarded
roast
sbs
shaping
sighting
smiling
speculative
statute
stic
strife
stupid
subsidiaries
sum@@
sy
tempered
tonne
topping
towering
toyota
ulan
unceasing
uprising
uproar
utter
viability
wilson
xiaohua
yahoo
.00
159
160,000
25th
26th
27%
6.6%
abruptly
accidentally
accommodating
alec
antisocial
band@@
bbc
beibu
bicycles
breed
breeds
brow@@
cats
christianity
clay
cnooc
consortia
construc@@
convenor
cpaffc
critics
darkness
debut
despicable
dignitaries
drafts
dubbed
endowed
francs
graph@@
hyper@@
icbc
ignores
imposes
interferes
itated
ith
jiujiang
kha
les@@
lied
ligh@@
lingnan
liquid@@
militarys
nec@@
nelson
news@@
nwfb
occupancy
overthrowing
peer
pity
pop@@
profiles
programming
psychologically
radios
reproduction
resistant
sac
scrutin@@
selby
serf
shortest
sspa
stratum
system@@
tele@@
teleconference
tending
timothy
unicef
wavering
wel@@
writes
wuxi
yards
yim
100@@
12.30
12.5
168
18,@@
1950s
1966
20,@@
234
6.1%
8.3%
8th
acc@@
acceding
accessed
admon@@
ammunitions
appearances
arabian
arch
blowing
burg
cherishes
circulars
circum@@
citic
cola
collectors
computerized
conserving
curricula
dealer
demographic
diary
din
disturb
doubles
dynasties
footsteps
gas@@
gb
harassment
harry
hear@@
humiliated
impede
imprisoned
inscribed
insights
intentional
interventionism
jianxin
kind@@
kir@@
landlord
leaked
mains
maltese
marketplace
medicinal
mic@@
mistaken
modern@@
nominee
occupiers
offensives
oro
overseeing
ow
perfunctory
persecution
piazza
quan@@
rabies
railroads
randt
rateable
regained
relevance
remedies
robots
segments
shackles
spreads
substantively
sus
throne
tia
tired
traps
trusts
tubes
turnout
uo
uri
vari@@
virginia
zimbabwean
2150
232
2961
5.4%
53@@
6.2%
ading
aero@@
analyse
anchor
anderson
augment
biochemical
bishkek
chong@@
chris
congratulates
conveniently
corn
crossroads
denominated
disadvantageous
disclosing
divine
dongfang
eighteen
eni@@
esdlife
essness
exam
faceted
factual
favorably
guoguang
h.
hag@@
hammer
highs
hkctv
hongkongpost
hsi
immoral
incorporates
infants
insured
ishi
itar
jim
laughter
liberalized
lisbon
macroscopic
matured
motivate
negotiable
numbered
policing
proving
pts
public@@
reorganize
researched
retr@@
richest
roh
rulings
samuel
shipowners
shortening
slovenian
smc
sms
stabilization
storming
stranded
stretched
subdued
subversion
suff@@
surveyors
tain
taoist
tas@@
tass
tenets
thered
unsuitable
void
wheelchair
yn
zarqawi
+0
121
129
142
1730
420
4311
47.@@
absconded
accomplices
acked
admiralty
affordability
alleging
andre@@
anim@@
anti-chemical
anti-dumping
apartments
apping
appoints
assiduously
barbaric
beam
beautify
bitterly
bolster
bore
boucher
brigh@@
cares
carriage
chao@@
chieh
child@@
cuhk
cyclones
defying
depended
dri@@
drum
edly
educations
evans
fatigue
fence
foot@@
fta
generic
gging
gh
gray
guarded
hemisphere
incense
insurgents
interpol
ira
isolate
jingsheng
killer
macro@@
manifesto
mete
morgan
nas@@
neutrality
ngapoi
notebook
ogy
oun@@
personage
pour
praising
probing
prompting
ps@@
que@@
rebu@@
reprovisioning
rolls
rotational
sights
suspicions
tommy
touchstone
tracked
transformations
tsu
tvs
ue
untrue
upwards
var@@
vied
warring
ww@@
yudhoyono
zhenyu
180,000
183
430
acclaim
alleviated
assaulted
assemblies
badge
blog
bully
cake
categor@@
cheers
circulating
colliding
compliant
cop
coun@@
dat@@
delete
digging
dire
doctrines
dominic
dui
echo
edi
fif@@
ftns
habitat
hikes
hin@@
hkhs
hourly
housed
ifi
ination
incubation
ket
kne@@
kr@@
landslip
locals
mainlander
medication
moon@@
olympiad
oppression
organizationally
packaged
packets
pathogenic
patiently
pitches
poorly
pots
preached
predominant
profitability
re-education
readable
regularity
relocating
retiring
revital@@
righteousness
robin
rooftop
rum@@
sculpture
shocks
snacks
spam
spe@@
specialised
specimens
statesman
stockholders
strings
systemic
t'@@
thum@@
tionary
tissue
tunisian
turkistan
ug@@
underestimate
unimaginable
unsettled
vic@@
warner
wasting
westernize
wid@@
worrisome
yasser
yemen
yuans
yunsheng
161
199@@
2,3@@
5.0%
6.4%
6.9%
allowable
alternatives
assaults
atrocities
auspicious
avert
await
axis
bankruptcies
basins
bayer
bedroom
buffer
cab
chatted
chiropractors
coastline
coincidence
comeback
confer
councilors
cu
dad
defer
deferred
dig
downstream
dp@@
dun
dy@@
ensuing
famc
faw
fdhs
fe
flavor
fuqing
hefei
holbrooke
if@@
illa
illustrates
inaccurate
insult
jack
lawrence
liners
luggage
meanings
mikania
mourning
namibian
normalizing
norman
oceanic
plying
potable
primitive
problematic
pursuits
purview
raped
relieving
repudi@@
responds
rollover
sanitation
sb
selina
sometime
sown
sq
stalled
stomach
suburban
tum@@
tuning
unchecked
vibrio
vii
vit@@
vo
vr
wal
wastewater
wat
zo
+14
1.40
1100
166
181
2012
269
27,@@
68@@
adv@@
aking
allotted
analysing
art.
barristers
bazaar
blessing
breeze
canopy
cartons
clamp
collabor@@
collateral
compensations
consisted
convertible
convoy
cornell
covertly
criii
demotion
disagreement
distorts
distrust
dwellers
exhibitors
extract
fabricating
favoritism
foul
frequencies
furious
grievances
guinean
haier
hasty
heedless
inct
indisputable
inflows
intra
irrit@@
kho@@
leaking
liberty
lighter
manchester
marsh@@
memo
met@@
migratory
minibuses
mond
ms@@
mt
myers
nasa
navig@@
nearest
neglecting
nominating
oul@@
ounce
overbearing
patches
potala
pound
rab@@
recklessly
reefs
replenish
repres@@
residual
revol@@
runners
salute
sat@@
shes
shunde
sleeved
somalia
stays
subscribe
swallow
tem@@
trash
truce
turing
vcd
walker
waved
woo@@
world-@@
yantai
zhou@@
00%
165
1948
2,8@@
2.0
22nd
5000
aming
anglers
antihuman
ascend
auspices
aying
bab@@
balls
barbar@@
blocs
bona
borrowers
budgeted
cab@@
cd@@
censorship
centralization
cn
coding
colluding
comfor@@
concourse
constitu@@
controversies
copied
cough
dismantled
domin@@
dre@@
dushi
ena
endeavours
endured
essay
essentials
exceptions
expel
expires
formul@@
goo@@
grossly
guerrilla
hacker
haz@@
hepatitis
idong
imaging
imin
impending
indulge
injecting
insiders
ipo
jeopardized
jindong
kar
klaus
lap@@
leaf
munich
olds
origin@@
outweigh
patriots
pengfei
pers
poli@@
postponement
precedence
prepaid
proclamation
radio@@
rash
rcu
rence
repeal
ronald
sandra
sensors
smallest
smuggle
stat@@
surmount
tarim
terr@@
testify
tiles
tionally
trench
twin
unforgettable
unhcr
universality
wingers
xigaze
211
26%
3,0@@
7.1%
9.1%
abdurixit
acquainted
aloft
americas
anti-narcotics
ards
ares
assassin@@
ati
battleground
beans
betraying
blacks
breath@@
bury
cef
collaborating
conceived
connectivity
costumes
cruelty
cylinders
dawei
deducting
diagnosed
dict@@
editing
ele@@
elephant
embarrassment
emulate
enjoyable
estrada
fest
finalising
floral
geopolitical
gigantic
gin@@
guerrillas
incidental
incurring
interchanges
jur@@
karzai
kaz@@
keenly
knock
launchers
lifestyles
lockheed
micrantha
mindful
minsk
navies
orange
pile
pluralistic
precaution
radius
ranariddh
rata
receivables
recognises
rest@@
s'
self-criticism
server
serviceman
sham@@
shirts
shuping
sparing
static
timeframe
tioning
tirana
trustor
tsu@@
tti
umbrellas
uzbek
vers@@
warmer
wyndham
yayan
yukos
149
197
4,500
adjudic@@
adversity
affirmative
ard@@
belligerent
blew
boo@@
bordering
carved
catholicism
changting
coca
cropped
cypriot
d'@@
destabilizing
deviation
dial
doc@@
documentation
electro@@
elites
endemic
evaluations
fide
fluctu@@
gener@@
glu@@
guil@@
handsome
hockey
hsing
huaqing
hydroelectric
hyun
icked
ids
interval
intr@@
iously
ip@@
itating
ivory
jenin
jiazheng
jinping
jiu
kid
kiribati
legality
lime
luoyang
mariculturists
middleman
minim@@
mis
nanfang
navigational
nco
nerve
offal
permissible
pho@@
promotions
pup@@
pvrm
read@@
realignment
reproducing
resumes
ruihua
sabah
seedlings
sehk
serfdom
sergeyev
sez
sg@@
shelf
sink
slaves
somewhere
stering
sufficiency
superiors
thes@@
traces
tseh
unearthed
vans
vin@@
virgin
wait@@
wensheng
won@@
yick
yours
zong
+13
119
4.6%
480
5th
abrog@@
affix
album
annals
archaeological
attributes
backstage
bbi
boasted
businesspeople
celebrity
contacting
cre
customary
cycles
daley
deguang
delight
displeasure
dissipated
dogmatism
elevating
entails
eva
evacuate
fanatics
fications
fiercer
gangsters
gio
gloves
gon@@
harness
hkscs
hunt
illusion
imag@@
impair
instigation
inventories
ions
isheng
jis@@
kn@@
latvian
leftists
lessness
marines
modelling
mong@@
multitude
murdered
night@@
nursery
obeying
org@@
ost@@
perish
plea
plummeted
puri@@
ratifying
rebellion
redeployment
refrigerator
rene
requisite
routing
scrapped
seismic
ser
seri
sheltered
shin
sirens
slipped
smashing
snowy
sorted
sos
stimulation
structured
suspiciously
tidal
unrelated
unsuccessful
unwise
vacuum
worldcom
woven
zeal@@
(2)
..
185
3,6@@
45%
accessing
adi
analyzes
apolog@@
ared
astray
authorize
ayed
bailed
break@@
cashier
cht
comm@@
conservatory
csrc
dao@@
dep
dep@@
deserved
disadvantage
dsd
duplication
editions
embarrassed
enmity
envelope
eto
famine
ffs
ground@@
guoqing
guys
gymnastics
had@@
hans
hillside
honors
instruct
intermediation
jen@@
keng
kindness
kiosk
lang@@
likelihood
locusts
lump
melody
metallurgy
mobil@@
mondays
mos
moussa
netizens
occurrences
oma
overturned
partnering
peddle
persistence
pervez
pregnancy
prospectus
quicker
rang@@
reactors
rebounded
refute
ress
revert
riots
rvd
sas@@
sentry
shucheng
sonar
songhua
stormy
there@@
tit
trough
tso
una
undeniable
unfriendly
unpredictable
ut
vacated
vetoed
videos
voc
wash@@
wharf
workable
yearend
zhihe
zhijun
zhongguancun
(1)
195
1952
206
2300
35%
7.5%
abandonment
ambulances
assaulting
astronomical
aznar
barshefsky
baseball
blasts
braving
button
calgary
cameroon
campaigning
candid
christ@@
christians
clarie
clenbuterol
colours
concealment
corresponds
courier
curry
decisively
delim@@
detaining
determin@@
dged
div@@
dragging
drums
dubious
dwelling
edwards
emperors
enlist
entertaining
erection
exaggeration
exclusion
expound
expressways
feeder
folks
fourthly
frail
galpin
georgian
henceforth
illed
inger
itbb
kid@@
knowledgeable
marched
markings
materi@@
modernizations
nag@@
nullah
o'@@
oxides
pac@@
pag@@
passages
presale
protec@@
prototype
proudly
racism
rats
recordings
remorse
republics
resurgence
rgc
scaffolding
scit
seller
setc
sia
signifying
skating
soo
soundly
spec@@
succeeding
sunk
taoism
tat@@
thrive
togo
unites
vil@@
width
wp
yuanmingyuan
yunshan
151
162
186
188
189
370
83@@
aling
apt
audi@@
aw
baggage
battered
benzene
betterment
brake
builders
cholerae
citizenship
clerical
clip
collude
compromising
concise
congolese
conspicuously
cord
corrosion
credible
cut@@
damascus
dashed
deutsche
diaoyu
dongfeng
edible
electronically
emphasise
erecting
erly
eye@@
favoring
forgetting
gbs
gou
gratified
guidebook
high@@
horticultural
hul@@
ielts
industri@@
itous
junc@@
keeper
kostunica
learner
legitimacy
lev@@
liquidation
makeup
malachite
manag@@
marco
mars
mask
may@@
milan
mistakenly
mr@@
najaf
outset
p1
photocopying
plac@@
plunging
rat@@
red@@
redoubled
remitted
renewing
revolutions
rifle
roadmap
scriptures
seventeen
shedding
shrimp
siege
spac@@
specialization
spi@@
spray
stamping
stems
strove
substandard
superstitious
tangshan
thr@@
thunder
tou
truthfully
uc
unlawfully
unnamed
vanuatu
vcp
viewable
virtuous
westward
wherein
witnessing
yacht
yl@@
zem@@
1947
2222
65%
74@@
add@@
aluminum
anne
antenna
baht
bail@@
barred
benjamin
bestowed
bosses
boxing
breastfeeding
cakes
cannons
cataly@@
character@@
chia
crane
ct
cwtc
dar
demolished
differential
direc@@
disappointment
doub@@
drying
ects
effluent
endorses
ented
esteemed
expiration
exquisite
familiarise
fao
ges
grounded
hacking
hampering
healthier
hiroshima
hku
hoodwinked
hr
hurried
hutchison
impractical
ining
interoperability
jas@@
jianchao
jlg
johnston
kins
laboring
latitude
leapfrog
lings
lis@@
luard
mathematical
mediator
misfortune
mohamed
mos@@
non-government
noodles
ocs
offsetting
ome
ot@@
patten
persuading
physi@@
pol
protestors
quartet
ques
reaffirms
recycled
regretted
replying
reunify
revamping
rey
salim
scare
seating
shengli
shinzo
shout
shum
shwf
sof@@
somehow
standoff
sweep
swindlers
swollen
symbols
taichung
thief
tis@@
tness
tsea
unavoidably
unison
ural
ush
utilise
vas@@
veness
+4
000,000
0111
10.7
1200
130,000
2011
246
2829
3,4@@
31%
32%
802.@@
9399
acquisitions
acreage
ail
airing
albanians
alling
appropriated
asad
audits
bel
bodily
chro@@
clam@@
coercive
computerised
cured
custodial
custom@@
deflationary
depleted
deterring
disagreed
discrepancies
dissolution
dressing
embraced
excel
fleischer
furthered
gil@@
gloria
gsm
hak
hardest
imc
infiltrate
intervened
isps
jazz
kat@@
kathmandu
leng
lg
logs
luxurious
mei@@
metallic
motorized
n.
nakasone
occasional
og
overhaul
overlook
packing
pests
pharmacists
ply
rationality
revocation
rim
rubin
salvation
shopthrupost
stationary
stein
suicides
symbian
synchron@@
tangibly
testified
tidy
touches
tsun
tyres
ulu
underlined
upturn
ust
vent
versa
victoriously
vie
vow
weighs
whampoa
wushu
xiaoyang
0900
1258
14.5
215
242
26,000
2773
37%
530
6-@@
7.7%
9.11
abduction
afd
anc
anti-submarine
asahara
auto@@
backyard
bandar
bias
blo@@
bot
bott@@
cing
clerks
coat
colleague
colony
complainants
contestants
coral
corpor@@
curricular
delivers
devil
dian@@
disagree
disbursed
dividends
doings
dubai
dul@@
engraved
enroll
entrances
eradicated
erect
expounding
familiarize
fledged
fleets
forecasted
fp
gla@@
greenpeace
hmm
hostels
hsdpa
inculc@@
industrious
informant
injustice
iu
joke
koon
lac@@
lawbreakers
lik@@
mari@@
mekong
myong
neighborhoods
nineteen
o'neill
osama
overthrown
overturn
p.
pascal
performs
philharmonic
physique
pioneered
probability
prop
prudence
purposely
pushes
rashly
reader
reduces
regularized
seamless
shameful
spd
stonecutters
striven
subtle
superse@@
telephony
tents
thrift
tw
unapproved
uncommon
unusually
viktor
vili@@
westerners
yok
yugoslavian
zhonghua
|@@
110,000
12.7
153
174
1911
2,300
2100
24th
28%
28th
316
33%
3rd
5.5%
8.2%
accrued
acker
acknowledgement
ala
aliyev
allotment
amsterdam
antarctic
armistice
ashamed
assurances
bargain
beautification
bir@@
bolkiah
broadcasters
bts
bud
callers
censure
centigrade
cere@@
chains
chiao
christine
cleveland
complainant
concretely
cov@@
crooked
defeats
derivatives
designating
digi@@
dilapidated
disposing
diversify
dramas
dru@@
duo@@
ela
emu
explode
extravagance
fabric
fertilizers
fool
gem
gfa
ghu
girlfriend
hallmark
handicraft
hsic
iguang
immersed
immune
incor@@
induc@@
indulged
inti@@
ishness
izhong
jack@@
joshua
khai
kilogram
kings
lang
latent
leaning
lrt
lumber
manipulating
mec@@
militias
mim@@
nil
objected
ores
outmoded
pak@@
pinochet
pluralism
pos@@
pragmatism
premiere
psps
puzzled
qiushi
reflections
repeating
reuse
rfid
ris
row@@
scar@@
scott
scout
self-government
severance
silvermine
sony
soup
spontaneously
stimul@@
subvert
suk
summarizing
sunni
surroundings
teresa
texts
trac@@
tuned
unanimity
unsolved
verde
vista
viz.
warplane
westernization
wires
worn
xiaodi
xining
zhai
zhujiang
.2001
10.6
11.8
131
164
172
202
27th
2833
560
9009
abdominal
achieves
aded
adju@@
aggravating
aircrew
alarming
angu@@
apportioned
astronau@@
balloon
birendra
bishops
bowl
briefs
cachet
catholics
centrally
click
coffin
compelling
conscription
counseling
counselor
cox
creations
crystallization
davidians
designsmart
detain
devoid
dic
dynam@@
economizing
educ@@
efif
embezzled
encompassing
expectancy
ext@@
extensions
felling
fiji
firefighters
fuling
hasn't
herald
here@@
hereafter
hosni
hsiu
hum
hurdles
hydraulic
igu@@
immol@@
jiuquan
knowingly
kobe
kwasniewski
las@@
lc@@
lethal
lever
liangyu
loop
manuscript
mccain
meiji
modules
moldovan
nac
negated
nip
nu
oilfield
ose
overcrowding
pane
parole
peddling
petersburg
ppm
pretti@@
pris@@
proofs
pti
punc@@
qishan
radars
repurchase
rescuers
resettled
reuters
revamp
rongkai
seas@@
sedans
seism@@
sleepers
slimming
sophistry
specializing
squatter
stained
strangers
suitably
symbolizes
tempo
tos
trainings
tun@@
twisted
uae
undecided
unfit
unruly
valve
vedrine
wahid
worm
ziyang
157
2,400
23,@@
24,000
25,@@
3000
382
6.5%
78@@
advertised
alternatively
andong
anew
animation
anti-crime
apologies
battalions
berth
broker
china@@
civility
coincides
complementing
congressman
cpccc
dauntless
deflators
deletion
dictator
disagreements
disbursement
docks
dou
echoing
elated
enhancements
enlisted
eral
evenings
exaggerate
execu@@
expounds
fabricate
farsighted
fir@@
firmer
fortified
founders
framed
fuller
func@@
grad
hem@@
herbs
hir@@
iles
ille
imm@@
implied
induction
inefficient
interfax
interrelated
interrogation
jeopardizing
jingji
kha@@
lagged
landslides
lec@@
lesser
lett
locating
malignant
maneuvering
marry
materializing
mc6
mig@@
mill
montreal
multi-party
newsline
nim@@
ninety
novosibirsk
orc
pass@@
pecc
plasma
pray
prioriti@@
privatisation
pwif
quemoy
relocate
reproductive
ryutaro
sang@@
sec
self-reliance
servers
shenwei
shun@@
sip
striding
stroyev
take@@
tanino
terrestrial
tol@@
trickery
tying
untold
violet
wolf
yaobang
yielding
yo
+7
11.5
192
1937
2815
4.0
9.3%
9.9%
94@@
:30
abdu@@
abides
abraham
agendas
alistic
ashed
assassinated
assumptions
attendants
author@@
betty
bijian
boasting
bouteflika
brilliance
bumping
bursting
cart
cbs
centimeters
cepas
cham@@
chasing
chol
commu@@
compatriot
congratulation
correspond
cruelly
databases
deprivation
depriving
dharma
diametrically
dismissing
disorders
distributor
edges
enforcers
enko
entertain
fantasy
forbid
frames
frigate
fugitive
globalized
guangming
handlers
hen
heng@@
heretic
his@@
hkust
indulging
intervening
ion@@
islam@@
jue
karma
kurdish
lay@@
liao@@
locking
lotus
masks
mb
nationally
nien
non-military
ographic
organizes
orship
overe@@
overflight
pcs
philadelphia
planner
precipit@@
preferences
prevalent
propagated
ras@@
recital
reliant
remembrance
repu@@
resultant
retrofitting
rogachev
saf@@
semi@@
signatories
siqing
sively
slated
spon@@
sr@@
statutes
stewart
subgroup
surfaces
tap@@
telegrams
treats
tters
tuous
unre@@
unreasonably
upkeep
valuables
variation
vendors
voicing
vying
waived
watermain
wrong@@
xiaoyu
xinhuanet
yichang
zhenhua
%
(3)
1.6@@
10.3
146
167
2268
228
2892
55%
6.3%
7.3%
84@@
abatement
adjudicator
aesthetic
afflicted
airstrikes
alaska
alien
anny
anti-science
archsd
assuring
ballroom
barely
bearings
beset
bigamy
blasting
bubbles
buff@@
capitol
cardi@@
charted
chea
circ@@
classics
colonialist
commandant
decom@@
defender
depicted
deploys
dodge
dvd
electorate
eleventh
empire
encroached
enquire
entrepreneurial
escap
expatriate
exposes
extinction
extricated
facial
fellows
fon@@
fore
fragments
fundament@@
furnish
grav@@
haiti
hearsay
heart@@
helen
hezbollah
hinge
hsiungfeng
icescr
iip
imbued
indicative
insurer
int
interpre@@
issuers
juppe
kidnappers
knit
l.
lcd
leng@@
loads
manship
massachusetts
monies
mugabe
muscle
naming
nation@@
neighbours
nings
oceania
ogi
omni@@
osce
overhead
owe
pes
phasing
phuket
poems
poised
prints
putian
registrations
regularize
renouncing
resilience
restricts
salv@@
scri@@
secre@@
sedi@@
seven@@
sex@@
shouldn't
soci@@
sourcing
spc
swords
synchronous
televisions
toi
tou@@
trainee
traits
uck
uming
untied
urine
weak@@
wed
weighted
weihai
weimin
will@@
worthiness
xiangqun
zhengying
11.2
182
277
5,500
5.
5506
6.0
6.0%
67@@
7.6%
7.8%
86@@
accuses
ailed
airstream
aled
amicable
arizona
auctions
autopsy
aved
begawan
bob
bour@@
brain@@
bull
capitalise
catalogue
caucus
chernomyrdin
chunhua
clear@@
clu@@
coincide
concealing
concentrations
contending
copenhagen
criminally
cropping
crt
ctbt
dak@@
dominican
dsds
dss
ece
embodying
endurance
enthusiasts
escalators
eulog@@
evidences
f.
foam
footbridges
gladly
graphically
hats
husbands
interdependence
ishment
jewelry
junjiu
kadena
kidnap
killings
kon
lingering
lion@@
lob@@
lows
mao@@
modeling
monasteries
noises
norm@@
nt@@
ntn
orchestras
ouse
overcrowded
paralympic
patron@@
pes@@
pharmacies
phen@@
pills
poo
pooled
portfolios
pot@@
preset
prevailed
pro-independence
quintessence
radically
raiding
redemption
refin@@
retrofit
retrospec@@
revamped
ruining
sculptures
selectively
siberia
sinking
southorn
stacking
stairs
strived
sty@@
submerged
surpluses
techn@@
torrential
town@@
underemployed
unimpeded
upstream
vainly
vity
vp
xiaoling
yoshinori
1.25
10.5
163
23,000
2675
38%
4918
56th
accessory
accumulative
acquaint
agro
ako
allocations
ambient
amoy
anno@@
anshan
anthems
anxiously
ashore
aso
astri
auditors
bath
berthing
bli@@
brick
capped
centenary
chater
classi@@
counterattacks
covenants
credited
crush
crushing
debating
dging
dietary
digital@@
diminished
disappearance
disappointing
divestment
easement
ech
ef
emigr@@
enberg
encounters
endangers
expedited
extracted
fca
ferocious
fook
formality
frightened
ght
grab
guantanamo
gyaincain
heinous
histories
inclination
incur@@
intolerable
joyful
kas@@
lim
lusaka
mariculture
mindedness
modular
moo
multilevel
niyazov
num@@
ny@@
ots
oured
ovich
panamanian
periphery
perpetrators
persecuted
plug
polarity
policymakers
polite
potenti@@
preemptive
preside
rallied
rant
reass@@
rebuilt
recognising
referrals
reversal
robbers
samaranch
sandstorms
scaling
scarce
scor@@
seizures
shelton
shizhong
shrunk
sliding
smog
soo@@
staffs
staircase
stamina
staunchly
stretching
sup
sympath@@
tampering
tax@@
tle
trainers
tren@@
ttes
tually
unctad
urn
ville
waive
weng
wenzhao
whaling
worms
worshipping
+10
.2002
14.8
2,600
2116
28,000
301
31.@@
44%
=@@
aba
advancements
airmen
akes
ame@@
amin
amplifiers
angel
assed
bandits
birthplace
bit@@
blend
blooming
chers
chines@@
collar
complacency
cong
contraction
coroner
csi
datestamped
daytime
decoders
delu@@
democr@@
discontinued
esf
eth@@
ethylene
expedi@@
faults
fortress
fresh@@
frontiers
giants
hki
hurts
ight
impeded
indu@@
ink@@
investig@@
jianhua
jurors
khaddam
khar@@
kie
kilometre
launcher
litigants
locust
luanda
magnitudes
medium-range
mold
mov@@
niches
olu@@
orally
past@@
pathological
pigeons
pilgrims
plum@@
pmh
port@@
predetermined
q4
recuper@@
refu@@
replaces
replic@@
revered
sabotaged
samoa
sarg
sca
scdma
seabed
seleznyov
settings
shallow
shellfish
shoko
sible
skeptical
soap
summarization
surges
switches
sympathetic
tkp
triple
trophy
tuo
ulation
vaccinated
valuing
vand@@
voucher
wentian
white@@
worded
+16
+5
0700
0s
177
1830
27,000
2827
520
9.5%
95%
96@@
admonitory
affixing
aked
aler@@
alls
amine
aq@@
arctic
arians
artistes
assorted
awakened
beirut
besieged
bloss@@
bounden
bt
cardiac
carriageways
catalyst
cave
cep@@
characterised
chip@@
ck@@
cocktail
commercially
complicate
concer@@
consum@@
corro@@
crackdowns
crc
crescent
daw@@
dazzling
defuse
domination
dos
dose
enliven
epidemiological
eping
extorted
fish@@
gandhi
gou@@
groundwork
guozhang
heartedly
ifs
ilo
impatient
indemnity
industriously
infestation
infringements
injunction
keted
key@@
komeito
landlords
lawbreaking
lia@@
linear
liu@@
masked
medic@@
miracles
morally
needing
negotiators
nepali
nest
nin@@
non-proliferation
observance
odds
offend
offending
ona
ora
ordinator
outlawed
oval
pernicious
pha@@
plateaus
predictable
preposterous
propri@@
pwh
rage
ransom
remin@@
renting
reside
revelation
rifles
rightists
rsp
rude
sac@@
sey
shelley
signified
six@@
slave
socioeconomic
stle
stre@@
suitability
summits
sympathized
termin@@
thefts
thieves
tonga
trail@@
uni
unyielding
waiving
warriors
waterloo
weed
zai
zaire
ziyou
0,@@
1530
201
254
297
6,599
7.2%
abol@@
aco
actress
adversary
affirms
ahmadinejad
anti-aircraft
apa
appointees
aqu@@
arc
ariel
aro
astic
attackers
awkward
bazaars
beg
benevolent
bingyin
brag@@
broad@@
chairpersons
chatting
chungshan
classmate
cler@@
conspir@@
cooper@@
courtyard
craf@@
craze
daz@@
deductions
deserted
desperate
dest@@
dimensions
disturbing
divi@@
dn@@
dom
echelons
eda
ede
endeav@@
enron
erating
estim@@
etic
fellowships
fervor
fig@@
frenzied
garris@@
gauging
geology
germans
grandma
handedly
honey@@
impairment
inhuman
intergovernmental
ironclad
iser
kes@@
logging
lucent
mani@@
memor@@
mes
meth@@
microbiological
microwave
militar@@
mmm
modalities
ngan
onist
organises
orleans
outlay
overcharging
parental
payer
pc@@
pct
peers
perez
personalised
pham
physic@@
platinum
q3
refractory
regulates
relaunch
respirable
revolutionization
rode
romantic
rove
sacrificial
sergei
sf
shelve
shibao
shimonoseki
sli@@
sneak
socially
sovremenny
spa
splittists
sports@@
spp
squeeze
stand@@
stockpile
surfers
suspending
thly
tization
tough@@
traversed
tsung
tumen
unsolicited
versatile
way@@
willful
with@@
workstyle
yugan@@
yum
147
1944
1960s
218
2877
29,@@
295
299
4,300
410
510
7th
8.9%
900,000
95@@
accuse
adhesive
aircrafts
alas
annuity
antiscientific
aquaculture
arduousness
asym@@
barren
bator
bere@@
biennial
bike
blankets
brazen
bris@@
broadwood
bruce
butt@@
cambridge
chat@@
chief@@
chooses
choreo@@
constrain
corpses
debated
decent
deprive
devious
dhaka
discarding
discoveries
distr@@
dive
drifting
dublin
dumped
electr@@
elmer
ens@@
epp
equestrian
ette
extraction
follower
foolish
forgot
formulary
ghana
grac@@
handbags
havoc
heroically
house@@
hyundai
iiac
ilan
immature
immerse
immunities
incredible
inde@@
indivisible
induce
infatuated
inser@@
intensely
interruption
ison
jeffrey
kum@@
kwo
laugh
legislate
lib@@
liquidator
listeners
load@@
lookout
mechanization
mortg@@
motto
non-party
nut
orous
oto
outr@@
pale
paralyzed
phytoplankton
pla@@
pling
polices
politicizing
portland
potsdam
principally
pulp
qingyuan
qiu@@
quanjing
quasi
reign
renovate
reorganisation
residency
respectful
revived
ringing
rumored
santos
seychelles
sharif
shattered
shengde
shuqing
spin
stiff
subordinated
summon
surviving
swee@@
sylvia
tail@@
tenor
that@@
thi@@
tie@@
totals
toxic@@
trafficker
travels
tri
tual
tz
unadjusted
unscrupulously
vantage
visions
vladivostok
wandering
wibro
xitong
yer
yomiuri
zurich
+18
14.6
2.89
223
237
2882
29%
3,8@@
8.8%
abor@@
acking
anti-cult
antisatellite
arti@@
asahi
auctioned
aud@@
averaged
bacterial
balloons
bling
brit@@
brutally
cac@@
canceling
canon@@
canteens
caps
ceremonial
chon
citibank
clamoring
commending
completes
conceivable
conformed
congmin
conqu@@
coordinates
cork
cousin
cra@@
crimin@@
cy
cyd
desperately
dges
diego
dious
divergent
dod
doping
douglas
downsizing
draw@@
drawbacks
editorials
electromechanical
ellipses
embraces
emotionally
endlessly
ene@@
entrenched
epidemics
ern
escu
estonian
evidenced
fatherland
fellowship
fluttering
forerunner
frustrated
gaozhou
graphics
grong
harbored
hint
hoodwink
humanistic
hungry
hut
ignited
illegitimate
imperfect
inhal@@
inity
inspects
internationalized
jap@@
jesse
jews
kashi
katrina
keith
ld@@
legendary
lent
leonid
lers
lig@@
likud
magnanim@@
mailed
materialist
meddle
mentions
merchanting
mianyang
minimising
monkey
naz@@
nec
nes@@
nik
nts
nucleus
nul@@
oli@@
ordin@@
ounces
ova
overwhelmed
painter
pd
petro@@
pick@@
plains
platoon
poetry
prayer
rav@@
realizes
reaping
refuting
regrettably
rehearsal
relentlessly
roger
rot@@
rt@@
rugby
ruilin
sao
sheetlets
sik
soy
special@@
spir@@
stole
ston
suc@@
sue
synthetic
temptation
thorough@@
travel@@
treason
trem@@
turkmen
unconventional
unwavering
uv
vicissitudes
vin
vows
whip
wrap
xiaosong
xuan@@
za@@
zonghuai
}
+17
-4
1.65
16.5
169
184
2,800
207
245
252
2881
45,000
6403
8.1%
9.2%
930
aine
aki@@
alighting
allegiance
anchorage
ands
anti-ship
arabic
ardently
ased
asing
ayi
bend
big@@
blockage
bloodshed
bolivia
borrowings
bow@@
brewing
builds
cam
captains
carolina
categorized
cds
coal@@
compel
compromises
congreg@@
contingencies
conversely
cooler
cpd
dag@@
dairy
darussalam
davidian
doubted
e'
earners
emails
embankment
eming
entrust
extingu@@
ez
fatalities
favourite
felipe
fluid
fortunes
free@@
freighter
frustr@@
glori@@
grandfather
guangchun
guixian
guof@@
haiyan
hann@@
hassan
hated
hl
hubs
ials
icon
ind
indiscreet
inequality
interrog@@
iron@@
jang
jimmy
jinchuan
junsheng
kong@@
labelled
len
lev
lopez
lords
mailing
manhattan
menace
mingyi
minsheng
mitigating
mone@@
multipolarity
murders
nn@@
non-interference
norovirus
o'brien
odour
olin
oun
ound
outlining
oxford
paced
paper@@
parlour
persevere
planets
pollute
postshop
practicality
probable
rays
receivers
recess
reform@@
resses
rhythm
river@@
rmls
see@@
shat@@
shpl
shuzheng
sigh
simplification
slacken
snakes
staple
sterling
sto
stunned
subbureau
tallies
testi@@
tramples
trun@@
upbeat
valleys
waterway
wildly
wwii
year@@
yunfan
zhe@@
zhongyi
zuoxiu
1300
170,000
1895
2123
221
2761
3,800
3,9@@
6th
760
8.6%
9.6%
aceh
ador@@
airs
aloud
alright
amed
anglers'
anti-society
apo
assi@@
asts
atal
atas
athletics
attendant
atti@@
bandwidth
basement
bean
blatantly
brac@@
brasilia
candidly
cb@@
ccpit
chap@@
chron@@
commences
common@@
comprehen@@
conjec@@
crashes
cruising
dating
debtors
deceitful
derive
detector
diagno@@
dinosaur
discer@@
disqualification
dissip@@
doomsday
drawings
dump
eded
eline
empowering
everbright
ex-@@
exaggerating
exploratory
extorting
fascinating
ference
fittings
forwarding
fundraising
gen.
gentle
glance
gle
gold@@
gov@@
govt
gram@@
gratu@@
gue
guilt
gul@@
harvesting
hes
huizhou
hum@@
hypo@@
idity
immensely
imple@@
inan
inexpensive
inflammable
inflated
insightful
institution@@
intestinal
invoice
isi
jsp
lai@@
lamp
landscapes
leo
let@@
lodgement
majestic
martyr
mastermind
mausoleum
maxim@@
mechanically
medium-@@
miami
michel
mikhail
mium
mortuary
ndu
ning@@
nl@@
nonaka
nonmilitary
nos.
notifications
oppressed
paedi@@
parachute
parad@@
paragraphs
paraguay
passageway
plat@@
pleading
protocols
prs
qiaomu
rationalisation
rationalize
refraining
remnants
retrieval
retrieved
revisit
rog@@
rt
ruthless
santa
sattar
sensational
skipping
slots
slumped
sm
social@@
sop
speedboats
sper@@
stemming
suo
superstitions
supra
tas
tened
thankful
theirs
triumphant
tso@@
undp
upgrades
vag@@
valu@@
was@@
wasteful
wco
wisconsin
wood@@
xwcgc
zhiyong
zon@@
+15
12.8
1400
1630
1963
2,700
205
216
2305
251
28,@@
3010
470
4738
850
accommodated
ache
alexandria
anten@@
antonio
aol
apartheid
aping
appetite
asbs
ascended
assimilate
aval@@
barroso
belit@@
benin
bers
beverage
bewitched
biography
bodied
bog@@
booked
bread
breakers
bus@@
bustling
cai@@
calibre
caller
chim@@
cholesterol
cic
coer@@
coffins
colli@@
condolence
confess
conglomerates
connived
converge
curious
dad@@
dearly
deficient
denafil
dens
dent
dependency
disco
dividend
drift
dt
elines
eman
encryption
ene
enlarging
ential
epicenter
erated
expedient
fast@@
fda
flagrant
forfeited
fron@@
fukui
fuse
gamblers
ginseng
gods
grad@@
gramophones
gravely
grenades
gsd
hegemonistic
helmut
hitler
hkcl
hometowns
hood
humidity
iciously
implic@@
improperly
indians
inhumane
insignificant
iring
jal
jamyang
jec@@
jeopar@@
jon@@
justices
kc
keepers
las
leeway
lips
materialized
meddling
mel
mentary
mist
ml
mou@@
nagorno
nearing
nihon
nin
nox
oli
oph@@
orbits
orchestr@@
peculiar
pedd@@
philips
ple
pom@@
precipitation
proclaiming
procrastination
profess@@
program@@
progressiveness
puzz@@
py
quanti@@
rebar
reinvigor@@
requisition
rica
rich@@
rides
rob@@
safest
scanning
scrambling
sds
self-determination
sem@@
seniority
shyi
simulating
sket@@
slackening
sni@@
soa
solicitation
solidifying
spends
spokesmen
stumbling
subscriptions
sui@@
supachai
taro
temp@@
terri@@
tha
thir@@
thunderstorm
tolls
trample
ulong
umno
uniqueness
unqualified
upheaval
voyages
vulgar
vulner@@
weicheng
wielding
wing@@
xins
xintian
xuezhong
zagreb
zhendong
+19
11.7
1840
222
235
240,000
2594
2611
268
69@@
7.0%
7.9%
78%
9.4%
9001
actresses
aio
anyu
associating
audrey
awaited
bending
betray
betrayal
bouquets
bricks
bryant
burton
camouflaged
canrong
canvassing
carriages
casually
cent@@
chairing
citb
commercialisation
compressed
confessions
constituent
contradict
conven@@
coughing
cpce
craw@@
crew@@
crocodile
cunning
cyclist
dampened
daylight
defection
directory
discharges
dismantle
dium
divis@@
domineering
dongpo
doom
dsp
dug
dys@@
ehud
eld@@
embezzling
embro@@
entic@@
escalator
falsehood
fantastic
filtration
fisherman
fit@@
fort
frac@@
fridays
furn@@
gae
guardians
halting
hanged
hor
hospitalisation
ibrahim
igh@@
imo
impressions
inadequacies
indelible
individualism
iran@@
jingyi
kursk
lapse
lounge
mat
miao
mills
mkapa
moder@@
modestly
monopolize
motivating
natures
ncs
nick@@
noisy
numer@@
ols
outreaching
outright
overheating
overlap
oy@@
perceptions
piercing
pierre
piled
plo@@
poet
polled
predic@@
predicaments
protein
psychologists
qili
qiong@@
quitting
rcccs
reckoned
reelected
remolding
retrenchment
reunited
rhetoric
roms
rutherford
sampan
sarajevo
scann@@
scars
seawater
selections
shah@@
shir@@
shy
sizeable
ski@@
sound@@
spee@@
spraying
ssds
staffed
stimulus
straightened
subscri@@
substantiate
subunits
sud@@
sunning
super-@@
tar
tempering
thro@@
tombs
tr
tutorial
unbearable
unforeseen
unstamped
utilised
vig@@
vivi@@
wcdma
weaving
wr
yandong
é@@
+6
1.9@@
11.3
12.4
140,000
1802
2147
241
257
275
29th
4,0@@
5012
53%
6,500
6.45
7,500
7711
8.7%
9.7%
acity
adversaries
ahmad
aire
airforce
ait
altering
amm@@
arduously
arily
articul@@
assists
att
attested
auditor
ayan
bewil@@
bles
bypassing
cardiovascular
cinemas
compar@@
conc@@
concoc@@
congming
contempl@@
cooperators
corrupted
cosmetics
cred@@
crow@@
decentralized
demo@@
devils
diarrhea
distribu@@
ditch
dom@@
eas@@
eec
ellant
emblems
emit
etcc
eton
eurasia
evap@@
exceedingly
exterior
fearless
flaunted
flaunting
flowed
fodder
forth@@
fortify
fossett
fraudulently
frigh@@
fusen
haem@@
harris
helpless
hilly
hkpc
hr@@
human@@
humankind
hydrological
icc
imbalances
iming
info@@
infringes
instruc@@
insul@@
interflow
ive
jam@@
jiaxun
jus@@
karabakh
karmapa
kato
keqiang
khal@@
kom@@
lahore
learners
lenovo
livel@@
luring
madame
maldivian
matrimonial
memorable
milestones
mire
mixture
motorcade
moun@@
nanhai
nausea
nuns
ole
omnidirectional
orphans
ousted
overloading
overstaying
pad
parachuted
pere@@
pfs
pharmacist
plo
pockets
poorer
portions
precedents
premeditated
prevents
printers
pron@@
quarrel
racked
racks
rand
reda
refutes
remun@@
rift
rivalry
roller
rudai
rumsey
sau@@
segregation
seismological
sensor
sezs
shel@@
sightedness
sodium
specification
spiritually
stagnation
standstill
stor@@
subsid@@
substation
sued
surprisingly
symbolizing
telephoned
thirst
transl@@
tribunals
unparalleled
unsatisfied
vanished
voltage
vy
wallet
wfp
xigui
zang
zengpei
zhongwei
抯
#
1.3@@
10.4
10.5%
10.7%
11.4%
13.5
152
171
1920
212
24,@@
26,@@
267
2758
285
3,3@@
4,200
405
5,8@@
7.0
7.4%
8.5%
9.8%
acti@@
activating
adam@@
affili@@
albeit
alex
ambit
amen
angran
ante
anxieties
appreciating
argyle
aspire
atis@@
aug@@
baker
baorong
bleeding
bottlenecks
brightly
budgeting
bunch
ccc
cct
cebu
cgo
chai@@
changle
chariot
cmb
coefficient
colon@@
communic@@
communicated
conclusive
confidently
congested
constellation
continu@@
cradle
croft
cultic
cwb
cwc
davos
deadlines
deci@@
delightful
delinqu@@
dennis
descending
dier
differentiation
dii
dow@@
dpa
drank
dwin@@
eat@@
emi
enlargement
ership
exercisers
existent
fairy
favourably
flaws
focus@@
friend@@
fuelled
gar
gazettal
gel@@
ghu@@
glimpse
grenade
gunfire
hay@@
headquartered
heartily
hke@@
hkjc
housewives
hovering
illumin@@
inci@@
ington
insur@@
insurgency
intimidated
itate
jaswant
jianjun
jiao@@
jie@@
jo
kaifeng
khamtai
knitting
kov@@
labeled
lean
lecturer
leniency
lichen
liner
longitude
lucia
magical
marrying
mini-@@
mon
more@@
multidimensional
multinationals
nanqi
nicotine
north@@
nutshell
oaa
observ@@
orthodox
oslo
owen
plead
policyholders
politicized
pper
pra@@
prescribe
pronoun@@
prp
punitive
qiren
reassure
repaying
ringleader
rui
saddened
sales@@
scheming
serge@@
sharm
sharper
shekou
skillful
slanders
slot
smiles
snatch
snowfall
stani
stemmed
steril@@
stry
suicidal
sumitomo
sus@@
symbol@@
symposiums
takers
tco
teamwork
thrice
tko
toler@@
trainer
unfinished
unnecessarily
unpleasant
viet
villager
walkway
withstanding
woodland
woods
worlds
xiaowen
youcai
zation
zer
zuma
+12
001
243
271
4,6@@
42%
580
780
8.0
8.4%
addicted
adolescents
adventure
airstrike
akers
alight
ambi@@
amcham
amp@@
amy
ander
beautifying
beloved
bidder
bon
bonding
bridging
brittan
butter
caters
celebr@@
cell@@
centimetres
cervical
chanting
cite
comet
commendable
commerci@@
compensated
complic@@
confinement
conquering
controllable
creativeness
cyclical
dancers
defect
demoted
deng@@
depletion
deregulation
deserts
diff@@
dignified
disintegrate
dolphin
donghai
ean
earthshaking
ed.
elaborating
enduringly
enmao
epic
equatorial
ern@@
erp
ethnical
exams
excitedly
exempting
fanatic
fengqin
footage
formalistic
fulfilment
garcia
guangfeng
guangyuan
hadn't
hakka
harare
harmoniously
helpl@@
herzog
hiro@@
hit@@
hke
hki@@
huijun
hurdle
ia@@
ici
immun@@
immunization
inactive
indifference
infect
inging
inmate
interpreter
iris
jesus
jih
judgements
kab@@
kis@@
lamas
lav
lav@@
layoffs
legislatures
lens
lever@@
log@@
losers
lover
maltreatment
mam@@
manning
mf
mhz
moody
mortal
mpfs
mushrooms
nang
natives
necessitated
neill
neo
networked
nongovernment
ob
obstetric
offspring
oils
opted
ortega
osity
pasture
perils
philippe
photographers
pinned
pmcs
pn@@
politicization
polo
postmarks
powerfully
prof.
realised
reclaim
rendition
reunite
rever@@
rhqs
ruler
rup@@
sahara
sauce
say@@
scen@@
scl
scotland
servic@@
shamelessly
siberian
sl
sors
spacious
squadrons
stadiums
standpoints
stap@@
stop@@
tag
taoyuan
tate
tent
thaw@@
thed
thoroughfare
tioned
topple
torpedo
transcend
trum@@
tural
turf
unbridled
unequivocal
versed
vistas
volunteered
week@@
willy
wrapping
xinsheng
y'
yuanyuan
zeng@@
zhijian
zhirong
zy@@
+9
1.11
10.3%
10.4%
12.5%
13.2
1473
15.6
1771
239
255
265
282
3,200
690
8.0%
87@@
aedes
aggreg@@
alim@@
aluminium
amaz@@
amber
ann
anti-smuggling
appe@@
arbitr@@
archaeopteryx
aring
ascending
ase
aspiring
ater@@
attainments
awakening
ax
beef@@
bible
bite
bmrc
boast
bodong
bullion
cannes
carton
caves
ceases
chuang
clumsy
coherent
collisions
colorado
columnist
combinations
conditioner
confiscate
connects
connivance
contented
countermeasure
ddin
delist@@
demarc@@
dementia
democratically
deposit@@
detonators
diagnostic
discriminate
disperse
distributions
diver@@
doses
dove@@
ecosystem
elu@@
emergent
endorsing
enlivening
environment@@
erroneously
esti@@
fearful
flin@@
fujitsu
gears
goldman
grow@@
hail
hasten
hawkish
headlong
heaters
heels
hikers
hkba
hkied
huning
idealism
ila
inate
incap@@
indicted
infer@@
infiltrated
informatization
intersection
invasive
ipv6
irong
ivan
jeal@@
kat
katherine
keli
kh
kovic
lek
lest
lic
limbs
maxicab
melons
modeled
mof
monopol@@
monopolistic
motorcyclist
n2
namelist
ner@@
nom@@
objec@@
oda
olmert
omissions
oranges
orbiting
orum
paal
pennsylvania
performer
piti@@
plowing
plur@@
pollu@@
portr@@
potato
prob@@
prospectuses
provocations
punishable
reck@@
recoll@@
reexamination
refrigerators
representativeness
resale
residences
respectfully
retrieve
ris@@
rounded
royalty
sacked
shameless
shinawatra
shortlisted
shuk
signaled
sizing
sketching
slackened
solem@@
speedboat
splendor
squash
strips
struc@@
suite
supplements
sym@@
tamil
tdd
towngas
trolley
tuesdays
tyr@@
tyrants
unattended
wf
yearbook
zhuoji
~cnn
10.1
13.8
21,000
2111
238
262
264
296
36%
5475
66%
8.45
acqu@@
acteq
adap@@
administr@@
alabama
alam@@
alter@@
antang
antichemical
archival
assigns
atheism
atisation
biographical
bribing
brochures
brotherly
cancers
catal@@
ccs
changde
cheered
chrysler
clinging
cnpc
coma
competed
contesting
contributory
convicts
crafts@@
dadu
decor@@
defaul@@
denominations
diamonds
dim
disintegrated
disk
dispelling
elicited
encephalitis
entrepreneurship
enumerated
ests
eting
excerpts
faeces
fall@@
ferries
fervent
fet@@
figur@@
footnote
franc
gary
ghost
graceful
greenery
griev@@
gst
guanghua
gur@@
hamid
haw@@
hell
hide@@
hktdc
hoax
hsi@@
iea
ien
iliang
immunisation
impounded
inated
incisive
inda
ined
infocentre
inqu@@
intricate
issuer
izhen
jam
joyous
junshi
kel
klestil
lad
landmines
laughed
leveraging
looting
lor@@
luis
majoring
mentors
militarization
moses
mrt
multi-polar
openings
particles
perver@@
pirating
plunder
precursor
proclaim
promulgating
psdas
qingze
railings
reconstructing
reimbursable
remold
repent@@
repeti@@
rescheduled
resettle
resorts
richness
robbing
rocked
rying
scrapping
sdb
seeker
self-examination
seniors
sfo
shaolin
shelves
sher@@
shernise
shielded
showcasing
shumin
sidelines
slavery
slid
smiled
sneezing
soar
soften
strategists
suburb
swc
swelling
swindling
thompson
tiveness
tled
transient
tsao
typically
uli
ulin
unaware
undeveloped
unduly
unhygienic
unti@@
ure@@
usfk
vastly
verifications
victimised
walkie
walter
weigh
wenling
wenzao
withdraws
xiaofeng
yearning
yihetuan
yili
yim@@
yushun
zaldivar
zhigang
é
10.2
13.7
179
224
258
2867
3.00
40th
43%
490
540
76%
abbrevi@@
abs
accedes
ached
activation
admires
affiliations
aldrich
allcock
alloy
amplify
andes
annul@@
apprehension
arbitral
astonishing
ayama
bangladeshi
banquets
beg@@
believ@@
bene@@
block@@
blossom
bohai
brand@@
breathe
brush
buil@@
cao@@
care@@
cartoons
catchment
ceremoniously
cheering
chem@@
cher@@
cita
city@@
cliff
commercials
compens@@
complaining
conform@@
copyrights
cross@@
crowned
dams
debtor
defec@@
devalued
dis
discourage
discovers
discrepancy
displeased
divergence
divul@@
dome
donating
doned
dot
downfall
dwel@@
eagles
ego@@
ema
examines
exiting
experimenting
exportation
extradited
filipinos
fittest
folded
frost
fru@@
fudan
gc
gli@@
glickman
handsets
hkedcity
hkitp
hl@@
huanqiu
icbm
ied
inadequacy
inary
inflationary
inhib@@
insolvent
internship
introspection
ition
janeiro
jingwei
kantor
keizai
kilowatt
knot
koirala
kyodo
laughing
lifeblood
limelight
limit@@
lineup
linkages
loosen
makiko
malacca
manslaughter
mation
mechan@@
modifying
montenegro
moreton
muhua
nai@@
nairobi
nba
necess@@
newborn
nsb
ohio
onally
optic
originating
osco
ouses
passionate
pickup
planners
potted
precipice
prepares
presid@@
preten@@
promoter
pseudo
rails
rainbow
ration
reassured
reci@@
reckon
reconcile
reconstruct
refresher
regretful
reli@@
rels
remission
restart
reve@@
revel@@
revolution@@
ria
rid@@
roy
rushun
sap@@
saucer
seaf@@
securely
selects
sewers
shadowed
shiyan
shuang@@
shui@@
spinning
spitting
spl@@
spor@@
sq.
stabbed
stalin@@
stool
strategist
subcontracting
substituting
succeeds
suses
systems'
tablet
tees
terminology
titan@@
tones
topical
topo@@
topography
trader
traitors
trotted
tun
undercharged
unease
unfilled
unicom
unreliable
untenable
urban@@
viii
waist
watch@@
waterways
weren't
world@@
yak@@
yinchuan
yonhap
08.@@
10.9
15.5
191
2,100
244
253
281
288
3,600
4,9@@
59@@
747
99@@
acies
acrobatic
admissions
adop@@
aeronautical
agon
aic
ains
airbase
ament@@
amman
anese
aptitude
arid
arsenals
asians
aun@@
autom@@
basel
baton
blun@@
bowen
brazzaville
bridgehead
bron@@
bush@@
cage
cand@@
card@@
carving
categorically
caus@@
chens
cin@@
clarifications
cm@@
colleg@@
colonialists
comers
constables
cooled
cooperations
country@@
cpu
cra
cremat@@
csc
das
dding
deepens
del
dent@@
detonated
dispensed
disruptions
dissidents
distortions
dov@@
dragons
dredging
duc@@
dull
emerges
entail
eri
ert
eshi@@
etr@@
evenly
excav@@
explanatory
ey@@
fascism
fencing
flour
fluctuate
footpath
forbids
foregone
fren@@
fried
fur
fus@@
fuyang
gardening
gat@@
generates
genocide
gentleman
gill
glac@@
gpa
graphy
gratis
guobao
handbag
hatched
hearses
homemade
honoring
impati@@
inconvenient
insignia
insti@@
isc@@
ius
iya
kaw@@
khartoum
kicking
killers
lafayette
lcs
leapt
legalization
libr@@
litig@@
lorries
luan
maiden
manchukuo
maryland
memento
meteorologists
methane
meting
minster
molding
mom@@
montevideo
mour@@
myriad
nered
ng@@
nobu@@
nonvoting
nordic
offbeat
omatic
onic
ord@@
panmun@@
paraly@@
password
passwords
pavements
peaks
peel
peg
pins
plaque
pprd
pragmatically
preface
prescriptions
probationary
ptions
publisher
pursuance
rahman
rato
receptions
refr@@
remit
reshuffling
retaliate
rh@@
rodriguez
rwandan
sabotages
sadness
sala@@
sas
scud
scum
seals
seawall
shijie
shoufang
singleton
sir@@
skel@@
slandering
solomon
splits
sprung
store@@
strictness
structurally
subsided
tailed
takeo
tale
tances
targetted
thal
theor@@
thre@@
tires
tm
toff
toxin
transplan@@
tribune
ufj
unfairly
unveil
ussi@@
vest
wudang
xichang
yokohama
yongxiang
yulin
zhaorong
zhongliang
°c
+20
+8
1.67
1.75
10.8
12-@@
1430
15.7
18.2
1943
220,000
374
44.@@
55th
56%
64%
7,6@@
73%
98%
accomplice
advertise
aer
ails
aka
amo
anning
anov
anti-terrorism
apprehen@@
aqueduct
art@@
ashley
asses
aston@@
attribute
aust@@
autopay
aveng@@
aye
bashing
berry
bility
bind
blanket
blessings
boldness
bombay
boosts
boun@@
brilliantly
bro
buddhists
caffeine
candles
cdma
celebrates
charming
choirs
chongming
cloning
coercion
coinci@@
contam@@
contradic@@
cst@@
cun
cw@@
cylinder
ddu
deem
defrauding
demeanor
denuclearization
deported
depths
descend@@
dimension
diplomatically
disbur@@
dise
disinfected
dissension
distressed
drier
drizz@@
dwell
e-mail
eel
ehc
eis@@
eks
embol@@
encroach
energ@@
entrant
envisage
erup@@
escaping
esh
expanse
experimentation
faculties
fallacious
fibre
fic
fier
fingerprint
gene@@
gi
godfather
graph
graphers
gras@@
graves
guanhua
guoqi
gust
gymn@@
haidian
haze
humane
humiliating
hyok
iang
impacting
incrementally
incub@@
ingen@@
injure
innov@@
instructing
issu@@
istically
itting
izations
jane
jinggangshan
joh@@
kap
kidney
larry
lesotho
level@@
levin
liaowang
liberalize
lichang
locomotive
lon
luo@@
mali@@
mama
manners
marriott
minous
mnd
motiv@@
myth
nab@@
naiqian
nearer
nel
nfb
nik@@
nourishment
numbering
nursultan
obstructs
ofang
oil@@
ometer
onia
oration
ouri
paddy
param@@
passively
payload
pecuniary
perplexed
persecu@@
pleasing
pmb
pn
polished
potent
predominantly
presumption
pretend
pretoria
progression
purify
quer@@
ramallah
ranch
ratepayers
redundancy
reed
referee
remnant
renovating
renqing
replenishing
respectable
reverted
riches
ridicul@@
roaring
ross
s.@@
sail@@
segreg@@
semiconductors
separates
shapes
shorts
sidedly
situ
sizable
slash
smar@@
speculations
sporadic
stephanopoulos
subsidize
superficially
surgeon
syllabus
symptom
taizhou
talbott
temptations
tenacity
tenghui
tick
tien@@
tish
tl
traitor
trilateral
triumphantly
ubws
valentine
vanguards
vat
vely
vered
vilified
villa@@
vips
visu@@
vouchers
wary
wavered
whales
whist@@
wuhu
yers
yingwen
yongqing
zhigong
zibin
~us
13.4
14.7
178
190,000
231
2717
273
32,000
34%
46%
570
889
abducting
absur@@
accelerates
acquitted
aeronautics
afresh
aj@@
alians
alpha@@
altar
amato
amenities
andy
anni@@
arrang@@
ashan
asted
astronomy
balloting
baseless
bathroom
behavi@@
benz
blan@@
blurred
bottled
brent
bribed
buoyant
caa
campuses
capsules
catastrophic
chargeable
chet
chs
clad
coc
codi@@
cognition
colouring
command@@
commissars
complemented
composer
concord
consol@@
convalescence
cosmetic
crews
cuisine
dda
denti@@
deser@@
dest
dev
devastated
dialectics
diments
dispersing
distinctions
dongcheng
dreadful
economize
ections
eff@@
elt
encroaching
enunci@@
envi@@
erable
evalu@@
fau
foil
four@@
gam@@
german@@
gobi
hail@@
hearty
hedonism
hierro
hoods
humid
husayn
ilya
ipcc
ispa
jubilant
kabila
kits
kwh
landings
legionnaires
liaised
lifesaving
lockerbie
loh
lue
madagascar
mater
melo@@
monk
mustered
nei@@
netanyahu
ngam
nighttime
nineties
nontariff
nz
ocean@@
oling
orig@@
overestim@@
owning
paperwork
parades
paternity
pav@@
paw@@
pepper
perme@@
pg
phoned
pinning
pli@@
postgraduates
practised
predicting
prescott
prolong
psycho@@
purpose@@
pw@@
pyro@@
raft
refinery
region@@
repatriate
resting
retreated
rightful
rotten
routeing
s1
santer
securitisation
sfaa
shade
shima
shippers
slam
slandered
smec
storeys
succum@@
superiorities
surfing
sutra
tarar
telem@@
togolese
tore
trad@@
treasuries
trif@@
trophies
unveiling
upload
uproo@@
vaccinations
vili
wardly
whe@@
whirl@@
whitewash
withholding
wrea@@
writings
yasu@@
yunfang
yvonne
zai@@
zen@@
zhiqiang
zoo
zuoji
1.15
10-@@
12.3
13.9
17.8
176
196
2.40
204
280,000
3,5@@
307
315
4000
41.@@
51%
58%
720
8-@@
abrupt
acle
aegean
alled
ambassadorial
anonymity
aq
archipelago
ark
artifacts
astronaut
aters
az
backbones
baorui
barre
barrister
beck@@
benchmarking
bhutan
boc
bred
bylaws
caitlin
caretaker
carl
cended
centennial
chad
chased
chiluba
cleanup
clement
coast@@
collap@@
colombo
commemor@@
comple@@
complexes
concep@@
conceptions
contrac@@
correlation
counsellor
cowboy
deadlocked
dentists
detente
deviations
diag@@
digits
dispensing
disregards
doctr@@
doms
dormitories
efa
eleg@@
eme@@
emia
enclo@@
endowment
epitom@@
epochal
etwb
event@@
exerts
fas@@
fathers
feder@@
ferreted
filter
finishes
firmed
franchises
fureng
furnished
fuyuan
gcc
generational
gie
goings
grandparents
guangyi
guojun
hailing
handball
happ@@
harboring
harmfulness
hawks
hegemonists
hillsides
him@@
himal@@
humble
humorous
idd
ility
imitate
impermissible
informationalization
intermitt@@
intru@@
isely
ital
itung
jason
jet@@
kt
lance
laure@@
lead@@
lengths
leon
leptospirosis
lessening
liter@@
logscouncil
lone
maturing
medicare
mess@@
micron
million@@
misdeeds
multi-level
museveni
nbc
noncommissioned
noticing
nour@@
np
nutrients
obao
obscure
onen
ood
orch@@
outdoors
outstandingly
ovens
panoramic
passers
pbc
pedag@@
persson
phon@@
pian
pleases
post-war
postcode
postponing
pp
pps
processors
rang
rationalise
ratt@@
reclaiming
rees
rehear@@
reid
rep
reprinted
reshuffled
righ@@
roy@@
sachs
sanc@@
sanctioned
saturated
saturn
savior
shipyard
shiquan
shugen
shunyao
signify
simpler
smartid
sonia
southward
sow
spear
spotlight
standardisation
standby
statehood
streamers
stronghold
surgeons
sushi
swindler
swordsman
tabling
tand@@
taxable
tee
theore@@
thoughtful
tianbiao
triangular
tst
uplift
upswing
vent@@
vice-chairman
vip
vitally
voc@@
waivers
wallace
wednesdays
weiz@@
wg
wicked
woon
worldly
wr@@
wrec@@
yishan
youjun
zhenyuan
zijian
+11
0.00@@
11.2%
12.6
15.3
1938
2.45
266
5999
9.0%
97@@
academ@@
admit@@
agang
agni
albopictus
alfred
ambushing
annihil@@
antiviral
anyuan
applicability
ariness
ate@@
atical
atrium
attorneys
ature
autocratic
awaken
bac@@
barometer
batt@@
battling
beats
begged
boiling
boot
brigadier
brunt
bureaucrat
burg@@
cau@@
chavalit
chernobyl
chessboard
chocolate
circul@@
clas@@
collec@@
colum@@
commons
compensatory
consen@@
contem@@
corrective
cranes
creators
dandong
db
decel@@
desks
detectors
disgu@@
disgusted
dishonest
docking
doorstep
dra
eagerness
earns
eaten
ecting
embryonic
emphas@@
enings
eros
es'
fabric@@
feren@@
finalize
fingerprints
firewall
flatly
flyovers
fossil
functionality
georg@@
ges@@
glories
godown
grandmother
griff@@
guangzhong
hafi
hazy
heath
heavens
heinz
hiromu
hplb
huaiqing
humili@@
hypocrisy
ici@@
ician
igh
incar@@
incisively
indi@@
infatuates
informative
inkling
internationalize
invests
iters
jee
jiangmen
jianping
jiaotong
joss
jubilation
juli@@
kag@@
karl
kra@@
lame
lement
leyi
lincoln
linda
lingu@@
luence
lynch
matsu@@
medications
mercilessly
mic
migr@@
mir
mont
mort@@
muhammad
mustafa
nati@@
nga
nightmare
northward
obedience
obs@@
obstinate
okinawan
oni
onov
ontario
oppositions
ossified
overlord
pand@@
pans
patron
perseveringly
perv@@
philatelists
pink
pirate
priv@@
prote@@
q1
quadrupling
quagmire
ramming
rationalization
receptive
recounts
redefine
reinforces
remembering
removes
repertoire
residue
respon@@
rev
richar@@
scclr
schu@@
scopes
sd@@
seam@@
self@@
senegal
serap
servi@@
settlers
sexually
sey@@
shaoguan
shaw
shoals
shoeshine
shuang
shuidong
shutian
sighed
simin
sinicization
sitc
spatial
spells
spirited
sps
stallholders
startling
ste
stered
stru@@
subjecting
subsidise
symbolize
tailing
tao@@
tennessee
this@@
tik
tist
tized
traff@@
trid@@
tril@@
unciation
unsubstantiated
uproot
uring
validly
vet
videotape
vientiane
vocal
volkswagen
vor
wag@@
weighty
whit@@
wiel@@
yeuk
ylene
yoko@@
zhengtai
(4)
.cn
0800
1-2
1.35
11.4
12.1
13.6
13.6%
14.3
15.2
15.8
17.5
2.25
425
435
640
abe@@
aces
additions
adolescent
amity
ance@@
andersen
anthro@@
antitank
aoka
apag@@
artery
aspirin
assert
asserting
attachments
augmenting
authorizing
awi
batlle
bble
bedspace
birth@@
bitterness
biz@@
bremer
brochure
bureaucrats
bys
cadet
canned
canv@@
chau@@
cheerful
coalmine
collector
comings
commissioners
concub@@
conferring
conglomerate
conserv@@
cores
crime@@
cushion
daewoo
dayang
destroys
dip
dipped
dirt
disgusting
dismissals
dogmatic
ecevit
ect
eddie
ensla@@
entitlements
equipping
erson
esses
ethic
ety
evergreen
excludes
exhaustion
exuberant
facilitator
facsimile
fallujah
fascists
feat
fei@@
figured
firearm
flashlight
fora
fowls
gain@@
generously
gillies
gir@@
graham
guangxun
guatemala
gyanendra
hankuang
happier
harbourfront
hari
hedge
hkeaa
home@@
hoon
hottest
how@@
iac
idf
impediment
inflict
inscriptions
insects
inspir@@
instein
interceptors
invent@@
ishu
itan
itary
ivoire
jiarui
jinai
joints
jokingly
joy@@
joyfully
kcna
kinshasa
kol@@
lavish
lawn
legalize
lighthouse
locks
luckily
magnates
manifesting
marke@@
matory
mawei
mcnamara
measurements
melting
meningo@@
merrill
mers
meteor@@
misconceptions
mmer
molecular
moslems
mourn
mouthpiece
nablus
nal
natal
needless
nikol@@
nonprofit
notions
obligated
observes
onerous
ounds
overheated
pacts
patch
permeate
pf
pie@@
pier@@
plets
poc@@
poin@@
preaches
preservatives
pretended
prevent@@
priests
puncog
purple
qai@@
qiz@@
quasi-@@
rai@@
rao
ras
raul
rebuff@@
refurbished
registr@@
responsibly
reti@@
retrogres@@
ril@@
roaming
rousing
s4
saleh
saucers
scu@@
sealock
severing
shielding
shintaro
shung
skin@@
smoother
sna@@
spate
ssb
stabil@@
stabli@@
statistic
studios
summers
swallowed
takeovers
tc@@
terrifying
therap@@
thinkers
thunderous
timeliness
tipped
tland
tmh
towing
triennium
undergraduates
upside
vertically
violently
vor@@
wai@@
wel
withdrawals
wreckage
yangzhou
yinxing
yon@@
yoshio
zhixin
zstan
zur@@
.com
11.1%
14.5%
193
2016
203
217
226
256
26.7
272
2828
283
365
4,5@@
438
660
93@@
abandons
abnorm@@
abovementioned
aches
aco@@
aesthetics
airliner
ais@@
alain
anch@@
angered
anian
announcer
anti-us
approximate
argu@@
asiasat
atoes
atri@@
azi
bait
banker
banknote
behaved
belly
bench
bm
boycotted
bund@@
canvass
caracas
carnivals
changan
changzhou
cheerfully
childbirth
clue
comprehension
concede
confisc@@
conniving
conscientiousness
conveyancing
corroboration
counteract
cows
csl
cubic@@
cun@@
curse
dang@@
dats
defenders
degradation
depict
deple@@
depreci@@
deserving
detec@@
detreated
dialects
disp@@
displacement
doc
dosage
drunk
east@@
ees
ejec@@
eldest
emen
engulfed
enh@@
enlightening
episodes
eps
esp@@
ethanol
fanfare
ferrous
fiction
finest
forgive
foun@@
franc@@
frat@@
ft@@
gem@@
generators
geping
ghan
governs
greg@@
haiphong
handy
hanqiong
hend@@
hewitt
hints
hitherto
hkfa
hosptial
hsuan
iant
ignition
impel
indic@@
indictable
indignantly
indulg@@
industrializing
inexperienced
infiltrating
innate
inserted
institutionalize
inters
isa@@
iti
itly
izhou
jamaica
junlong
kampala
kett
kou@@
krtc
kucan
leekpai
ligible
longtime
lopsided
malfeasance
manchuria
manuel
maoist
marches
masterpiece
maung
megab@@
millen@@
milli@@
misappropriated
mistress
mobil
modernisation
nationalization
negatively
nial
nujoma
obe@@
oes
optimise
osi
outing
outlaw
overweight
owes
partition
penetrated
peti@@
petitioners
phenomenal
photographer
piloting
propag@@
proportionate
pusan
qeh
quantum
rechargeable
recite
reconstructed
recovers
recurring
reincarnation
rejo@@
relapse
relic
reluctantly
reprint
repudiated
retrievable
revolver
ricardo
rig@@
rightly
rin@@
roughshod
scorching
scratch
seaside
seness
shelling
showcases
shwe
sibutramine
sies
sightings
simitis
simulate
simulations
slashed
snakeheads
sne@@
spectacle
squeezed
stably
stakes
standardised
stf
stin@@
straddling
sues
suiting
surround
swimmer
synthes@@
takeshi
tampered
tastes
teaches
tearing
teh
tenable
tenaciously
termini
tibility
tine@@
tire
tirelessly
torily
tractor
transcending
tte
turb@@
turn@@
uncompromising
underlines
unsinkable
validated
vapour
vases
video@@
vitalizing
vomit
wer@@
westernizing
what@@
worth@@
wrecked
wrest@@
xx
+24
.02
10.1%
10.9%
11.3%
11.5%
12.9
1230
1244
1330
16.2
16.8
1815
194
1941
20.5
22,000
2230
48%
5,0@@
737
770
950
98@@
abetted
abstentions
abusive
actu@@
aggres@@
ags
aleskerov
alienation
allay
alleg@@
allen
aly@@
amalgamation
anami
anced
annex@@
anwar
anyi
aoi
archer
archy
arism
armoured
askar
assertions
asymmetrical
atro@@
atter
autos
azolam
backers
barbecue
barter
behavioural
bert
blending
blinded
bse
cairn
caseload
caucasus
cb
cedd
chec@@
chel@@
choral
chur@@
civil@@
cognitive
coiao
cologne
combatting
commendations
communal
concentrates
condensed
congen@@
coordinators
cos@@
countrys
crabs
crimeinf
cul
decommissioning
detached
directories
discredited
dissemin@@
dity
diversifying
dob@@
dreamed
dtt
duke
eduardo
elabor@@
elaine
emul@@
enquires
enticed
eti@@
exacerbate
exhorted
exi
extravagant
facets
familiar@@
farmlands
fem@@
ferre@@
fli@@
flock
flotilla
fluent
foggy
forbes
forec@@
foresee
forfe@@
fushun
gaocheng
generalized
generator
ghanaian
gop@@
grante@@
guangxiang
gyna@@
hampshire
handshake
heping
hid@@
hiranuma
hiro
horticulture
huiguo
huogui
hydro
icals
icking
impres@@
inal
inciner@@
infuriated
inhabitant
innovated
intentioned
interrogated
intertwined
inundated
inviolable
irc
irresponsibly
isha
jay@@
jiaz@@
jimzhong
jorge
kari
kas
kirghiz@@
lad@@
leaks
lithography
ll
lng
logy
loong
mail@@
malfunction
maoming
mario
marse@@
menu
mingshan
mint
mish@@
misses
mitterrand
mobilising
moderation
multifunctional
mumbai
narrow@@
narrowly
neil
newer
nonpublic
noodle
obasanjo
obsessive
oking
orchids
pan-@@
para
paralysis
passer
peacekeepers
pie
plaintiffs
pland
portrayed
prairie
preclu@@
probed
puning
qinzhou
quali@@
quil@@
ravaged
raw@@
rebounding
receivable
reinforcements
relaying
rescinded
rip@@
ritual
rub@@
rus@@
self-development
selflessly
sem
seri@@
sett@@
sev@@
shadows
shields
shipman
shower
sie
smo
sofa
speculate
spring@@
squeezing
stam@@
stray
stric@@
stun@@
subjec@@
tain@@
tcm
thu@@
tiered
tiously
tments
tokpakbayev
tomiichi
toshiba
towels
tung@@
tunn@@
unipolarity
unrelenting
woodlands
wwis
yah
yan'an
yasuhiro
yinhe
yuexin
zhixiang
{
+23
0.25
1030
12.2%
13.1
15.9
17.6
1745
209
233
2414
325
680
75,000
79@@
97%
ablaze
absen@@
accountancy
acha
adc
afforded
alexand@@
alo
ambu@@
americ@@
anchor@@
anned
anti-human
anti-japanese
anyhow
arc@@
arianism
arium
arsen@@
ases
asleep
assertion
asting
atms
auc@@
barrack
bb
beacon
beautifully
bes@@
betr@@
bia
blaming
bolivian
bowring
bracket
brian
buir
c4@@
calli@@
camping
candy
carcass
carcin@@
cdic
cemented
ch'ing
chalabi
chev@@
chicks
chord
cio
circ
clar@@
collate
compan@@
compassion
conceded
conductive
configuration
cool@@
coronary
cost@@
counterfe@@
couri@@
cpp@@
criticised
das@@
dash
ddled
deflating
degener@@
dejiang
demonstr@@
depositing
diana
disgraceful
divorcing
drowning
dvds
emitting
empirical
enced
encircle
enforceable
entious
envisi@@
epidemiology
erate
erhu
eruption
estuary
expeditious
expelling
extrater@@
exual
fangchenggang
fanta@@
fasc@@
fashionable
filial
fin
fluorescent
flur@@
foc@@
forefathers
foreigner
forestation
foshan
fpts
frau@@
fs@@
fueled
fuji
fujimori
gaoli
ghosts
govern@@
greens
gtf
gymnasts
haisheng
harmonize
haun@@
health@@
heavyweight
hec@@
hillfires
hinterlands
hip
hkec
hongjun
hopeless
hospitalised
hsinchu
hualien
impulse
inevitability
inexorable
informants
ingrati@@
injections
insure
interventions
irrelevant
isers
isolating
kicks
kites
kuiyuan
life@@
liping
literacy
liuyifeng
looming
mammoth
maternity
memb@@
messrs
michel@@
mileage
misused
mod@@
mouths
myster@@
nap@@
ngai
nicaraguan
nissan
notifying
nou@@
novels
oka
one@@
orial
orn
outnumbered
overtly
ovirus
pach@@
pad@@
parag@@
parity
parl@@
pedestrianised
pengh@@
phd
plentiful
plover
plutonium
postcards
posterity
prequalification
proverb
prowess
pub@@
publicised
qatari
raged
rankings
recogniz@@
refl@@
repri@@
repro@@
resigns
responsi@@
retailer
revolve
rian
rick
ringleaders
robertson
rooting
ros@@
roth
rov
rus
ryo@@
scaffolds
self-confidence
self-disciplined
serv@@
seve@@
shadowing
sharp@@
shevardn@@
shig@@
shutting
silva
slaughterhouses
soc
socks
spamming
spanning
speculators
spill
splend@@
spurs
steadfastness
steven
stretches
subverting
suharto
susan
tailored
taka
tanjug
tec@@
tex@@
them@@
thers
tory
transiting
trauma
tribal
trinidad
truths
twenties
underpin
undis@@
unfairness
vegas
ven
vesting
vibrancy
videotapes
watering
waterworks
weighting
wenbin
wondering
xingjian
y.
yaumat@@
youthful
zhkov
ziren
+22
-3
.2003
1.0@@
10.2%
12,@@
12.1%
15.1
1545
1715
1915
1933
198
210,000
248
2600
2666
313
4,3@@
440
63%
7,7@@
740
85,000
aa@@
accumul@@
acks
actuality
adulter@@
adur
advent@@
albu@@
ambigu@@
anissa
anti-government
antique
apol@@
appalling
assified
atic@@
atrics
bayi
benxi
bethlehem
biosecurity
bored
boring
boyfriend
butler
carse
caspian
cereals
certifications
chand@@
chaoshan
chless
citation
citigroup
clarifies
cleaners
clim@@
cloned
coded
columbaria
competencies
computed
conduc@@
confine
construed
conte@@
cornerstones
crab
crippling
curve
dampen
decentralization
delicious
demer@@
deno@@
dering
devalue
devo@@
dial@@
dialling
dickson
discriminated
dit@@
dizziness
doll@@
dorf
downed
dredged
droppings
dynamite
eaa
ective
eddy
eigh@@
elects
embezzle
emiss@@
emulation
ense
entr@@
etv
exhibiting
famed
ferrero
finalise
financi@@
flawed
framing
funcinpec
gale
gamble
geoparks
gestures
gia
grandchildren
grapher
gren
habibi
haha
hefty
helm
histor@@
homework
hoso@@
hsc
huazhong
hulun
icians
icy
iently
igg@@
illustrious
incorruptible
inferiority
insecure
instilled
integer
interdepartmental
interstate
interventi@@
intruding
itted
ix
karachi
knees
knots
lashed
laura
lawmaker
leaped
lessened
lipp@@
lrc
magistracies
malnutrition
mascot
menem
merchandis@@
michigan
microbiology
miyaz@@
moist
mortar
mushroom
muster
nancy
neo@@
nguesso
nier
nkorea
nonstop
ofthe
oilfields
omin@@
oren
outfit
overs
oxide
parcels
part@@
peac@@
peril
peroxide
pii
post-cold
praya
pretending
probes
processor
purposeful
qingnian
qizhong
radiating
reactionaries
refilling
refinancing
refreshment
refunded
rem@@
remembers
renfang
resounding
respite
resur@@
rimin@@
rit
roo@@
ruthlessly
sadc
saic
salon
salons
sanctuary
sasser
scho@@
sens@@
sensed
sentin@@
sharpening
shutdown
sina
sist@@
slabs
slap
sleeve
smelting
sociology
soeharto
sprint
stagnated
sterilisation
stockpiles
subcontractors
subversive
susp@@
switch@@
synerg@@
taya
thicker
thor@@
toil
trams
ttle
turner
tus
unc@@
undersea
uninterrupted
unjustified
unleaded
vital@@
voronin
vul@@
warren
watergate
wed@@
ween
wick
withhold
wreaths
yemeni
yunkun
yusheng
zedillo
zhiqin
zim@@
~un
$1
1130
12.2
14.9
17.7
1942
2050
229
2d
3,700
309
39%
4g
6.
9.0
aar@@
abominable
accent
admirable
advoc@@
agnes
aig
amassed
amenity
annualised
aral
archery
arization
aro@@
asi
atta@@
augmented
ault
bah@@
bane
bap@@
battlefront
beau@@
beautified
berlusconi
besiege
blasphem@@
blindness
body@@
bodyguards
boe
breakout
browsing
bucks
bullet@@
burgeoning
burglaries
burke
calmness
campers
candidature
carpets
cci
cdc
centred
ch'ang
chak
chemist
chenko
chinad@@
clashed
cleanse
clinched
clings
clou@@
cmu
commandments
completeness
comprehensible
conservatism
contradicts
contro@@
corru@@
creator
cups
curator
curbs
dab@@
dal
decontamination
delineation
deterred
deton@@
differentiated
dj@@
dl@@
doldrums
dregs
duplic@@
eability
ecuador@@
edmonton
edu@@
efac
elastic
elbaradei
elec@@
electri@@
ello
embarr@@
emir
enkh@@
enri@@
entangled
ente
entertained
enzhao
evil@@
expansionary
eyes@@
faded
fain@@
famili@@
fav@@
feast
feeble
fengyun
festivities
fibres
filtering
flaun@@
flushed
fms
forgiveness
fowl
fp@@
frameworks
francois
frenziedly
funny
fwcw
gaming
geostationary
gles
greatness
gren@@
grin@@
gurirab
halfway
hariri
hastened
hindr@@
hkgcc
hollow
hotspot
huasun
humor
hunghom
hwan
hypertension
ially
identifies
ido
ige
ika
illustration
incremental
infin@@
inspires
insulation
int'l
interconnected
intimidate
itable
jianzhong
jihua
jospin
kawa
keyboard
kick@@
kumaratunga
lakers
lated
leftover
levers
lima
lowers
loyally
ltv
lufthansa
lum
mand@@
manded
maputo
marvelous
modal
mosr
mrcc
murderer
mutton
naive
nav@@
ncsc
nia
nidal
noda
non-tariff
norbu
nuclei
nutritional
obtains
oke
organism
oscar
oth@@
paging
pam@@
pang@@
parkinson
patronise
pdpo
penumbral
perished
pki
plundering
postures
pronounce
purse
q2
qf
quad@@
rafi@@
rail@@
ramadan
raping
reaffirming
recorder
recycle
refurbishment
rehabilitative
reinstatement
rejoin
reline
relinquish
reluctance
repayments
repellent
retailing
retains
rites
roared
rod
rom@@
sati@@
savage
scant
scourge
sdpc
second@@
sf@@
shab@@
shad@@
shak@@
shuo@@
simpl@@
sj
skins
sleeves
slipping
slobodan
slocombe
softened
softening
specializes
stamped
steel@@
steered
stream@@
string@@
stuffed
stunning
submits
sufferers
summonsed
sunset
suppose
surf
systematized
tae@@
tainan
taishan
taped
technologists
tedness
tex
thunderbolt
tianhe
ticul@@
tily
tine
tito
tok@@
topographical
toppled
tortured
tp
tranche
tributaries
truc@@
tup
tzu
uefa
ultras@@
unbiased
unconsciously
unga
universiade
usen
utilizes
uy@@
vedly
viewer
visibly
vist
volu@@
wall@@
warlords
widest
workmanship
wwp
xiangdong
xiaoguang
xiaohong
xiuhong
yiming
zhiliang
zhiting
zhongli
10.8%
100th
11.1
11.6
11.6%
15.4
1935
1936
2130
219
2231
278
2785
30,@@
3200
36,000
41%
5220
6,5@@
6.15
610
7.45
8,500
abdel
abdel@@
abul@@
acceded
acronym
adaptive
adept
adul@@
afric@@
afterlife
alarmed
aleksander
alkal@@
altitudes
amble
ancestor
ancestry
ando
annihilation
anomal@@
antigovernment
antonius
applaud
appropriating
arteries
assesses
aster
authorise
awardees
bahamas
banana
bashir
bat
bedro@@
beid@@
beilun
bes
bie
bill@@
blackmailing
blin@@
boiled
booster
bounced
calmed
candi@@
canteen
certify
changers
charette
charg@@
charisma
china’s
chiou
chuanyun
chy
cincinnati
clean@@
commune
complimentary
compu@@
concurrence
conduit
constan@@
conv@@
convenes
crda
cris@@
cuo
davi@@
dd
deduc@@
delve
dependant
df@@
diluted
disc@@
dist@@
dless
doje
dossi@@
downwards
dres@@
dummy
dung
eg
egu@@
elevator
eley
encompass
encompasses
ende
endorsements
engagements
engineered
epa
epitome
essing
estrangement
eways
examiner
expansive
extendable
extort
extravaganza
eyewitnesses
ezer
fahd
fairer
fernandez
feudal@@
fiable
filmed
flammable
floated
fom@@
forsake
franco
frantically
frequented
fuhuan
fukuda
generalization
ghraib
gil
gmp
goodness
gourmet
grieved
guaran@@
guer@@
guinness
gwan
habitual
hankow
harmonized
hassanal
heap
hinders
hitachi
homepages
hospitable
hous@@
housekeeping
hughes
hydr@@
ifc
ike
ime@@
individuality
iner@@
inferences
istani
iter@@
jeeps
jiay@@
kch
khin
knesset
later@@
legalized
lida
lik
linger
liqu@@
liuzhou
lizhen
ljubljana
loosened
loosening
lung@@
luster
luyu
macs
manoeu@@
maohai
massac@@
md@@
membrane
merg@@
messaging
metal@@
metro@@
mian
mickey
minimizing
mitsui
mk
mob
mofa
mohamad
mullah
multi-national
nanyang
neal
neat
need@@
needle
niche
nir@@
nomin@@
obstetrics
ogcio
ogue
olymp@@
omin
opa
optics
otherapy
oughed
outwardly
overhaul@@
paci@@
parting
pedder
pension@@
peso
pesos
philately
phu@@
pickpocketing
politely
portray
portrayal
pressuri@@
pretense
prevails
priest
privati@@
prosecutorial
pvrms
qdii
quarantined
queues
quo@@
ratu
rearing
reb@@
reciproc@@
reconnoit@@
recyclable
refuelling
refunds
regen@@
rehabilitate
reimbur@@
removals
renched
retreating
ruff@@
sangu@@
sant@@
sayings
scharping
scholarly
shaft
sigh@@
spaceships
sparking
sparks
stationery
stimulant
stment
stratag@@
subjectivism
substitutes
suit@@
sunken
surpasses
sweating
symbolized
sz@@
tava
tea@@
testament
tianshan
tibet@@
ticf
tighter
tooth
tournaments
tow
transporters
transports
trim@@
tse@@
ttage
tycoons
ull
unchangeable
underage
uniformly
unstoppable
unveils
uplifting
ury
vacill@@
vanish
watchful
weal@@
weixing
whi@@
whipped
woes
wol@@
wrongs
ww
xinliang
yingjiu
yog@@
yuebin
(())
10.0%
13.5%
14.4
17.9
1919
1927
230,000
263
279
2804
293
298
300@@
33.@@
37,000
4208
5-@@
5711
6,7@@
69%
72%
90s
99%
accrue
acious
activist
acyf
adaptable
administrating
affore@@
agawa
akihito
alvarez
apers
apf
apron
archae@@
astana
attend@@
aung
australasia
bagaband@@
bays
bby
begin@@
bells
beng@@
bissau
blames
blessed
blueprints
bluetooth
bnp
boots
boyco@@
brimming
brzezinski
cae
cartel
casino
chis@@
ciguat@@
clintonism
coaster
colossal
commends
communiqués
computation
concourses
connec@@
contended
culmin@@
curfew
curiosity
daoyu
dece@@
decontrolled
defied
depend@@
destabil@@
diallo
diminishing
diplomas
disappoint
disclosable
dissu@@
distances
door@@
dra@@
drifted
drowned
duplicated
ebay
ecologically
econom@@
eels
efil
efn
elaboration
entertain@@
ephe@@
erase
ero
exemp@@
exhu@@
exotic
expatriates
extremes
eyadema
fb@@
feats
firefighting
fluttered
frei
fy@@
gai@@
gangster
ganliu
gard
garner
gaz@@
geriatric
ginwala
grandson
harm@@
hayami
heal@@
herbert
historians
homebuyers
hooligans
horizontally
huaihe
ibu@@
imitation
increment
indem@@
infinite
ingu@@
inspectorate
intel@@
interdic@@
invoke
ire
ishly
itiner@@
jieyang
jincheng
jinguo
jinjiang
jisi
jon
joys
judic@@
karad@@
kirghizia
koreshige
kovski
kovsky
kuangfu
lac
lag@@
lantao
layered
lenders
leveled
lick
literally
lithuanian
loansharking
logos
loophole
lowing
lunch@@
luxur@@
lyrics
maclehose
mag
magn@@
manipul@@
marketed
marxists
mathem@@
mercosur
mesic
mice
misjudgment
mn
monogamy
motorised
multiplic@@
multiplied
neg
nian
nicol@@
nonparty
np@@
nullahs
nur@@
ocr@@
ogu@@
olls
onsite
open@@
orso
otic
outrag@@
oxin
ozhong
patentee
pathetic
peremptory
perpetr@@
photocopies
piloted
plaintiff
polarized
pounding
practic@@
praying
preview
projec@@
promoters
pumped
purpor@@
pus
rabin
rave
rc@@
recoverable
regression
reinstate
requisiti@@
rf
rho@@
rio@@
riyadh
rollout
romano
sampaio
sant
satisfies
sectarian
semester
sepa
shah
shc
sheds
shrinkage
shrubs
shuttleworth
siphand@@
smen
solv@@
sou
soundness
spontaneous
stac@@
stadt
stains
stakeholder
stormwater
stowaways
substituted
subways
suffoc@@
sunrise
surname
synchronized
tarnished
teamed
tg@@
thec@@
themed
then@@
thood
tious
tlessly
tokayev
transi@@
treasurer
tsin
tuk
twelfth
twinkling
tyrant
tze
ud
uncorrupted
uniquely
unloaded
unocal
unquestionably
ute
vehement
viagra
walk@@
walt
wears
where@@
woke
wrist
xiaochuan
xiaolin
ycl@@
yevgen@@
yuening
zhaozhong
zhongxing
+25
0600
1.45
11.0%
11.7%
12.7%
14.1%
16.1
18.5
187@@
2013
21.2
289
3,300
3106
33,000
3403
5,300
5,9@@
5.15
54%
79%
abduc@@
abl@@
accrual
achievable
acquaintance
additives
aemia
aggrav@@
alito
aloof
anders
andi@@
anticipating
antiship
antong
appor@@
armymen
assimilating
asthma
atol@@
authorit@@
avail@@
avo
awesome
bankru@@
barcelona
bbed
beachhead
begging
bioengineering
bites
blatter
bled
bogota
boilers
bps
bride
broadcasted
buddy
buffet
burdened
canc@@
carb@@
cassette
ceded
cements
centrifu@@
cham
checkup
chunzheng
coaching
coconut
coherence
columb@@
con
conductors
contagious
contributors
counselors
crippled
daunting
deafness
decay
decontrol
defaulted
deleting
deline@@
demobilization
despo@@
dialectic
differentiating
diminish
disciple
discriminating
discriminative
dit
domicile
dongming
dreaming
egoism
emaker
embell@@
emigrate
emphases
encircling
ende@@
enic
enligh@@
eper
eroded
erping
etary
exclu@@
exorbitant
expansion@@
experimented
explic@@
extol@@
extrication
fabulous
faulty
fgf
firming
foo@@
foothills
forbidding
foregoing
fortresses
franchisee
frustration
furnishing
gathers
gau@@
geries
gloomy
goran
greedy
gregory
grou@@
hain@@
hamad
harassed
hardliners
heav@@
hkpsg
homosexu@@
horrifying
hosp@@
huali
iction
ilk
illas
immer@@
inadvertently
indulgence
iowa
ishable
ision
isr
iyev
izu@@
joe
journ@@
jugg@@
kansas
kerb
koehler
koh
labs
landscaped
lation
laughable
legislations
lianhe
liberalism
listings
liv@@
loneliness
lonely
lprp
magnet
mahjong
mammals
manu@@
manually
manuscripts
mbps
melan@@
mistrust
mun@@
nara
nationalistic
nephew
nerves
nh
nness
nung
nurseries
nuts
ocation
oceangoing
official@@
oro@@
orth@@
ove@@
oversimplified
oysters
pack@@
parach@@
paralyze
parame@@
parenting
pda
pegged
percussion
perpetrated
persuasive
pessimism
photographed
pinpoint
pls
plummeting
polyu
pont
pos
primaries
princi@@
prolif@@
ps3
purported
qinshan
rabat
reconciled
redistribution
ree
reese
reincarnated
rently
resourcefulness
restroom
rft
rhq
rif@@
ril
roar
roof@@
round@@
rupiah
sailings
saloon
savat
sbm
scams
scripture
sculp@@
sdu
sedition
seeded
self-propelled
self-rule
sgs
shiba
shihezi
shimon
shines
shot@@
siazon
sirikit
sits
smooth@@
soft@@
soloist
specifics
sta@@
stalling
statues
stereo@@
stockpiling
stormed
stov
stove
suleyman
supervis@@
suppres@@
tales
tbs
telescopes
terrific
teu
teur
tham
thane
thur@@
tigh@@
tobago
toppling
touting
transfer@@
tremor
troublesome
troupes
trumpe@@
tunis
turk@@
typ@@
ugh@@
ules
uncomfortable
underscored
unfailing
unmistak@@
unscr
unused
unworthy
uploading
uting
vault
veget@@
vegetated
veter@@
vinci
vivendi
voa
wanpeng
wee
wenjun
wharves
whis@@
wich
wield
wil
wim@@
wolf@@
xiaoli
xuesen
yn@@
yongwei
yunyao
zen
zhuan
és
+21
..@@
0500
1,00@@
1,900
10.6%
11.9%
15.8%
19,000
2.50
20.8
22.5
25.5
2509
259
261
294
308
42,000
46.@@
486
49%
670
731
7500
787
83%
9.15
960
99.@@
abac
achi
aci
acknowledgment
addict
advisable
ahtisaari
ajima
allo@@
alos
alternation
anana
anas
andering
anes@@
anti-air
antibiotic
anticipates
anton@@
apologizing
applau@@
appointee
apportionments
archdiocese
artilleries
aru
asbestos
assailants
asse
authentic@@
avoids
bac
balconies
banharn
bed@@
bertelsmann
billing
blazed
bmw
bocog
bongo
bosch
bowed
boxers
brace
bui
bylaw
byp@@
caf@@
calibr@@
carrot
catered
centric
ceramic
cering
challeng@@
chiro
chronically
chunling
cid
clubhouse
cohabitation
coincided
combatant
commit@@
complexities
composers
condi@@
conspired
consuls
consultancies
converged
costume
crem@@
crematoria
cts
d'affaires
datong
daun@@
ddy
deduct
defected
destin@@
deto
develop@@
differed
dio@@
discern
discomfort
documented
domino
echoes
edical
eing
elapsed
elephants
enrolling
entrepot
enunciated
essays
essie
eum
evangelical
excavated
exploits
extracting
fashi@@
fax@@
faxed
fdh
felons
fielded
finalists
fis@@
flan@@
flop
flora
fortuyn
frantic
gaulle
gis
globalised
gol
gon
gorge
granddaughter
grimsson
gunshots
guoliang
hack
handicrafts
healing
heptulla
hhot
hillary
hist@@
hkiff
huad@@
hugo
huxiang
iap
icity
ideally
ign
illiterate
illumination
impeding
incomparable
indist@@
inhibit
initiator
instilling
intellectually
ipermit
ironic
ishi@@
itally
jac@@
jackets
jar@@
javier
jaywalking
jeep
jiashu
jisheng
junping
kandahar
kindly
kom
kyo
larijani
lators
laun@@
legitimately
lier
liking
liness
lip@@
localized
logically
magni@@
mailbox
malad@@
mandel@@
maneuver@@
manipulate
marginalized
martha
masse
masterpieces
maxicabs
mcclellan
mcgrady
mcla@@
mea@@
metry
milwaukee
minesweepers
mingled
mishaps
misjudge
mith@@
monia
muddle
muscles
musician
necklace
neu@@
neuro@@
nino
normandy
obsession
och@@
okin@@
omao
ono
opathy
orientations
orn@@
ort
p2p
parliamentarian
parlors
parti@@
pastrana
people@@
pertin@@
petrochemicals
pianist
pistols
pleasantly
potter@@
prece@@
prejudic@@
projecting
pullout
quarrying
quebec
quick@@
quires
rahmonov
redeveloped
refre@@
regaining
renov@@
repar@@
replen@@
resentful
resolves
resurfacing
revers@@
ridg@@
riga
risked
risking
rotary
ryan
sagacity
sakutaro
saleable
sarin
saturation
scan
scape
scheduling
scroll
scrutinize
sealing
sements
seung
shakespeare
shaohua
share@@
slippers
slow@@
slows
sneaking
sochi
sory
specimen
spectac@@
speculating
squat@@
sr.
stanford
starvation
stif@@
stina
subic
substitution
surinam
surmounting
survi@@
susilo
suzuki
swearing
tadzhikistan
taikoo
tanger@@
tasted
timetables
tix
togethers
tolling
toughest
tragically
trustworthiness
tumbled
tus@@
ua
unaffected
undes@@
une
uneasiness
unilateralist
urumchi
uted
venus
veri@@
vings
vr@@
vu
ward@@
weeding
wilderness
wun
xiaoyan
xinmin
yalta
yangpu
yermoshin
ynds
yongshi
zejun
zha
zhongyuan
ziyu
1.5@@
11.9
13.3%
14.2
15-@@
16.4
16.9
18.6
20.6
2417
29,000
3,100
302
304
47%
48.@@
52%
65,000
830
84%
870
====@@
abdom@@
abortion
abundantly
adami
adaptations
adeer
aggressor
alberto
alcatel
alig@@
alighted
alterations
amass
ambulanc@@
amiable
anatol@@
anism
ano@@
antagon@@
appren@@
appropri@@
aqua
arrogantly
arrows
ascertaining
asser@@
assimilation
ativeness
atta
audible
aus@@
austr@@
authoritarian
barry
baseline
bastion
bazhong
behaving
biometric
bombar@@
bowling
braille
brass
briefcase
budding
bundes@@
cabins
campaig@@
campbell
capo
cend@@
censured
centrifuges
change@@
changhong
charting
chinatown
ching@@
chlorine
chrysanthemum
chsc
circulate
clarke
cleansed
clever@@
coffers
colonies
commuters
confucian
connive
consented
conspiracies
constitutions
convinc@@
coo@@
crowding
cshrs
customhouse
czechoslovakia
dav@@
deferr@@
dei@@
deities
demolish
demon@@
depres@@
deprival
detail@@
detective
detonation
deviating
dezhu
disbanded
discouraged
dissenting
dist
drawdowns
dum@@
edg@@
eding
edu
eiao
eli
ellip@@
embar@@
enumer@@
envelopes
erd
escorting
ethnicity
exacerbated
expended
exten@@
fatality
fauna
fear@@
fend
fer
fibers
finalizing
flam@@
floodwater
floppy
flour@@
flowering
formulates
fortifications
fortnight
fou@@
franz
fujin
gabonese
germs
giuli@@
gongs
gorbachev
greed
guanglie
guanxi
guchang
guessed
guido
guyana
habi
habitually
hanbin
haosu
harl@@
heliport
hitch
honduras
hospitalization
hq
hural
hus@@
hyong
ifp
illustrating
immeasurable
impetuosity
impromptu
impul@@
infir@@
inflexible
inherits
innocence
isaf
isolationism
itarian
jiak@@
jol@@
kay
kinship
knitted
knocking
kye
lenin@@
leprosy
lieberman
lijiang
liters
lloyd
lobbies
lom@@
longevity
longping
lop@@
luc@@
luke
lur@@
mach
mala@@
malawi
maran
materially
maz@@
meditation
mem@@
metaphys@@
miraculous
mississippi
mping
mys@@
nationalists
notifiable
oba
objectivity
obligatory
obvi@@
optimistically
optometr@@
ored
oshc
oshi
ouring
oven
overwhelmingly
ox
ozhuo
pagbalha
panorama
particul@@
payee
paythrupost
peanut
pens
perpetual
phillips
pirates
plagi@@
pled
pneumoconiosis
porcelain
posi@@
ppa
pref@@
prefabricated
presump@@
promo@@
propulsion
psychi@@
pubic
qiang@@
qim@@
rag@@
realisation
reciting
recon@@
ree@@
reexamined
refineries
regi@@
reinsurance
relati@@
renders
repent
resuscitation
rowing
rush@@
sashimi
schem@@
schemed
sci@@
scol@@
scouts
secon@@
seduc@@
set@@
sev
sewer
shre@@
shuen
shuttles
siblings
sil
silently
similarity
sine
slack@@
slept
sman
smart@@
spearheaded
spurned
sse
stab
starred
steal@@
stein@@
step@@
stly
stroll
subjug@@
supernatural
suya
sway
swind@@
sympathize
symphonic
taiping
talkies
tamiflu
tch@@
telescope
tenement
tetsu@@
theological
thursdays
tiankai
tingly
titious
tizing
tome
tossed
transpl@@
tribes
underpinning
undisguised
universal@@
unrealistically
unrival@@
unsound
urg@@
usefulness
vacillating
veil
weaponization
wef
weir
wer
wigs
willpower
wired
wis@@
withheld
wom@@
woolen
xiaolangdi
xiz@@
yar@@
yas@@
yongji
yucun
zhangjiang
zhihui
zhile
+10%
1.7@@
1040
11.59
11.8%
1269
14.1
17-@@
18.4
1845
20-@@
2319
236
2520
287
291
305
34.@@
342
359
385
4,4@@
4.45
49,@@
5,800
5.00
50-@@
50.@@
507
508
56.@@
6643
68%
860
abri@@
acrobatics
acutely
ado
adze
alberta
alema
alien@@
alvarion
ama@@
anthrax
anti-monopoly
anticult
antipersonnel
appease
apprenticeship
aqsiq
aquacul@@
arbitrage
arin
armor
assessable
assiduous
asters
athlon
authoritativeness
aving
avored
backgrounder
barri@@
basics
bavaria
beachheads
beams
besieg@@
bhumibol
bhut@@
bidity
bloo@@
borderline
botanical
bowrington
braz@@
breast@@
brook@@
bullish
busi@@
canals
canop@@
cartographic
catalytic
ceasing
cec@@
centimetre
charlene
charred
checklist
chiropractic
choking
cian
claude
cliques
cobra
communiqu@@
comoros
computerization
confers
consummate
contain@@
counterfeits
courtro@@
cruci@@
cum@@
curative
danube
datestamp
daying
debu@@
defaults
deformed
demise
descend
devast@@
dishing
dongsheng
drip
dson
duncan
dundas
eac@@
eats
electioneering
emf
encing
encircled
erously
ers@@
euthanasia
evoke
excavations
extinguished
fancy
farces
faw@@
faxiang
fettered
field@@
filthy
fing
flav@@
flow@@
fmd
fraser
fruitless
gayoom
geophysical
gerald
ghs
glibly
golkar
guosong
hamburg
heal
heartening
heral@@
heroine
hey@@
hkab
hokkaido
hoodlums
hook
hs@@
ias
iers
ike@@
ilian
infec@@
inflate
ingh@@
insulting
internet2
interparty
introductory
intrude
intuitive
invigoration
invoked
irrig@@
ital@@
itang
jab
jails
jichen
johkang
jolted
kamal
kangsheng
kernel
khair@@
kings@@
koresh
lankao
leon@@
lessees
liaoyang
light@@
lightened
lingao
lingual
lixin
mainstreaming
mal
maturely
mayoral
medium-size
merry
messy
methamphetamine
misguided
mitigated
mixing
moisture
mortuaries
msw
myan@@
nader
nagasaki
nazarov
ncos
nodded
nok
nonaggression
omi
onary
operatives
oregon
orong
orphan@@
osa@@
osi@@
ould
ounced
ouncing
overlooking
overthrew
ovitraps
pain@@
paints
palaces
panacea
paratro@@
paren@@
patri@@
paulo
pcicb
perpetu@@
perplexity
phonetic
physicians
pickpockets
pique
pist@@
placards
plc
plugging
pok@@
pondered
precarious
prescribes
pricewaterhousecoopers
prioritized
procrast@@
protestantism
psychologist
pulmonary
pumps
qie
qihua
quint@@
quotations
ramirez
realising
reasonableness
rebel@@
recalls
recogn@@
recyclables
reformatory
reformist
regul@@
reprieve
resilient
reson@@
retriev@@
retrospect
revisionist
reynolds
rigidly
rosneft
ruggiero
sankei
saves
savi@@
scarcity
schuessel
secretarial
sed@@
sel
self-education
sers
shaoqi
sharpened
shutt@@
simplistic
simulator
sinner
sins
sion@@
sisav@@
ska
skir@@
slapped
snapshot
soc@@
socializing
societal
sok
solid@@
solu@@
spear@@
speculated
spoiled
squi@@
stabilisation
stabilised
steamed
stocking
stra@@
styled
sumatra
supplemental
supplementing
supremes
surpris@@
swayed
swear
swel@@
swings
swire
tainted
teenager
theng
thorns
time@@
tipping
toes
toloconsky
tomcic
tooth@@
tornado
transhipments
transmissions
transplantation
traverse
tribe
twisting
typed
ual
ucle@@
unconstitutional
undone
unspeakable
uttering
vable
vagu@@
vaile
val
vehemently
vement
vocs
wasteland
wdo
wec
weightlifting
weizhong
wellcome
wholes@@
wines
wits
world-class
wrongdoing
xinyu
xiuqin
yiwu
youn@@
zealots
zhiguo
zhoushan
zunyi
%@@
't
....
.99
/@
0730
1-3
1.78
1045
110.@@
12.6%
13.8%
15.7%
16.7
17.3
17.4
17.8%
19.3
1926
2.4@@
214
227
23.5
249
286
332
340,000
384
413
499
5,6@@
67%
7,9@@
7498
8033
810
911
abbing
abidjan
acceptability
acknowledg@@
acou@@
acp
adamantly
administers
adventur@@
ae@@
agre@@
alle@@
amu@@
anatolia
ani@@
annibal@@
annihilating
anovic
anticip@@
antismuggling
aos
api@@
archaeologists
arding
argues
arized
arreste@@
aryan
ascend@@
ashk@@
assails
astronomers
atization
atized
auctioning
augu@@
aven@@
baotou
barrage
bastions
bayar
bd@@
bearers
bien@@
biom@@
blasted
blatant
blurring
bombard@@
bov@@
bowls
bp
braved
breaker
business@@
calorie
cancelling
carers
carmona
carve
cathedral
cem@@
ceos
certi@@
chel
chequ@@
cherry
chimura
classify
climat@@
clow@@
cmi
co-existence
codex
combustion
companions
compliment
consequ@@
contemp@@
contributor
convic@@
coolant
corruptive
cumulatively
custo@@
dah
dampening
databank
daw
deceives
decl@@
decorations
defends
deflator
degrad@@
deliveries
denis
desktop
deuba
devotes
dhs
dictatorial
dictionary
diocesan
disapproval
discontinue
dispat@@
dling
dodging
doo
draining
drin@@
dusk
eag
ection
edy
eering
eff
egp
ek@@
elimin@@
elm
eloquently
emomali
encrypted
engender
enlivened
eritrean
esis
eth
evacu@@
evolves
exal@@
extrad@@
eyewitness
fd
fea@@
ferences
fiel@@
fifths
finger@@
fins
flat@@
freel@@
front@@
fruition
fund@@
fuxin
g7
gama
geleg
gennady
glaring
gloss@@
gog@@
gram
guardianship
habitats
haibin
hap@@
haran
harassing
helmets
het
hkale
hkpl
hkst@@
holocaust
horns
humorously
hurled
hyperlinks
iate
identi@@
iel
ignite
imperceptibly
inaugur@@
infl@@
inflam@@
inflammation
inflicting
information@@
inquiring
insane
installments
intest@@
intoxication
intranet
irs
jennifer
jinf@@
jov@@
jum@@
jurisdictional
justifiably
kail@@
kap@@
kazak
ket@@
knight
kno@@
ksl
kuom@@
kwa@@
lamberto
lasers
laurent
lean@@
leav@@
legacies
lihua
listens
lodg@@
loser
louisiana
lucrative
matviyenko
mediated
mee@@
mented
methodologies
mig
militarized
model@@
monster
mountain@@
muen@@
multiplying
namgyai
nanotechnology
neutron
newsletters
neys
node
norwalk
novel@@
nsas
null
oat
obedi@@
obscured
odo@@
olon@@
onable
oner
ones@@
ophone
optimis@@
originates
oud
ouhk
outlooks
outpost
overstayer
oversupply
own@@
p'yongyang
pacesetter
parap@@
parovic
particip@@
pathogens
patter@@
pet@@
petr@@
phs
pierced
pingtung
playgrounds
plugfest
poppy
popularly
potassium
poten@@
ppers
pr
practi@@
practicability
presumed
prin@@
princeton
proportional
protestants
prov@@
pseu@@
pted
pv
qianxian
qiao@@
qmh
qomolangma
quadrang@@
qualcomm
raced
rafts
rash@@
re-employment
realism
rebased
redeem
redeployed
refriger@@
reintegration
rejoice
rela@@
reminders
report@@
rescind
resists
retali@@
rex@@
rhin@@
rooster
routinely
rucks@@
sacking
sacks
salkeld
samoan
sanchez
sap
sato
scolded
scrambled
scripts
self-building
self-evident
sep@@
sessional
sezer
shone
showcased
sinmun
situational
skh
slovakian
smallpox
sme@@
smear
smuggler
snatching
soybean
steroids
stic@@
stickers
stov@@
subsidi@@
superpowers
surin@@
swin@@
tability
tabo@@
tabulated
taiwan@@
tality
tant
tashilhunpo
tay
tefering
temperament
tend@@
terminological
tf
thabo
thereat
thetic
thickness
thirties
thugs
thwarted
tilt
tout
transmitters
tribulations
trouble@@
truman
tuanhe
unambiguous
unarmed
unassail@@
unimportant
union@@
unit@@
unleashed
unsuited
untiring
unworkable
uprightness
usan
util@@
vc
veered
venice
villas
volcano
volunte@@
vre
vu@@
wart
watchdog
wetter
whale
wheel@@
witz
wolong
wp@@
xiangtan
xim
xuding
xudong
yanli
yanling
yearn
yifu
yil@@
ym@@
zhaobin
zhenjiang
zhijie
zhuo@@
aching
aker
amat@@
ami@@
analy@@
anguo
anmen
ashim@@
assimil@@
bacter@@
balcon@@
bau@@
berto
bod@@
cath@@
cl
cocc@@
conden@@
corn@@
deriv@@
differenti@@
disrup@@
dizz@@
entang@@
esh@@
feed@@
fiers
fills
flood@@
gamb@@
gitic
glam@@
graz@@
group@@
grui
gymnasi@@
halli@@
harmonisation
harvested
hears
hel
heter@@
hg@@
hideous
himi
hn
hof@@
hostess
hpa
huangdi
hub@@
hubert
hypothe@@
ice@@
iezer
igi
igsd
iland
ilings
ilitary
illustrations
impeachment
impro@@
indomitably
innermost
inpatient
insati@@
insol@@
insulted
intensifies
interceptions
interrupt
intimid@@
invasions
invent
invit@@
isp
isse
itability
izer
jammu
jeopardizes
jerry
jubilee
kable
kak@@
karaokes
karnoputri
keting
khalifa
kle
klima
kling
klosson
km@@
knot@@
kow@@
landmarks
landowners
last@@
legislating
leigh
leop@@
leslie
lewd
lex@@
lianyungang
liheng
liter
longed
longitu@@
maastricht
machin@@
macy
matri@@
maximising
mcs
mdc
measles
mediators
meh@@
mello
mercil@@
messeng@@
millimeters
milton
mindedly
mini-three
mip
mirrors
misunderstood
mming
monstr@@
morph@@
mph@@
mpy
nails
napster
nees
negates
nev
nyingchi
nylon
oasis
obese
odor@@
ography
ois
olive
omes
onian
optional
orable
orrhagic
oul
ousy
overl@@
override
p'@@
pacify
packard
page@@
paralymp@@
parapet
parker
pcc@@
penetr@@
perfunc@@
piao
pill
pilo@@
pis
plainly
prayers
precincts
preferably
premiership
prioritize
prix
prospering
protectionist
proxy
prudential
puchu
put@@
qad@@
qen
quarter@@
racan
rafsanjani
raz@@
razi
reappointed
recti@@
redressing
reexamine
rejuvenated
renumbered
resentments
resourceful
rewrite
rightw@@
ring@@
rongzhen
rons
roofs
rover
royce
rt2000
rubella
rudi@@
sands
scand@@
schoolmates
scmp
scom
secessionist
seclu@@
sek@@
shaky
shangquan
shiites
shikai
sho
showy
shrouded
signaling
sinica
sinn
skepticism
skimm@@
soiree
solidified
sophistication
spree
ssa
stabilise
staggering
strait@@
strateg@@
stren@@
stripping
superintend@@
surveyor
swag@@
systemati@@
tachia
taps
tel.
tenderer
tes@@
texaco
thaw
thechinese
therapeutic
thering
thi
thorpe
toma@@
torrents
toshi@@
total@@
tractors
tradelink
tramways
treasuring
trojan
tuan
twilight
twisk
umbr@@
umen
uncover
undered
underscores
unhesitatingly
unselfish
unsewered
unsure
upstairs
ux
vacillation
validation
vendor
vert
viaduct
vibration
vigil@@
vism
vowing
wagons
wak@@
wares
warran@@
watermains
watershed
wee@@
wic@@
windshear
wit
wolfensohn
workstations
wronged
xingsheng
xiqing
xisha
xuzhou
yakov@@
yale
yama
yamazaki
yevich
yuki
yunlong
yunshi
yush@@
yuzhi
zalez
zhengbaiwen
zhihua
zhisheng
zia
zon
.c.
abdur@@
acceler@@
accommod@@
accompan@@
ackers
anci@@
ank@@
ardi@@
argent@@
ationally
atric
ause
ayer
battle@@
brea@@
budd@@
cles
compul@@
concessi@@
cong@@
dentally
descri@@
die@@
dinal
dir@@
disru@@
eloqu@@
ensu@@
envelop@@
eptive
erring
escal@@
escor@@
estion
eted
eter@@
etry
expo@@
fab@@
ffed
global@@
good@@
habi@@
harb@@
harsh@@
hito
icing
ilia
illing
inating
indeb@@
inju@@
insepar@@
jig@@
kyrgy@@
lify
matic
mik@@
miss@@
mot@@
nel@@
nish
nn
oon
ough
partiality
percep@@
phal@@
plea@@
premis@@
prescri@@
reconc@@
reless
remit@@
reshuff@@
rol@@
rul@@
shack@@
south@@
stant
staun@@
stead@@
stret@@
strongh@@
stubbor@@
sustain@@
tance
thresh@@
trick@@
u.@@
ues
ulti@@
umb@@
verse
vies
warranted
wd
xon
ymen
zao
zar@@
absor@@
acci@@
adhe@@
alo@@
ampli@@
atics
beauti@@
bilities
bm@@
boil@@
canad@@
carto@@
chr@@
claiman@@
compli@@
condem@@
coordin@@
cros@@
dap@@
dead@@
discre@@
dolph@@
effec@@
eliz@@
emin@@
ession
ested
exhor@@
expan@@
fran@@
fte@@
fugi@@
gress
hoolig@@
hose
ican
iguo
intern@@
iz
jama@@
kyr@@
lator
laugh@@
lectu@@
legen@@
leis@@
lie@@
lieber@@
metap@@
neglig@@
neighb@@
pige@@
pip@@
qual@@
raps
reclam@@
refe@@
relinqu@@
rements
repatri@@
scienti@@
senti@@
shor@@
sis@@
soe@@
sor
stair@@
stopp@@
sunn@@
syl@@
tad@@
tainable
technic
tent@@
tful
thom@@
thorn
ticism
tivity
tling
tox@@
vana
yaf@@
zers
550@@
abo@@
accompl@@
angel@@
ank
antation
aren@@
arer
atedly
atives
atures
aur@@
aves
bayev
bewit@@
bil
border@@
calcul@@
camer@@
cock@@
commun@@
contraven@@
cular
cz@@
dedic@@
deliver@@
derel@@
dialec@@
distingu@@
eclip@@
effici@@
eful
emer@@
erals
esting
examin@@
facilit@@
feu@@
foodstu@@
gf
haul@@
hesit@@
hsu@@
icks
[...]
