<pad>
<eos>
<unk>
,
的
。
在
"
和
是
一
了
中国
及
(
)
个
、
有
对
为
中
与
将
两
发展
:
这
说
不
上
政府
他
香港
国
就
经济
会
要
我们
以
;
新
美国
各
年
问题
国家
关系
并
也
工作
于
.
“
”
而
有关
等
人
大
已
人民
进行
次
台湾
合作
三
表示
时
地
多
国际
该
都
后
到
或
可
社会
我
向
计划
由
名
还
所
项
至
方面
下
会议
服务
建设
从
被
全
来
重要
更
他们
世界
加强
其
地区
组织
公司
但
提供
亦
企业
种
此
内
包括
本
把
委员会
人士
市场
党
能
元
代表
活动
完
政策
以及
这个
最
情况
教育
安全
改革
进一步
政治
中央
人员
没有
今天
美
要求
举行
今日
同
技术
前
继续
港
指出
’
‘
每
北京
使
今年
主要
必须
贸易
着
和平
主席
管理
市民
这些
应
认为
电
日本
可以
岸
发言人
其他
措施
?
需要
时间
环境
提出
很
机构
双方
研究
之
好
支持
部门
提高
通过
同时
科技
投资
影响
调查
一些
江泽民
则
记者
希望
!
领导
访问
根据
中心
目前
二
解决
新华社
高
稳定
可能
积极
又
总统
作出
共同
四
五
月
正
努力
思想
警方
基础
行动
系统
位
去年
建立
原则
任何
实现
工程
文化
增长
已经
取得
统一
建议
友好
历史
增加
号
第一
作为
实施
制度
如
约
军事
条例
得
我国
意见
未
成为
不断
当局
开放
促进
较
/
报告
特别
坚持
交通
利益
战略
世纪
发生
日
法律
规定
用
作
采取
自己
其中
干部
期间
由于
处理
决定
内地
起
行政
只
开始
资料
美元
强调
间
共
以来
让
统计
改善
之间
参加
会见
所有
民族
才
天
领域
使用
生产
全面
安排
条
推动
保持
立法会
发表
水平
分别
部分
再
社会主义
目标
岁
给
精神
你
公布
第二
项目
调整
小
保障
银行
曾
联合国
呢
单位
据
作用
均
金融
群众
级
不能
能力
领导人
新闻
地方
大陆
公共
它
那
申请
期
过
达
开发
交流
出现
重大
接受
不同
首
参与
条件
华
因为
因此
严重
如果
基本
产品
仍
中共
事件
出口
人大
上升
下午
她
部长
部队
届
维护
事务
区
结果
资源
完成
经
生活
公众
关于
现在
成员
成立
了解
国务院
过去
比
未来
得到
家
学习
六
联合
战争
加入
人权
分
利用
导弹
科学
因
数字
议员
不会
自
三月
做
成功
设施
看
充分
委员
》
《
此外
保护
受
小组
比较
欢迎
出席
法轮功
总
确保
考虑
第三
四月
六月
扩大
任务
方式
布什
健康
祖国
非常
发挥
亚洲
台
具有
这样
须
为了
俄罗斯
城市
开展
发现
总理
令
信息
另
西部
显示
按
根本
形势
十分
车辆
军队
但是
几
外交
减少
中华
出
以下
上述
结构
反对
局长
选举
基金
什么
符合
工业
进入
重视
对外
宗
宣布
五月
有效
如何
武器
俄
特别是
打击
实际
经贸
落实
处
一月
无
指数
外
卫生
标准
良好
能够
一定
对于
而且
机制
去
谈判
九月
经验
协议
产业
官员
农业
电话
全球
访
重点
获
创新
修订
机关
财政
应该
者
男子
责任
占
上海
国内
阶段
规划
台独
执行
一九九九年
份
即
非
同志
当
星期三
造成
讨论
九
直接
介绍
近
人口
朝鲜
学校
内容
土地
事业
高度
大会
是否
七月
现
加快
一直
学生
十二月
许多
推进
价格
资讯
事
报道
训练
国防
相信
上午
里
讲话
十月
协助
十一月
法院
3
长期
李鹏
代表团
超过
受到
类
海关
会谈
理论
持续
啊
存在
最高
获得
制定
大学
二月
完全
非法
请
点
关注
呼吁
泳滩
专业
人才
立场
机会
体制
涉及
第
民主
目的
不仅
相互
知识
达到
准备
原因
西藏
结束
只有
监督
电子
市
[
集团
认识
按照
八
伊拉克
中方
专家
经营
行为
综合
范围
业务
前往
医院
力量
现代化
地位
带来
整体
竞争
正在
透过
深入
七
星期五
却
个人
方
居民
犯罪
特区
若
进口
以上
省
[3]
负责
八月
就业
道路
广大
谘询
收入
公开
十
讲
意义
成果
十五
想
现时
需
先进
当前
驻
欧洲
段
行业
最近
过程
草案
推行
批
宣传
形成
1
网络
来自
传统
更加
个案
下跌
一般
案件
国有
所以
制
正式
最后
长官
虽然
认真
季
贡献
斗争
举办
实行
优势
长
英国
变化
欧盟
事实
答复
实践
主权
双边
那么
商业
农村
签署
独立
查询
展开
低
场
之后
大@@
警察
时期
增强
体系
邀请
底
世贸
并不
依法
作战
亚太
资金
保证
分析
商品
5
明确
科
相关
装备
鼓励
资产
发出
经过
方法
势力
共识
达成
称
具体
贯彻
家庭
完善
农民
批准
www
时候
广泛
挑战
陈水扁
常委会
分裂
控制
程序
起来
文件
外交部
机场
选择
创造
介乎
检讨
正确
4
本地
因素
团体
同意
共和国
邪教
自由
部
需求
之一
强
人们
先生
站
设计
年度
进程
首先
亿
联系
水
议会
军
对话
产生
消息
表现
课程
有限
方向
看到
切实
旅游
形式
食物
面临
2
国民
结合
方针
贷款
召开
代
给予
培训
一切
近年
法
注意
行
避免
道
另外
改变
有利于
10
属
路
德国
购买
印度
飞机
困难
承认
澳门
既
再次
设立
甚至
李登辉
二〇〇二年
巨大
组成
今后
执法
主任
坚决
部署
态度
反映
二〇〇〇年
共产党
会晤
二〇〇四年
帮助
指导
消费
不过
走
进展
分子
一日
声明
关键
致电
密切
统计处
星期四
反
-
团结
案
大家
便
人数
成
供
很多
楼
评估
星期一
所谓
面对
搞
承诺
外国
电脑
正常
卫生署
运作
明显
做好
公务员
网站
规模
数据
网
联络
维持
交换
套
雇员
法国
性
进步
配合
最新
表明
真正
平均
资助
价值
协会
检查
防御
海外
司法
大力
恢复
临时
权利
拥有
意外
主张
威胁
报
违反
第四
运输
素质
系列
下降
仍然
感谢
人类
提交
星期二
尽快
货币
江
美方
随着
当时
韩国
感到
总值
全国
知道
极
重
管制
确定
推广
网页
程度
区域
媒体
意识
巴士
局
条约
手
二〇〇三年
时代
4月
协调
严格
用途
这里
罚款
6
当地
状况
一@@
愿
例如
发展中
打
顺利
办法
20
强烈
除
社区
关心
件
尊重
至于
晚上
方案
逐步
不@@
某
发
保险
大量
建筑
领土
核心
刊物
证明
引起
美军
文明
始终
快
国会
质量
全部
还是
队伍
监察
宗教
法例
集中
提问
入境
整个
来说
二〇〇一年
合理
针对
6月
注册
政协
汽车
秩序
论坛
女士
防止
预计
言
医生
制造
修改
发行
友谊
趋势
运动
不少
周年
钱其琛
儿童
外汇
7月
基层
一致
危机
比赛
加大
非洲
大使
何
拘捕
突出
题
3月
限制
适应
周
小时
援助
适当
开支
具
副主席
中东
数
以色列
支援
电视
体现
手段
应当
同胞
成就
雇主
当中
伙伴
南
楼宇
接触
路线
话
外资
预防
基地
除了
[2]
民政
立法
高兴
迅速
合约
数量
平等
外长
革命
冲突
伟大
湾仔
朝
基本法
设备
演习
早
石油
机遇
特色
预算
住宅
5月
自然
钱
研讨会
导致
指
管理局
信心
展览
初
港元
房屋
负责人
最终
西方
办事处
克林顿
必要
效益
行政区
内部
采用
说明
事故
审议
死亡
繁荣
张
像
此间
7
推出
之前
培养
署长
深化
仅
补充
详情
高级
破坏
民众
总书记
十二
文
提升
规范
费用
先
投入
公园
提醒
事务处
力度
愿意
数目
总额
8
然而
越
仪式
航空
党委
尚
从而
转变
//
地点
海军
星期六
李@@
见
青少年
教授
嗯
成绩
顾问
紧密
巴
组
老
有所
9月
指挥
铁路
出来
跟
即将
证券
重申
以后
太
澳
二十
普遍
解放
胡锦涛
邓小平
医疗
相
问
人民币
--
初步
职业
资格
s
步
攻击
巩固
参观
司长
副总理
张@@
登记
马@@
半
矛盾
尽管
全球化
成效
罪行
王@@
违法
空间
中@@
透露
海峡
解放军
通知
出售
局势
从事
驾驶
模式
必
东
原
担任
污染
联盟
越来越
康乐
总部
为期
收费
并且
立即
交往
权
米
计算
县
解释
10月
或者
业界
马克思主义
无法
警告
万
速度
现代
风险
策略
重新
货物
员工
2000年
在内
11月
现场
陈@@
8月
相当
以便
度
做法
高层
办公室
连
节目
然后
现有
21
深刻
明年
只要
发达
大型
难
文章
卫星
半岛
日前
能源
封闭
主持
女
交易
现象
物价
货品
直
规则
线
刑事
特殊
书记
告知
它们
详细
1月
互联网
粮食
至今
头
广播
运用
危险
谈
各界
邮政
不要
轮
一贯
书面
街
抓
生
图
生产力
车
高@@
青年
wto
快速
予
书
压力
回答
教师
理解
分区
9
50
深
现实
觉得
全体
少数
先后
委员长
履行
完整
2006年
私人
前景
试验
纽约
二〇〇五年
事宜
一样
个别
面积
总署
双
华盛顿
国民党
升
涉嫌
开
一行
首脑
支付
附近
录
指引
劳工处
牌照
成本
主题
做出
事情
妇女
遵守
紧急
队
方便
旨
大厦
建交
判
水质
旅客
禁止
三十分
看法
署
日益
无@@
腐败
三十日
工人
12
民进党
2月
经常
当然
增进
可否
如此
平衡
那些
本会
丰富
伊朗
规例
争取
掌握
合法
药物
三通
军委
朋友
地带
女子
心
各位
采访
海
满意
nmd
星期日
估计
支
投诉
热线
磋商
毒品
现行
资本
病人
福利
职工
优惠
职位
应用
德
官兵
探索
发言
呃
监管
北
子
公安
企图
没
奋斗
辆
hk
怀疑
1999年
公约
货量
清楚
尤其是
劳动
标志
12月
互利
李洪志
体育
其实
货值
允许
表格
吸引
谁
质素
办
空军
局面
拨款
抵达
村
a
权力
构成
听取
泰国
治理
检控
年龄
武装
任
欧
决策
回应
环保
昨日
致力
协商
长远
少
观念
普京
谈到
评价
战
山
吗
销售
有利
二十日
拉@@
繁忙
有否
法制
十五日
生态
权益
为何
逗留
对抗
党员
停止
院校
某些
政治局
二零零四年
秘书长
途径
15
维修
决心
自治区
制订
赴
协定
取消
左右
自身
越南
供应
座
收到
法规
西@@
十日
4@@
乘客
性质
你们
强大
加拿大
理想
突破
测试
三十一日
新加坡
热烈
工资
变
预期
复杂
型
有的
11
学院
肯定
飞行
承担
律师
发放
空气
劳工
总结
电讯
助理
大部分
利率
特点
二零零零年
唐家璇
紧张
运输署
公报
事务局
30
架
中国人
生命
截至
200
离开
九日
副部长
反应
工具
奖
'
七日
改进
式
大楼
有些
一九九八年
日期
gov
开幕
走向
坚定
拒绝
效率
网址
北约
屋
外商
十一
委任
二十八日
英
九龙
十二日
定
司机
二十七日
电影
深圳
收益
广东
告诉
及时
黄@@
德@@
朱閒基
金@@
公民
年代
十四日
2001年
暂停
二零零五年
法定
6@@
刘@@
十四
回归
有助
公里
水@@
赞赏
十六日
显著
通讯
干涉
公正
天气
如下
投资者
胜利
二十三日
化
二十五日
受伤
昨天
抓好
倍
近日
八日
执政
艺术
十九日
西
损害
转口
被捕
竞争力
二十四日
集体
十八日
实质
二十六日
出版
类别
前提
二十一日
实力
变动
升幅
法庭
二零零一年
小@@
放
流动
辖
传媒
情报
面
官方
您
韩
招待会
接获
二十一
发射
月份
绝
邮票
证实
预测
兼
绝对
六日
首相
五日
考察
据悉
内政
团
进出口
二十二日
安理会
同样
核
走私
改造
2005年
批评
产权
出发
食环署
科研
清洁
检获
层次
业
纪录
予以
佳
新界
角色
大会堂
治疗
宪法
住
]
早日
属于
持
舆论
食品
优秀
章
课题
二零零二年
其后
举
来访
克
编制
职务
恐怖
财务
无论
一起
隧道
分配
定期
带
连续
政党
金额
彻底
处于
在于
二日
各自
基
曾经
吨
座谈会
二零零三年
指定
有力
损失
二十九日
十七日
新疆
相应
感染
法新社
金
1日
跟进
[http
探讨
明
大幅
设
上台
前进
做到
艘
强化
准则
纪念
难以
公路
表达
议案
联邦
兴趣
投票
十三日
上市
员
5@@
进
义务
巴勒斯坦
东盟
十一日
指示
寻求
环保署
四日
遭到
三日
3@@
放弃
工商
码头
候选人
机
三十
物业
林@@
为止
族
天@@
罗@@
动力
病毒
公平
派
规管
专题
作风
条文
搞好
靠
自@@
定罪
功能
华人
妥善
广场
总体
男
印
董建华
加工
多少
三@@
业主
职能
错误
发布
亲切
财产
电台
谈话
入境处
步伐
领袖
法案
往来
主办
地下
抓住
沟通
十八
博士
愿望
岛
宜
享有
呃@@
决议
势头
国外
加
经合
必然
消费者
阿@@
侵略
值得
千
兴建
离
负担
准
即时
当选
龙
巴基斯坦
加@@
合
管
第五
8@@
展示
学者
债券
选民
今
信任
潜力
16
报导
真
80
gov.hk
斯
公顷
五十
布希
用户
消除
致辞
菲律宾
下载
位置
怎么
差距
新@@
首都
迟浩田
把握
办理
服务业
马
军区
应付
私营
长者
率
身份
朱熔基
达赖
信
近期
危害
明日
分歧
海上
足够
林
议题
州
理由
我军
本身
面向
冷战
旧
客人
开拓
7@@
专门
远
分钟
海@@
通信
庆祝
职责
评论
有@@
职员
观点
表
比例
禽流感
1998年
亚
存款
研制
十六
渠道
印尼
界
充满
利
失业
文@@
暴力
遭
人@@
款
为什么
港币
主动
往
港口
医管局
假
开@@
电视台
发售
重建
广州
治安
浏览
跌幅
欲
东@@
提名
状态
听
爆炸
14
架构
软件
法官
入世
下列
常务
互相
伊
降低
反@@
入狱
民主党
生效
留意
院
船
睦邻
安@@
实际上
的士
的话
牌
具备
军方
上@@
南@@
二零零六年
力
缺乏
行人
阶级
唯一
b
斯@@
边
广东省
纪律
非@@
道德
大纲
主管
版
夫人
提
禁毒
股
航天
祝贺
转入
篇
以前
克@@
朱
向前
圆满
http
处长
申请人
类似
场所
民间
物品
界别
货柜
星期
建
背景
尽量
检验
百
教学
鉴于
中学
期望
物质
客观
当天
学
积金
引进
成长
沙田
上半年
参考
围绕
枚
电力
住户
大选
认可
更为
武力
其它
日报
决
作品
死
这么
制造业
英语
即使
家禽
股票
国防部
储备
家长
工作者
新型
经历
18
下去
得以
加以
消耗
李岚清
设置
相对
吧
学员
股市
不但
袭击
遇到
政权
特@@
健全
审批
签订
外@@
能否
info
因应
运行
大大
9@@
多@@
零售
加上
金管局
东亚
十三
宏观
陪同
稿
票
房委会
罪名
制裁
周@@
收集
人事
沿
声称
严厉
形象
范畴
费
1997年
六时
宗旨
通
不足
图书馆
c
南行
优质
按揭
随后
负
年底
致力于
活力
纳入
短期
框架
依据
卡@@
满足
红
会面
山道
优先
有助于
容易
报告书
大局
至少
城
为主
因而
40
工会
树立
利@@
沿海
爱
国@@
建造
活
量
七时
巴@@
引导
设有
以外
15日
空缺
藉
刚
疾病
效果
相同
控
明@@
薪酬
侵犯
多边
贫困
记录
一旦
求
一九九七年
常委
成员国
19
表演
障碍
十九
爆发
农产品
永远
名单
毛泽东
协作
南非
下来
区议会
心@@
演练
专责
光
国家主席
20日
克服
发动
废物
保安
固定
成@@
师
侦察
朱邦造
建筑物
现正
出@@
外贸
来源
合署
军售
论
迎接
尤其
班
距离
典礼
基于
审查
·
不久
会长
元首
小巴
样本
海洋
13日
系
花
京
依靠
特
滥用
16日
引发
确实
大道
指标
重要性
体力
副主任
东西
伦敦
索取
街道
会否
尽
知
28日
室
条款
句
本人
核武器
学位
23日
小心
事项
否则
延长
担心
古巴
广阔
激烈
生物
监禁
居
户
卖
计算机
高等
九时
时刻
i
奥运会
台北
民意
地@@
加深
地盘
境外
支出
气氛
确立
长@@
对象
总数
继
规律
提案
26日
平
统筹
交
片
改为
人力
以往
幅
拉
纷纷
财政司
口
门
二十四
呼吸
热情
雇佣
意大利
问候
甲
100
免费
冲击
店
转@@
之@@
中文
之外
事务署
其余
暂时
率领
将来
10日
17
台海
身
教育署
侦察机
食肆
小学
班子
出任
副
18日
早上
公斤
任期
授权
杨@@
议长
回到
部份
抓紧
[4]
专利
承建商
本质
逐渐
发@@
干
施政
名义
税收
同@@
更新
相比
鲍威尔
大约
王伟
违例
同月
持有
全力
练兵
12日
与会
几乎
市长
当今
澳洲
致
保留
赢得
节
行驶
元朗
追求
阐述
五时
屯门
怎样
日@@
种种
一下
减低
天桥
不懈
内@@
入
等等
些
启动
第六
13
减轻
售价
之中
制作
战斗力
曾荫权
省委
原来
北京市
关闭
跨国
27日
荃湾
认同
附件
数码
适用
北韩
商界
场地
核准
自行
军用
加速
接近
皇后
21日
当年
s@@
土耳其
罪
使命
尼
尽早
空中
待遇
自主
柴油
涵盖
-@@
扩展
25日
22日
30日
反腐败
地址
季度
李瑞环
转达
子女
汇报
19日
晚
查阅
边境
满
信念
24日
其次
出去
意味
][3]
整顿
许可证
路边
乱
找到
营运
声
纲领
分@@
回
零售业
国务卿
船只
厂
续
17日
抗议
笔
可行
宝贵
涌道
被告
25
身份证
失败
操作
比率
顾客
黄泥
安置
普通
打@@
期待
一点
转移
8日
凌晨
拓展
白
14日
一百
不应
考验
落后
采购
防护
吴@@
且
合同
国情
两国论
材料
后来
常
公@@
刚刚
十七
飞行员
7日
国务
最大
等级
辩论
9日
津贴
3日
上诉
厦门
汇率
虽
言论
反华
罪案
法@@
跌
建设性
病
日后
礼
税
四十
民
债务
战场
e
沙@@
首席
东部
严峻
五@@
缓和
下@@
读
毫
自觉
市区
防空
黑
多万
谴责
驻华
八时
商务
重@@
营
乡镇
5日
台商
字
带动
递交
十时
境内
移民
观察
遏制
11日
布@@
温家宝
书店
主体
建成
油
可@@
任命
1996年
伤亡
免
广告
军备
福建
清理
优化
二十五
哪
行使
达@@
干预
年轻
大规模
气
南京
莫斯科
总裁
游泳
退休
人次
信息化
证据
如今
全会
复苏
6日
奉行
河
稍后
太平洋
华@@
失去
附表
多数
南韩
八@@
引致
当日
正@@
科@@
科索沃
战机
著名
番
苏@@
块
订明
有意
装置
学术
并没有
商
刊登
风
军人
角度
载于
假期
嘉宾
手续
视为
增幅
安
对待
法治
说法
九五
彼此
情
卡
竞选
阿拉伯
季节性
客户
通道
中外
艰苦
查处
潮流
转化
之际
廉政
补偿
边界
专员
大众
届时
排放
老@@
高于
货车
东京
感
4日
办公
大多数
恶化
经理
党派
检察
照顾
2日
北角
太空
游戏
演讲
自我
号码
概念
命令
吕秀莲
平方米
主导
依然
变成
来到
互访
何@@
外经贸部
60
宣言
巴西
维@@
举报
纲要
铁
制品
建@@
邮政局
家@@
苏联
动员
古@@
共和党
四@@
确认
警务
带领
简单
实事求是
动议
后勤
尔@@
中新社
奥@@
山@@
明白
全局
那样
高速
哈
天文台
创
市委
白宫
美好
荷兰
音乐
身体
反导
将军
盗版
1995年
生@@
考试
战线
2007年
南联盟
食物局
传播
博物馆
回顾
城镇
研究所
于是
0@@
亚@@
学会
霸权主义
赋予
旅游业
显然
29日
乃至
巡查
庞大
准确
动
波兰
美国人
草图
一向
十@@
吴仪
第九
万@@
人物
优良
停车场
选拔
余
相@@
酒店
器
b@@
历史性
大业
白@@
风@@
高新
特征
居住
改
安装
心理
抵
机动
环节
角
足
不满
分享
兴
层
时间表
比重
石@@
观众
叫
后@@
国内外
语言
经费
警队
一百@@
企业家
分割
参拜
宪报
撞机
港人
注重
帐目
乙
感情
虚假
柬埔寨
培育
逾
2002年
地政
失踪
地震
保@@
胡@@
合并
否认
平台
公营
澳大利亚
财经
阿富汗
制约
格局
电信
[10]
众多
售
秘书处
载有
频繁
他人
娱乐
幅度
藏
记者会
尔
机@@
竞赛
诚意
尖沙咀
搜集
内阁
关税
增长率
一时
美@@
2@@
一再
公屋
战斗
衷心
列
团长
容许
朱@@
c@@
例
动物
裁判
改道
华侨
为@@
先进性
别
演说
过境
保护署
教训
审判
飞弹
批出
校
吃
演出
常任
适合
教
平@@
形态
教科书
超逾
靖国神社
主
守则
海湾
讲座
通报
利润
房屋署
群
…
单
周边
往往
款项
百分点
试点
体
升级
战略性
鼓舞
报名
似乎
指责
电@@
建造业
引入
若否
传真
护照
轨道
突击
乘
收
受@@
找
行@@
萨@@
24
港湾道
六十
扩散
突然
一体化
使得
垃圾
派出
花@@
顾
自治
龙@@
墨西哥
纯
所在
2000
参议院
思路
金正日
留下
非政府
石广生
民@@
诉讼
二@@
光碟
北@@
委托
不管
写
总局
警员
配套
营商
人均
孙玉玺
尼@@
用地
使馆
再度
军@@
豁免
埃及
新西兰
定位
吸收
永久
重组
基建
末
组建
发扬
海域
扶贫
残疾
左
社署
金钟道
寻找
政制
清
纳@@
若干
吉@@
波
天然气
融资
够
道@@
干扰
赛
敌
可能性
永@@
渔护署
自动
除外
二百@@
今晚
10@@
判处
商讨
港岛
证
副@@
实在
打破
赵@@
郑@@
依照
旗帜
小泉
透明度
伊@@
商会
计画
起到
防范
北行
战区
签证
产量
展
意
里@@
亲自
后果
哈@@
西班牙
兵
国际法
对手
短
陈
零@@
净
地面
新年
正义
燃料
不论
奠定
泰
派发
额外
信仰
南部
调控
同事
破产
本@@
贸易额
拟
现金
送往
破
终于
录得
思维
东行
之下
减
调查科
岗位
互
证书
遭受
全文
对@@
收支
步骤
刑罚
学@@
止
灵活
交@@
地铁
塔@@
径
印刷版
拿
争议
位于
赔偿
a@@
家属
行程
f@@
仪器
清@@
通常
马来西亚
严肃
三百@@
正面
二时
军官
化学
流通
邮购
搜查
中午
取代
潜艇
田
右翼
巴黎
结论
划分
显着
90
伤害
乡
光@@
分类
零
乐@@
合资
和解
查
通@@
工厂
弹道
普@@
社
董事
·@@
不良
振兴
治
雷@@
整
入@@
政务司
检察院
生存
2003年
前途
第@@
驾车
使用者
副委员长
落
谋求
东南亚
成熟
经营者
理事会
第七
策划
贩毒
台@@
差
技能
享受
就职
眼
广西
活跃
答
人手
基@@
层面
专项
租金
徐@@
消费品
深远
首要
低于
信托
只是
明天
二十@@
国债
敢
看来
五万
对付
时机
t
获准
买卖
峰会
赛马会
定@@
绿化
作业
好处
原@@
图谋
开创
户外
智利
促使
大批
易
街市
70
议程
过@@
实
无疑
主@@
火箭
纠纷
选
伪造
举措
封路
桥
谢@@
31日
版权
脱困
盖
2004年
地球
换
16@@
十一时
d@@
救援
1994年
口@@
工@@
陆军
买
播出
商贸
评审
轻微
合适
安定
屋宇署
极为
富有
ii
东区
出台
削减
私家车
舞台
商机
于@@
产值
监测
视
哪些
孩子
发布会
广
通知书
旅
m@@
校长
复兴
直升机
积极性
落成
12@@
恐怖主义
时报
机械
气象
22
为首
载
随
七@@
交易所
判决
务实
里面
11@@
作@@
基金会
感觉
时@@
选票
坚定不移
空
合@@
失业率
游行
管道
公告
旁
售卖
办事
赞成
赤字
面前
灯
物
证监会
外地
真的
贝@@
税务
武警
比如
知悉
随时
空@@
告
拦截
放宽
现状
自焚
会员
厅
多极化
祝愿
前@@
夫
回避
小型
李
警务处
三峡
党政
敏感
过渡
吴邦国
对方
黄金
保安局
借鉴
类型
薪金
防@@
关@@
战术
旺角
部长级
信号
父母
讯息
红@@
九@@
含量
获悉
摘要
下半年
互动
四百@@
大使馆
探员
瓦@@
口岸
思考
感受
日常
一九九六年
医护
科学院
聘用
迄今
g@@
南斯拉夫
名@@
容
比@@
莫@@
追究
退出
呀
展望
总量
许可
嘛
奥运
家人
怕
旅行
留
语文
院长
回升
强硬
老师
财富
纳
雷达
招标
价
凡
开设
排除
歧视
化验
敌对
格@@
交界
接待
西行
着眼
累计
值
名称
呈现
枪
统筹局
行径
六@@
列为
防卫
到底
塔
福利署
终止
议定书
t@@
一半
可靠
告士打道
集会
全民
大臣
暴露
中环
乌克兰
筹备
外来
市政
日子
防
阿
多元化
热
掉
白皮书
视察
额
从来
和谈
收@@
无线
尉健行
患有
拉美
据报
游客
陆续
供应商
别人
待
心脏病
罗
中南海
吉
天津
返回
试图
波@@
行车
到达
意愿
经@@
计
调动
输往
修正案
受害人
伤
反而
富@@
律政司
披露
桶
梁@@
舰
解除
出访
可于
张万年
报纸
摆
兰@@
增
米@@
证明书
出入境
口头
总@@
富
手机
表述
违背
会计
硬
移动
打赢
提到
格
列入
应@@
康文署
死者
第十
命运
审计
涉案
亏损
回收
摆脱
日内瓦
足以
二〇〇六年
方@@
算
处分
15@@
希腊
手@@
组别
选出
300
前来
城规会
填妥
取缔
土
赛事
利息
回@@
铁@@
国力
球
如@@
独特
语
销货
动摇
爱国
福@@
叙利亚
模拟
之所以
乐观
交谈
城乡
头@@
风暴
代@@
三十五
治国
物资
署理
订单
k@@
二十二
在座
故
水域
源
泳池
中西部
h@@
标题
产
污水
订定
不利
国王
图@@
期限
d
其@@
意志
上来
刚才
国事
房
权威
自愿
较为
们
叶@@
含
加紧
化@@
药
13@@
主流
连@@
可行性
点@@
不时
今次
士兵
尊严
年@@
装
收购
新闻界
练习者
营业
超级
市政局
职
重庆
清醒
相继
整治
深@@
20@@
来@@
绝大多数
创作
而@@
护理
机器
核@@
肺炎
17@@
二十三
工
机电
研发
证件
镇
查@@
毛病
科学家
麦@@
什么样
政
传染病
冠军
列出
缅甸
非正式
戈尔
普查
销售处
务求
无论是
获取
18@@
一系列
互信
国企
物流
粤
纠正
应变
强劲
情绪
信贷
史
瑞典
十二时
宝@@
25@@
不得不
志@@
大致
施@@
赢
道歉
m
干@@
康复
树
第八
坐
婚姻
对开
画
盟国
领空
局部
气@@
理念
老挝
订立
车@@
邮件
仅仅
岛内
携手
可持续
极端
炸弹
继承
诊所
道理
阶层
划为
历来
备忘录
火@@
监测站
立@@
加剧
普及
艰巨
14@@
乐
转让
颗
智慧
接纳
关切
启用
连接
夥伴
恶劣
斜坡
起@@
捍卫
保卫
王
借
大埔
实@@
阻止
p@@
代价
保密
审理
布
流
海南
转
从严
财政部
下岗
同比
新闻稿
消防
创意
清晰
英文
起诉
保
全@@
品
她们
教统局
副总统
紧紧
付出
在一起
民国
气候
舰队
灾害
足球
香港仔
军国主义
国土
指控
星
江@@
特大
痴迷者
随即
批发
示威
轰炸
二十六
统治
依
八十
宣称
拥护
久
会同
皆
鼓吹
乔石
判断
流@@
打算
扮演
提前
旗
用作
色
陷入
代表们
坚强
控罪
杜@@
现任
真实
词
辅导
进度
500
人群
拒
标签
封锁
犯
评定
辉煌
正常化
武@@
然
1992年
内涵
发展局
暨
率先
见面
0.@@
可望
强@@
当@@
遵循
骨干
o
乌
四川
提@@
出生
视乎
手法
独
资本主义
遗憾
开辟
记
凤凰
北部
奖励
滩
触犯
很大
焦点
级别
练
结算
一道
保养
招聘
混乱
稳步
康@@
态势
走出
安南
田@@
金大中
基因
典型
工商界
章启月
可是
那里
一带
会@@
喜欢
改行
海底
究竟
维和
防治
倾向
官
截止
监狱
医学
塞@@
托@@
要素
课
当值
机组
神圣
初期
舰艇
观塘
善意
地图
排@@
白俄罗斯
00
101
战斗机
文字
日趋
生育
23
基本上
复@@
女性
性能
根
1.@@
19@@
45
七一
三时
坚实
年初
敌人
纺织品
谨
表决
世
出版组
l@@
一九九二年
卢@@
收取
瑞士
7%
取@@
四时
好@@
康
杂志
送
颁发
众议院
传@@
流感
清洗
预料
1993年
倒
大战
开办
缴付
迫切
雇用
二〇〇
孙@@
超@@
一万
书@@
二十多
森
箱
肠
进@@
][3
借口
划作
副书记
单@@
右
合办
器材
总会
扣除
花园
警惕
贪污
儿
品种
民航
严正
保存
油麻地
萨达姆
介入
十万
石
许@@
印象
帕@@
战@@
偏高
身分
力@@
委员们
神@@
送交
世@@
希@@
弘扬
艾@@
藏有
鱼
出于
制止
士
此前
强制
湾
胜
药品
几十
推向
浙江
特定
理
刺激
总是
秘书
8%
中小型
人道主义
公然
到访
反复
税费
外币
大幅度
委
达致
广@@
熟悉
船舶
转为
郊野
27@@
原油
失@@
收回
示范
营造
迪@@
丁
伯@@
保险业
运@@
习惯
书记处
人心
联同
血
赞同
赞扬
走上
n@@
制@@
政局
文物
比利时
积累
言@@
警署
地理
崇高
照片
订
负债
颁布
临
审
死刑
秘密
鲁@@
28@@
以@@
农历
列车
哦
天安门
联@@
配置
裁定
辞职
债
廉洁
投标
施工
煤矿
丙
到来
包
学年
针对性
页
5%
声音
店铺
省长
青@@
一度
住房
动用
工务局
撤销
政务
先@@
共处
展出
申办
真诚
红潮
丧生
乡村
灾难
烟花
珠江
用@@
货
鲜明
以为
势
油价
运动员
迹象
apec
增至
外部
综合症
二十七
同学
拖欠
指明
称为
专@@
百@@
空袭
变革
土@@
知名
黄
三角洲
支柱
热@@
蔓延
万多
停泊
凝聚力
英@@
郭@@
历程
缩短
党风
有益
期货
球场
监视
五百@@
创业
夜
审核
违规
高校
二十八
宜尽量
转向
飞
35
主义
亮
直辖市
难民
一千
在场
总经理
领先
饮食
巡逻
布莱尔
患者
放@@
民事
组合
增多
子@@
接@@
全军
凝聚
圣@@
裁决
负债表
27
奇
威@@
调@@
中期
奥地利
征收
接收
种族
诸多
——
争端
穿
表态
谋
黑@@
一九九五年
二〇〇三
份子
哎
席
携带
输入
钢铁
差异
的确
终审
三角
事@@
火
董事长
二〇〇〇
以至
荣
长江
阁下
产业化
报@@
略
蓬勃
严打
卫视
增值
考核
自从
上涨
价值观
在@@
潜在
见到
高科技
2%
三十@@
傅全有
全方位
教@@
构想
细节
缩小
55
v@@
取决于
外界
板
热点
苏
设于
附属
僵局
埃@@
春@@
自杀
致命
受访者
巴格达
中间
之内
仔细
峰
注册处
强权
总监
数十
木@@
26@@
e@@
实验室
平时
泊车位
公安部
远程
南方
选手
闭幕
信@@
周围
嘉@@
警区
非典型
r@@
参赛
发牌
编号
联
附图
崭新
村民
海内外
四十五
弹性
苏丹
前夕
办公厅
多亿
蒙古
辉
云@@
别国
尸体
立
谢谢
跨境
铜锣湾
劳动力
单张
好转
文化署
百分之十
认清
论述
身上
限度
三合会
中亚
前线
忠告
24@@
人选
宣扬
概括
父亲
振@@
解@@
事关
切勿
波黑
秒
邻国
原料
悬挂
源头
阿根廷
28
七十
曾庆红
电子化
o@@
瑞@@
阻碍
23@@
统
菲
课税
飞@@
分为
牢固
牺牲
肩负
u@@
学历
征询
技巧
施行
湖
责任感
效应
日方
昨晚
平稳
新增
激励
儿子
南海
占领
成克杰
科教
上将
公认
水利
邻近
古
毕业
渡轮
福
贾@@
三百
关怀
分组
功夫
噪音
地政局
毕业生
西贡
高效
历
本来
雨
预留
和谐
封
承办商
杀
航运
朱镕基
立案
综援
股份
运载
重复
厂商
暴雨
看看
以免
回国
弹
强制性
6%
梁
那个
释放
][4]
w@@
今早
企业界
垄断
执业
金属
二十九
月@@
芬兰
前所未有
功
和@@
杰出
树@@
登陆
调
3%
新鲜
负面
兴@@
否定
园
处罚
模范
索@@
责任制
嫌疑人
莱@@
六十六
执政党
提及
武
管@@
职权
落马洲
26
亲@@
摧毁
桥梁
近来
阵地
降落
零售商
五十@@
分布
存
梅@@
横
油@@
疫苗
绿色
预定
10]
修@@
气体
物料
疫情
结婚
超越
f
军费
士@@
有待
话题
1%
便利
死@@
流入
边防
何时
内需
摩利臣
敦促
连同
从@@
海岸
中区
传
兰
动作
在职
尼泊尔
幸福
电邮
义
控股
清水湾
访问团
预算案
光荣
夏@@
实战
工场
母亲
渔农
观看
资深
转型
假如
关
宁
竟
附有
七百@@
杰
纸
编队
面貌
三十八
大屿山
工业化
火警
工程师
丧失
卓越
导向
新党
欺骗
王永平
党中央
应急
急
智能
温@@
纺织
4%
与会者
布局
拖延
河@@
科技署
签发
通讯社
h
万亿
富裕
开发区
当代
新闻组
受惠
奇@@
情势
预先
六百@@
分离
渔业
返
进取
驱逐舰
丽@@
夫@@
李肇星
泰@@
洛@@
着重
食
入口
力争
匈牙利
区@@
回来
扎实
精心
31
哈萨克斯坦
恩@@
毛@@
难题
业绩
商场
坏
观
馆
停
博@@
审慎
幢
撞毁
极其
籍
航
上海市
农@@
品牌
形式主义
最少
滋生
i@@
事先
倡议
辅助
坟场
深水
路@@
企
呼声
哥伦比亚
处置
少@@
望
联合会
index
一如既往
云
合格
科技局
过往
商谈
战胜
更改
选区
齐@@
专
呈
宪章
所@@
护理署
法团
等于
跨越
逮捕
柬
表面
象
代理
基督教
应邀
扩张
星@@
移交
签字
罗湖
领取
p
半@@
发展商
核子
销
$@@
2.@@
合共
听到
政法
本署
治@@
爱国主义
缓解
联网
储税券
台风
按季
注释
洲
山东
监控
香烟
一同
二000
电器
纪委
隔
初级
对策
景@@
中去
担当
逆差
陆
至关
见@@
资
x
接到
既定
民营
江苏
理事国
甲类
节日
邮戳
任职
出动
商标
洋
消极
火力
西北
y
诺@@
金钱
九二
姆
引述
意图
打开
播放
海基会
深信
深厚
清除
身@@
33
专用
动@@
北方
相反
简称
节省
超
阻挠
麻烦
伦
地产
推广署
门@@
不利于
人生
供水
全心全意
公立
合计
回复
得@@
最为
汉@@
狗
争
依赖
原有
忧虑
扶持
捷克
爱@@
赞助
防务
领@@
史@@
大胆
指@@
燃油
色情
颇
首长
高原
刊
库
裁军
迈出
例子
1亿
勇于
实质性
报案
新闻处
春
档案
歪曲
谓
内外
善
持久
百分之五
精力
统计组
肉类
蔡@@
领会
y@@
含有
困境
大中型
政@@
聘请
马上
wimax
五千
展现
申报
22@@
下台
偷渡
单一
派遣
罗干
轻
得悉
木
税率
不法
余下
评核
邓@@
配@@
雅@@
38
乌@@
单方面
实验
开幕式
循环
推荐
提议
揭露
海事处
种类
上任
急性
汉城
脚
葵涌
说@@
院舍
隆重
会场
册
处所
平壤
夜@@
承@@
机密
精简
约束
轻型
tmd
侦查
外籍
泳客
轩尼诗道
东北
中等
佣工
公吨
南亚
变@@
惯例
英雄
恪守
扣
料
结@@
退@@
多谢
猪肉
警觉
质疑
原本
投@@
致使
远@@
雄
仁
动荡
水务署
渗透
进修
众所周知
倡导
假日
军机
宏伟
市@@
影响力
房地产
注入
目
韩@@
」
上限
世人
付
刀
愉快
暂
洪@@
真理
绑架
通用
29@@
乌拉圭
前面
建国
成都
春节
珠
聚集
谅解
乃
二百
交由
战法
简化
脱离
预警
双@@
发起
杆菌
海协
甚
中医
台办
台阶
月刊
模糊
欧元
1@@
「
伟
少年
提倡
服装
档
石油气
迈向
难@@
周末
紧迫
调查组
驻军
到位
善于
平民
挑衅
注射
相当于
宴会
曲
替代
植物
荣@@
顽固
32
供@@
决议案
前后
变得
改@@
检疫
留@@
督导
走@@
削弱
司
学科
拍
精确
订购
———
承包
数额
新任
海港
福建省
读者
赌博
连战
信用
忽视
炮
股东
二千
五百
本土
融入
不便
佛@@
全新
工作组
弥敦道
三军
也许
男女
缴
转换
运动会
金字旁容
飞船
上网
势必
启@@
届满
范@@
首次
义@@
九九年
京都
创建
副秘书长
悠久
战士
抵制
自由化
补贴
赫@@
目睹
表@@
零件
9%
n
上空
党校
命
品质
干线
文艺
毒
美化
k
兄弟
列@@
情@@
求@@
药剂
陆@@
限期
al@@
工程署
终身
翌日
违纪
间接
一点@@
慈善
询问
交通部
亲身
体会
农场
场合
年会
日元
曼
狠
菲@@
高峰
29
4亿
任@@
咨询
女@@
树木
欣赏
航线
落案
质
五十万
享
准许
劳@@
口号
大概
定义
实效
战役
三十一
堂
妻子
森喜朗
欧@@
看待
费@@
中旬
单程
印刷
塞
获发
01
修
刊载
指南
更换
独立自主
相似
等候
聆讯
邮递
食@@
出路
化解
差饷
忘记
叶利钦
对此
整@@
有机
生机
礼@@
租户
较大
雷
云南
包@@
对立
常规
澄清
经贸委
2亿
400
一百万
商@@
四千@@
惩教署
消防处
简介
调解
难度
上级
产地
千@@
哪里
增@@
战备
民用
着力
谨慎
集
面@@
黎巴嫩
信用卡
满@@
种植
制成品
帮
库@@
推翻
支票
整改
就任
报章
政治家
歌
猪
艰难
货运
黑社会
引@@
疑问
融合
年均
灾区
理@@
贩卖
迈进
专营
办商
总区
故事
正当
真@@
经济学家
辽宁
遗留
g
参议员
外判
奥林匹克
香港人
善用
姿态
担忧
商用
弱
总统府
持有人
潘@@
社论
艾滋病
装@@
顿
1000
36
二月份
五千@@
六十@@
尝试
起草
逢
][4
体@@
印制
尽速
带头
延续
渔船
皮@@
血@@
认定
三十六
包装
十多
同盟
寄回
戏
立委
警@@
东方
副局长
女儿
客
总站
款额
环
禁
累积
贸易署
选@@
阳
专线
养
化工
守@@
折
祝
密@@
小康
年中
永久性
计委
银行业
专访
承受
接
摊位
祥
葡萄牙
二〇〇一
军民
思
病@@
韦@@
十几
发电
大小
尽@@
恐怕
护士
探访
搜寻
政委
纾缓
食物业
en@@
引
收看
有线
来临
深切
百分比
空前
航母
赤柱
适用于
阿拉法特
中介
捣
毒药
游
目的地
占有
带有
持牌
登革热
红色
车站
运
院士
吸烟
托
爱滋病
3亿
两@@
次数
游@@
禁区
路段
采纳
一九九三年
交涉
功@@
委内瑞拉
我方
相等于
送@@
钟@@
30@@
地质
幼稚园
演
管治
三千
交给
分裂主义
广氾
素
充实
协同
厘定
围
抓获
杰@@
沈阳
治党
独@@
过来
队员
阵
降至
初@@
周一岳
啦
坚拿道
整合
游泳池
玉@@
缺
三十二
乐团
产@@
商人
替
百万
诞生
谈及
六千@@
吸引力
故此
研究院
iii
以致
共产党员
巴士站
搜救
湖南
选定
银@@
5亿
医药
怀诚
精@@
良
间谍
冲绳
同步
容忍
或是
施加
显得
西安
远远
邮品
预报
三十七
天水围
支撑
救灾
流行
千方百计
大门
工作坊
拍卖
招@@
晓@@
曾俊华
耕地
跟踪
销毁
储存
富强
当事人
检
珍惜
稳
罪犯
轮候
五亿
光明
合力
团@@
存@@
投
担负
曼谷
根@@
玩具
贫穷
业内
亚太区
冯@@
头脑
慰问
显
申索
登@@
衰退
认证
一流
丹@@
九月份
伊斯兰
作者
冰@@
出境
参选
司令
易@@
正好
盛@@
除非
顺@@
颁奖
首@@
36@@
大多
姆@@
帐
氏
煽动
超出
黎@@
室内
容量
徒刑
找出
改组
落@@
之上
军舰
受害者
统计局
问卷
代替
俄国
妥协
智@@
电讯局
社团
荣誉
,000
乐园
办学
南北
可疑
地域
声@@
戒急用忍
本着
致以
藏@@
衡量
驻@@
一律
四十@@
希
照
短缺
红旗
顺差
in@@
仪
公安局
听@@
填海
推
游说
百分之二十
研究员
载@@
运送
顶
饭店
2001
4.@@
censtatd
丁@@
契机
巨额
张建宗
拿出
环@@
社会化
轻@@
载列
限额
一体
九八年
孙明扬
爱尔兰
陆委会
三千@@
名额
坦克
的士站
破@@
跨越式
兵力
办好
参加者
塔吉克斯坦
张贴
思@@
拓宽
深圳市
航班
pntr
r
上下
井
入境者
吊销
形
快@@
百分之三
租约
试
配额
东南
临@@
农
反恐
户口
日程
0
今晨
佛教
减免
常@@
战时
有序
经常性
起点
博览会
失
恩
森林
认知
酒
马英九
小册子
得出
想法
支@@
政治部
枢纽
民兵
消毒
至@@
订阅
调查队
低座
公署
前列
卫@@
吁请
呈报
图片
定额
成分
无须
经受
蒙
连串
马其顿
分开
库区
抛出
服
梦
盈余
经由
下滑
九十年代
亲临
切合
契约
市值
时段
汇
三月份
储蓄
六月份
容加金旁
息
手头
景
流失
状
盘
科威特
简@@
错
列明
有售
着手
福州
私@@
稳健
进而
黑点
an@@
南行线
护@@
提请
松
沿@@
空运
考@@
u
三十四
余@@
冲@@
墙
复盖
尽力
海报
热带
充当
勾结
家居
就是说
群体
调节
三十九
休@@
修正
兹
善@@
废除
霸权
35@@
下令
不幸
摄影
政界
江西
直@@
相连
自动化
草拟
象征
34@@
不安
世界杯
二千@@
制造商
权@@
节约
表扬
包含
规划署
起飞
跑
输出
邦
限
一亿
偿还
入住
单独
害
昌
浪费
笑
街头
6.@@
8亿
statisticalbookstore.gov.hk
专科
奉献
拉动
推@@
楼面
祖@@
端
署方
自律
评论员
事态
互惠
传达
内蒙古
印@@
四月份
影片
放缓
晚宴
汇演
泊车
网@@
联席
蒙@@
轮@@
采@@
不到
例行
宋@@
师@@
帐户
水警
蓝图
言行
叙
唐英年
想到
杂项
柯@@
绝@@
美机
二〇〇五
创@@
勒
帝国主义
所有制
顺应
esd
丹麦
九十
席位
报刊
故意
案情
背
转介
软
进食
34
专机
兵@@
婴儿
实用
强国
添
清洁日
痛苦
隔离
雪@@
马路
刻
忠
搭
摩@@
曹@@
此后
海面
营办商
被迫
0亿
作好
健
出色
动武
外发
实地
座谈
当作
心态
拍摄
文娱
瞩目
贵
通往
龙永图
ar@@
下载版
分行
加路
唱
奥尔布赖特
市场化
抱
搜索
数百
紧缩
罗马尼亚
配备
壮大
安老
文莱
—
中级
互助
人质
夫妇
性别
流域
眼@@
置
讯
辐射
集团军
伟@@
台湾岛
叶刘淑仪
宝
居屋
建党
适宜
长沙湾
7.@@
互补
八月份
补选
非公有制
鸡
1991年
亲属
军报
宗@@
志
核实
转运
量度
8.@@
中毒
亲
最低
立方米
规章
陕西
霍@@
5万
五月份
出院
压@@
威
扩阔
拖走
智
检测
此时
看出
般
贤
65
入场
出口额
意思
格式
疑虑
看@@
破获
约旦
视@@
跨
下旬
下调
人家
吕@@
文字版
文学
没收
烟草
电单车
职系
谢长廷
05
l
严@@
乙类
公积金
劳工局
取
另一方面
唐@@
学童
安宁
小贩
烟
神
肯
西区
3.@@
公职
剂
动态
同情
挺
救
立足
编@@
踊跃
1,@@
光辉
创造性
剥夺
及早
增设
库务局
用以
确
齐
12.@@
互补性
勇
喜
数码港
特首
甘@@
知情
研讨
股权
胜@@
规格
诈骗
适时
休憩
十五分
十月份
备有
布鲁塞尔
控告
通告
共@@
北区
基石
幕
成衣
无视
污染物
清华
震惊
顾及
预@@
9.@@
一连串
七十@@
国际化
城@@
天下
封建
急@@
排
流量
趋
退
降
严密
亲民党
名字
团队
外经贸
接着
无限期
棉花
调配
贫富
距
近邻
集成
高峰会
re@@
元@@
共产党人
冷@@
勒@@
展览会
等待
补@@
设想
那@@
6亿
乘坐
停留
参阅
巡视
座位
无意
杀人
核武
浪
申领
三十三
中断
四十二
多媒体
异常
弹药
微
教材
营@@
一千@@
二万@@
作法
八点@@
共产主义
捕
桑@@
烟@@
迫使
钟
随@@
一九九四年
九百@@
低@@
侵权
凭
拉萨
测量
炮兵
老百姓
致函
航空兵
近@@
造
中部
前不久
剩余
射击
居留权
得逞
新建
求职
耀@@
评级
负有
迪
仁@@
及@@
大学生
扣留
抵御
养@@
希拉克
应对
既然
现@@
而已
2008年
39
交回
入侵
尼日利亚
愤慨
普选
税务局
贵国
贾庆林
载货
38@@
一月份
任用
基准
外事
客@@
影视
文书
物@@
生动
百分之七
礼顿道
自民党
草
请求
赛@@
预约
,@@
前沿
宽
省@@
七千@@
众
助@@
卖@@
扩充
省级
5.@@
56
一边
严惩
二〇〇七年
供求
八百@@
参谋长
大肆
天然
抨击
沿着
法人
10%
〇@@
供款
手术
收受
松@@
楼花
气温
汽油
洛杉矶
牛
病房
监事会
贵州
贿赂
轿车
里程碑
48
:@@
二零零七年
傍晚
姓名
情节
锦@@
2,@@
7亿
七月份
世界观
同期
四十五分
居留
挂
时事
更大
柏@@
核证
沈@@
港@@
纪元
绿
菜
论证
试@@
中巴
人人
人流
六亿
大部份
崛起
彭@@
有时
深深
清拆
登
追@@
八千@@
冻结
分队
十二月份
章程
脸
调研
促请
信徒
分工
司令部
哲学
多样化
安哥拉
安徽
曾培炎
本港
知@@
矿产
37
二亿
向@@
四百
废气
异
所长
湖北
积金局
紧迫感
000
42
600
交代
八国
务
柏林
沃@@
税款
维
色彩
遣返
三亿
三分之一
倒@@
坚信
完结
异@@
抢劫
支路
新兴
淘汰
遂
遭遇
青
高中
业已
争@@
停@@
否决
平均数
征
沙
煤炭
细@@
能见度
违例者
防火
单车
压
巡航
怀
怎么样
症
稳妥
缔造
落斜
识别
上去
二万
众@@
党建
劳资
南区
带@@
扎扎实实
报复
相处
私家
策略性
通货膨胀
台湾人
妨碍
屠杀
屡
竭力
缴交
迷@@
阻挡
风气
丙类
付款
传输
友
喜@@
回报
奖项
抽取
指挥员
约@@
缓慢
行长
路子
遗产
1990年
保健
八五
往@@
微@@
截查
水准
租
立刻
记得
修复
准入
外出
居所
校园
短@@
舞蹈
表彰
谭@@
亿多
天主教
开通
班@@
跨@@
跳@@
麻@@
依托
修建
分化
副总参谋长
实事
敏
生意
真相
联大
裁处
让步
载人
彩@@
征求
得知
校@@
永
诺
分析家
别@@
庆
情形
戴
投票站
无数
视野
千万
回忆
定为
挪威
振奋
沈国放
自豪
蔬菜
长沙
阅读
43
作家
六点@@
华府
圈
招
海运
鱼@@
伤者
十一月份
尾
执照
河南
疑犯
诚
佩@@
奥委会
延@@
来往
沿岸
细
老人
调低
二五@@
克罗地亚
内在
出发点
夺取
封@@
射@@
掩盖
政坛
效能
日本人
曾@@
浦东
湿地
联手
严
中纪委
冰
博
如期
实习
庭
惠@@
抢救
朝@@
朝着
源远流长
电动
立法院
航@@
解
九龙城
助
姜春云
孤立
官@@
导演
屋苑
愈
短片
纳税人
缴纳
若会
西欧
<
[5]
传出
司令员
和睦
四点@@
牢牢
福利局
脱@@
设定
w
促成
妄图
字@@
宿舍
幼儿
怀@@
性@@
界定
直航
福祉
竞投
竟然
翻
藉以
计@@
51
at@@
二十万
八十年代
曲折
船@@
设法
评@@
退税
难得
频道
上年
下月
列于
唐
版本
瓦
生产者
百分之二
百分之八
皮
衣
酒会
锦标赛
2010年
区别
受贿
后者
备受
大桥
弹@@
推迟
最佳
波动
紧
过于
信赖
全日制
大堂
尤@@
尽可能
建议书
总参谋长
患
撤军
极力
正视
武汉
稳固
访客
跑马地
进军
41
卫生部
原理
吸取
工商局
救@@
李铁映
百分之五十
秘鲁
精彩
钢
阳光
争论
偏
冒牌
告@@
巡回
演变
索
西九龙
西南
财物
都会
配偶
jp
v
休息
先前
壳
广播局
数@@
毫米
氛围
消灭
热爱
袋
践踏
边@@
野生
决赛
守
沙士
蓝@@
公会
午餐会
墨
廖秀冬
心情
戈@@
换@@
极@@
西岸
五十五
入学
必需
恰当
根源
申奥
积@@
贯穿
赖斯
高官
forms
九千@@
党性
国庆
扭转
拯救
授予
沉重
环球
离婚
科目
草@@
董事会
行事
路口
迷信
那时
on@@
伍@@
切@@
囚犯
四十八
困扰
左@@
数列
未@@
百分之一
石澳
票价
耶路撒冷
预售
一一
七亿
军火
减税
凡是
原子能
存放
导@@
恶@@
扎@@
据称
暗@@
波斯富街
考
联会
音
东海
举动
促
切身
反倾销
根本性
毕竟
池
特约
督察
粮
纪检
群@@
路政署
集@@
面目
饭
香@@
骗取
信息战
决战
房@@
扁
抗旱
灵
盗窃
离@@
能@@
邮报
际
10万
吃@@
形容
拉姆斯菲尔德
横@@
民航处
济@@
瑞
财@@
ic@@
久@@
坠毁
接见
放松
误
长足
>
二百万
人道
优
优@@
典范
军控
因@@
增收
实处
最初
期@@
枪支
涉
百分之四
购物
走廊
身为
逻辑
阶段性
gdp
仲裁
卓有
双向
四亿
围@@
大于
奖学金
平方公里
惊@@
戒毒
提早
敢于
海水
答应
足@@
陈方安生
借@@
偏@@
公
坦诚
外交官
大队
失误
密度
广管局
必定
总共
拖@@
校舍
欢@@
此@@
罪恶
除@@
58
75
][10
三十万
主礼
亩
升@@
坚拿道东
并@@
忠实
歪理邪说
民警
程@@
议席
餐厅
马场
5000
判刑
动工
发明
四十一
夺得
定居
宾主
指挥官
滋扰
苦
逾期
二三@@
二战
副市长
排名
特使
盘@@
相撞
黑色
半数
在野
川
抉择
散布
有点
派@@
登上
盖@@
荣毅仁
赖昌星
er@@
j@@
停火
内战
四十七
姓
工艺
必@@
快捷
断
消@@
九亿
健@@
击
副省长
受托人
园区
归
承办
服从
毋
求助
虐待
行列
趋于
进攻
退耕
03
0万
七点@@
中医药
二〇〇二
互@@
假@@
兆@@
占地
备@@
惩处
渔民
湾泳滩
百分之三十
舞
节水
若@@
诸如
贬值
辛@@
驶入
上载
八亿
关岛
击@@
刚果
地段
少于
擅自
晚间
服用
梳士巴利道
水样
玛@@
路面
转业
锻炼
0%
三万
事物
仓库
何志平
党@@
愤怒
扑灭
抑制
抗@@
拟议
杨永强
硬@@
组长
美丽
频频
三点@@
参照
官僚主义
撞
攻关
核查
洋@@
盟友
红军
金融业
800
上面
优异
充足
冲
利比亚
受阻
慎重
火车
盈利
过剩
不错
五点@@
以南
余额
凯@@
分散
升高
影@@
总之
愈来愈
河北
注
泽@@
缺少
警报
误解
车臣
造就
阴谋
顺
cepa
专家们
出示
到处
劫案
受损
吸纳
周期
回落
工伤
年报
景气
证@@
险
上水
展@@
筹划
重任
47
st@@
中资
举世瞩目
九十@@
传递
保加利亚
党组
四十三
均衡
掀起
照@@
玩
迎来
金牌
3000
丰@@
俄方
好象
宗教界
府
忙
枝
档位
歌@@
水浸
潮
珍视
财力
高龄
3,@@
52
中药
争夺
会员国
兑换
创下
夜间
当场
数千
斯洛伐克
有用
法轮
观@@
遏止
钦佩
风云
与否
入息
呈交
哥
征状
掌声
比如说
民调
短短
转交
集邮
04
20%
37@@
号召
团伙
拟定
无私
牛@@
王忠禹
看望
续@@
联军
自称
蒂@@
体验
侦破
国军
宾馆
村@@
杨洁篪
程
艇
跨部门
顾@@
食用
不当
交汇处
亲人
即@@
叶
外国人
学费
开会
无限
海洛英
灭蚊
用品
研究会
研究生
说话
配
钱@@
银
鸟
之初
体育馆
制品业
扬@@
放置
求同存异
特种
理性
荣幸
钓鱼台
革新
07
临床
九龙@@
今@@
兼并
地铁站
客运
将近
尤为
急剧
换证
撤离
殖民
汉
珠海
病征
繁重
群岛
讲解
运输业
阳@@
一共
亲王
外债
政策局
毒@@
良性
较早前
9亿
业@@
义工
修读
冷静
印度尼西亚
古迹
大雨
妈妈
家园
居@@
开放日
懂
按期
无线电
标@@
核电站
理据
男童
目@@
自卫队
饮食业
pdf
中止
公用
农业部
单纯
受益
四川省
坚@@
探@@
痛
管理层
网上
讲述
身高
门票
从此
份额
六百
刻意
反省
复核
房间
早@@
查办
核能
残疾人
民生
用人
租用
肉
警
训
送达
食水
02
25823025
分项
响应
教育部
昌@@
民心
水库
省份
进出
06
到场
同等
国宾馆
批@@
挖掘
接轨
生命力
重播
野战
阿扁
陈述
青衣
丈夫
信件
响
噢
导航
折@@
样
榜样
现役
组@@
西行线
邮@@
雪
鲍尔
黎
10.@@
44
丝毫
串谋
九点@@
住院
儿女
味
四千
宣告
当务之急
汇@@
百分之六
赖
16.@@
人工
年青人
忘
扬
混合
用心
老道
药@@
53
什@@
佛州
去世
学额
教会
汲取
活@@
灾民
监@@
空域
裁减
误导
个体
京@@
八十@@
军工
剧
忍
推展
核裁军
森@@
球@@
眼光
眼睛
胡长清
过度
九广
做@@
历时
商定
商户
学士
学术界
惩治
抗日
抽样
指挥部
派位
猖獗
生死
男性
篇章
规范化
逐年
is@@
人身
大连
竣工
董@@
资历
人防
供给
减@@
卷
密集
尾@@
排放量
支队
画@@
一万@@
东欧
代表性
反响
夏
弃置
总工会
抗
政客
散@@
督促
第二十三
翻@@
芳
视线
迈@@
克制
复本
大专
孟@@
意@@
施压
构筑
演员
盛会
离岛
背后
英勇
账
轰炸机
金门
hk@@
ro@@
二六@@
倒退
宋楚瑜
敬@@
朝野
清单
盲目
省区
硕士
私隐
诉求
走势
错@@
震@@
150
49
介绍所
倘若
假冒
叶澍
常常
惩罚
捐款
晋升
温和
物理
玉
电路
结盟
艺
质询
遵照
顿道
一亿@@
一年
人体
代理商
岭
投身
未必
欺诈
诗
谷
趋向
马尼拉
[@@
不惜
勤
搁置
无辜
杯
牵涉
甲@@
申诉
编
获@@
蓝色
行之有效
进驻
邮寄
长治久安
雅
雨@@
ch@@
到@@
完毕
射程
战犯
指令
故障
毁
气焰
汤@@
短暂
讲@@
难道
副会长
动向
医@@
播
普通话
蓄意
虎@@
装修
隐患
务@@
去@@
太@@
工务
开业
归@@
忠@@
无产
曼@@
果断
矿@@
资@@
通货
.@@
业者
全球性
四十六
失望
对峙
川@@
年率
扣押
杜马
来讲
海协会
红十字会
经济区
缩减
警示
货@@
跨党派
转机
遗@@
马克
传送
就读
开除
泥@@
深度
深表
爱好
细胞
细菌
试射
购
重案组
08
it@@
密集型
对照
工地
循
放开
普通法
珍贵
税制
线路
考生
臣
谎言
路向
青年人
龙头
二点@@
力求
医务
四十四
型号
增添
屠宰
工序
悲剧
洪
激发
矿
迅猛
镇@@
世行
人文
凤@@
坐@@
己
或许
扩建
没@@
洛
灵活性
石化
维港
艺@@
落到
袁@@
议事
39@@
or@@
借助
办案
同行
女童
护
拆卸
李少光
洞
纪@@
细致
说服
还林
野
鸡只
13.@@
一九九九
佛
停车
公升
勇气
午夜
好像
宣誓
工商业
持牌人
检察官
渔@@
爱国者
珠宝
辽宁省
附加
附加费
难免
10亿
700
一并
丁关根
上班
乌干达
伤@@
副署长
卫
喝
市建局
教主
最早
朝韩
果@@
涛
澳@@
票据
竹@@
虫
表一
速
邻邦
锡@@
高潮
二千年
兹@@
危及
庆@@
恶
打下
朱总理
查获
滑@@
议@@
选管会
避@@
长征
问@@
限于
雅典
领有
一部分
保育
前年
址
底@@
影
攻坚
洗
王国
站@@
绕道
罕见
藏族
马列主义
isd
乡@@
叫@@
司法部
喇嘛
填补
宫
抵销
据说
病例
课目
跑马
过关
迪士尼
五百万
侨胞
商务部
投资额
放心
看好
社@@
美洲
色@@
静@@
音乐会
马克思
80%
从业员
原先
哈马斯
埃
意见书
挑选
斗
李长春
清晨
签
继@@
走进
鞋
06@@
丹
事后
伦@@
侧
侵害
受理
周刊
志愿军
戴相龙
最好
欧佩克
海事
海滨
涨
独资
维也纳
驻港
冰岛
占据
可喜
回家
好好
姚@@
温饱
火灾
百姓
穆@@
第十一
跨世纪
邦交
50%
加州
千年
卡斯特罗
土木
山区
悉尼
指称
救助
皇@@
筹款
领事馆
风格
00@@
co@@
一百多
例外
先行
卓@@
境
尤曾家丽
恶性
捐赠
描述
电影节
看见
称赞
第十二
筹办
管辖
要@@
负@@
车厢
重整
丝
主观
储@@
充份
农户
国旗
多样
属下
惜
惩教
沉@@
河内
泛珠
注明
组织部
职级
跟随
软@@
重庆市
15.@@
2万
46
ma@@
五十二
八百
卖淫
原价
宪
州市
巴尔干
模型
离境
突发
途中
酒店业
马鞍山
][5]
决策局
太阳
市面
扬言
拘留
持@@
次@@
步@@
泛@@
温度
登记册
编辑
职@@
计票
部委
重返
野@@
of
三万@@
上岗
云南省
伪装
原定
变为
场@@
寄@@
市政府
抢修
最@@
最惠国
梦想
款待
洪水
海啸
混@@
秋@@
艺术家
赚取
部@@
铲除
00万
上斜
中央台
兰州
出租
制造厂
加重
名誉
大地
大法
摩洛哥
救生员
烧
禁@@
蚊子
遇
偷@@
六十五
再@@
少将
延伸
总领事
执@@
挫折
支持者
旅行社
昨
村道
栏
欠款
济南
线@@
署于
遵从
集资
11]
开工
戴@@
民主化
痛@@
考量
补助
较早
迫
阐明
14.@@
17.@@
59
it
公益
发动机
圣诞
姜@@
教徒
散
明智
楼@@
海南岛
独联体
男@@
硬件
聚@@
苦@@
被告人
走私案
跳
造@@
2002
事主
删除
同业
感@@
来电
林瑞麟
税@@
统@@
自觉性
装甲
观赏
论@@
诸
败@@
黄河
oo
两千@@
使命感
依@@
发言人续
吉尔吉斯斯坦
咸水
四万@@
庇护
引用
拉开
揭幕
构思
汪道涵
肯尼亚
观察员
银线湾
院所
受雇
基础性
增速
庄@@
意向
按年
救治
教资
旺
暴@@
来之不易
瓦解
谢
一百五十
世界级
保费
候补
先得
兵种
办@@
参@@
参谋
启德
宾
座@@
性地
操纵
期盼
留学生
社工
符
罚
良@@
训练局
骆克道
57
85
下场
五角大楼
人生观
伙
四万
宜@@
引向
斯里兰卡
景点
核试验
浙江省
称@@
航空母舰
航行
贸易区
通车
逝世
骂
黑人
100万
中宣部
中小学
丰
他国
保释
勒索
喷@@
忠诚
成份
捡
探测
接驳
整理
次于
欧亚
毛
渐
爵士
理工
秀
罪@@
资料库
集邮局
1万
56@@
八千
北美
反动
反对党
弥补
执意
接连
教育@@
百分之十五
精英
领
了@@
减幅
局@@
批判
抵京
望@@
温室
虎
贵宾
透明
长城
青山
黄菊
er
交予
交接
俱乐部
升空
向上
审讯
容@@
投放
油田
流出
濒危
甘肃
绍@@
至为
虚@@
街@@
遥远
66
专程
仗
入院
军营
威尔斯
导
往返
抽@@
拜会
撰写
景观
枪@@
柱
梁锦松
欠
沙龙
海滩
烧腊
私烟
认@@
谈@@
贺@@
赚
车主
较量
造福
丰硕
制服
北戴河
压缩
台军
央行
展翅
日渐
期刊
百分之七十
舍@@
购@@
采
附@@
降@@
高达
19.@@
50@@
与此同时
共同点
关长
参院
四十九
增大
外空
按月
挑起
揭开
新春
暂行
杀害
洁净
演@@
演辞
社长
闹
阴@@
骗
一意孤行
五年
全国性
宏@@
宽松
戒@@
扣查
扰乱
湾道
班次
筹集
观光
边缘
逃@@
隆
高雄
50万
一站式
二七@@
产物
博览
墓
夏季
屋宇
应否
待@@
所得税
曲@@
有效期
社评
穆巴拉克
纪念封
统战
考察团
蓝军
血液
远华
阵营
黑恶势力
54
二读
军兵种
冬@@
凌@@
出国
动植物
小姐
开来
扩@@
攻@@
派员
浮动
渴望
爆炸案
特遣队
纽带
身穿
音像
15%
as@@
x@@
三分之二
主持人
丽
么
书籍
兴旺
大为
天地
头部
学说
得益
情景
接替
江苏省
混淆
爱护
物种
白色
粗暴
肉@@
表二
记@@
豪@@
防疫
陶@@
兴奋
坚
手提
技术性
步入
汪
禽鸟
秀@@
租@@
粒
终@@
萧@@
衣@@
试行
辩护
逆转
驾驭
骗案
二十分
决定性
危险品
台胞
壁垒
就此
州长
差别
当晚
扣@@
斌
涉@@
渣华道
王兆国
盖印
紧@@
解散
起步
近海
30%
一九九一年
二00一年
兼@@
华南
坑
实弹
无关
洗@@
百分之八十
耗资
身心
九七年
制度化
圆@@
宣判
差不多
广州市
敏@@
李国章
温暖
章@@
简要
罗马
随意
骨
鸣
前期
协
培@@
多国
差@@
报警
挽救
服务队
漏洞
灵魂
策
覆盖
辩证
五十一
六千
加连威
反弹
启程
旅馆
日美
更@@
求职者
维多利亚
蒋@@
转股
输送
连任
东主
伊利
会计师
保护区
元旦
切尼
撤出
文献
斗@@
桂@@
消失
激动
理财
种@@
穿梭
笔者
获胜
菲林明道
被@@
雄厚
高涨
不少于
世代
分流
嘉许
地道
崔@@
废@@
报告会
杨
渡
炸药
煤
现年
百分之五十@@
舍
议
设@@
证人
赈灾
连日来
阿尔@@
陆地
露天
95
][
一千二百@@
党支部
嚣张
土壤
宇宙
廖@@
拆除
握手
日军
有期
涌@@
电缆
种子
第十五
粉岭
经商
陆路
骄傲
丑闻
专递
伊万诺夫
勿
名册
含义
毗邻
波恩
灯@@
玻璃
自力更生
详尽
请电
车费
音@@
99
东北亚
伤残
停牌
分销
司@@
小泉纯一郎
弹头
抗拒
时许
父
申请表
畅通
网路
舒@@
营养
薄弱
贺电
40%
98
an
七百
人为
促进会
合作部
境界
投产
挪用
推销
旧@@
机管局
洽谈会
癌症
移@@
肖@@
行政院
诚挚
隶属
验
中将
军种
凭借
喊
大浪湾
宁@@
宁夏
安居乐业
扶@@
拖
日间
普
结构性
轻松
运转
都市
〇
俊
内河
助长
占@@
团员
奥
完@@
恐吓
断@@
案例
水污染
水管
节@@
蔡英文
辞
顶@@
业及
剧院
历@@
取向
合乎
堡
宏
山西
开启
慢
掉头
教育界
架次
柴湾
梅
死于
灿烂
疯狂
碰撞
细则
零点@@
骨@@
88
于永波
伴随
北行线
危@@
卿
坊
多伦多
延误
抛
招牌
换领
改装
早时
构建
欣
港商
火炮
炸
田纪云
界限
等@@
素@@
结
翻译
装设
观察家
轨
霍乱
预见
上层
主人
主线
代号
地区性
处方
开采
放慢
明报
晨
残@@
浪潮
相近
纵深
获利
钢@@
事发
交谘会
反击
后期
堆
对口
市中心
建军
担保
效力
斯特@@
烈士
纸@@
芬@@
阴影
难点
飞跃
18.@@
不明
五十多
冬季
友协
命名
季@@
志愿
操守
新德里
早期
气旋
水源
湖@@
突@@
获选
远离
1972年
iv
下面
事迹
五十三
兵团
升至
台资
国统会
增加值
客机
开罗
归还
海南省
漆咸道
秦@@
稍早
空调
练功
绿@@
通行
问及
休市
党籍
切
动机
劲
商铺
学家
审视
应讯
微软
提取
教育法
杭州
标
欣慰
死因
泉
深感
牢记
申@@
西哈努克
解体
访@@
轻易
远洋
销售额
阿塞拜疆
马时亨
el@@
ra@@
佳@@
品@@
士气
多样性
委会
季节
挂@@
捷@@
推介
故@@
方略
沪
百分之四十
置于
耶@@
葡
蒂
身边
退休金
退役
镜头
高峰期
一百零@@
五万@@
厚@@
国人
处处
强行
归侨
按时
晚@@
朋友们
母
流血
浓厚
灵@@
皇家
第十六
答案
翼
胶@@
自制
航机
觉
转到
遍
隔@@
驱逐
鲍@@
11.@@
48@@
mr
不等
世卫
击败
创办
受灾
多元
岗
影像
恰恰
所得
攻
智力
杂@@
梵蒂冈
残害
沉
注视
理所当然
经已
身材
转折
辩解
高出
信誉
固然
备
射
岩
招商
朗@@
灭
神舟
突尼斯
童
翠@@
许
调派
谢斐道
题目
下属
不得人心
乱@@
似
俊@@
元素
党纪
六国
吉林
唐飞
声势
多么
大赛
孔@@
寺
廿@@
征@@
循序渐进
成人
投注
推算
有害
服役
研究室
社群
置@@
贴
邪恶
量@@
一审
个个
举足轻重
二四@@
偷运
卸任
县级
夹@@
强迫
手枪
摇@@
测@@
调查局
阿尔巴尼亚
120
47@@
一千六百@@
入手
关系法
大厅
干警
抛弃
援引
本领
次序
筹资
舞@@
艺术区
赶到
铺
高空
三百三十三
价@@
优越
副总裁
劳务
勇@@
区重案组
发烧
商店
审计署
州@@
巨@@
强度
心声
招募
无效
深水湾
率团
用来
致富
追讨
鉴定
][@@
会议厅
保单
公元
兵器
回旋
弗@@
恶势力
提起
标语
港岛区
禁令
租住
获奖
赖@@
中联部
入门
参与者
听证会
地缘
坦@@
塞族
处@@
套@@
完备
攀升
救护
注目
牛肉
穷
经济体
股份制
莫桑比克
h5n1
万余
信息产业部
创立
变更
含@@
咱们
国际性
处境
扫荡
折扣
抢
柴@@
特快
盛
祖
缅
耳@@
腐朽
贮存
车头
进攻性
送到
释法
锦
除夕
顽强
鹏
乌兹别克斯坦
交界处
公厕
公款
冠
升值
后备
周三
增长点
头目
序幕
应有
弱势
急于
政策性
教练
朱琳
杜绝
样子
留学
空置
老板
认购
谘询期
过时
馀@@
与时俱进
为数
为重
事务所
五十分
关乎
其间
制导
华尔街
因地制宜
坦桑尼亚
大气
大都
开出
忠于
攻势
文本
旁听
极端主义
献@@
百分之@@
窝
虚
诱蚊
阿尔及利亚
静
00亿
三十多
举@@
二零零一
五十八
傅@@
大势所趋
奇迹
少量
手册
搬迁
果
水果
相对于
示威者
育
致@@
衔接
200万
3g
90%
96@@
le@@
东扩
圆
完税
家族
年轻人
或@@
揭示
显@@
核电
涉外
涌
淑@@
激光
火车站
炳@@
琼斯
由衷
网吧
聚会
获颁
赞比亚
连队
长久
li@@
与@@
专属
东帝汶
入职
兴起
养老金
刑法
反对派
君
天津市
幌子
日圆
本报讯
检@@
殷切
波音
注定
焦@@
移
索偿
纵容
观其行
门诊
飞越
09
不正之风
中长期
乘@@
二年
互联
交替
作主
匪徒
困
地租
孟加拉国
将领
成因
斯洛文尼亚
条@@
湖北省
滥
畅顺
经济界
编写
邻居
限购
ha@@
z@@
五十九
代理人
优胜
住@@
供应量
厕所
嘴
多于
宣读
晚会
植树
江西省
沙头角
涌现
申请者
离职
篡改
老化
自卫
茶
补
贩运
闹事
防洪
首日封
20.@@
党纲
剑@@
右转
各@@
娜
庄
心脏
想要
所述
摩擦
杀伤性
盛事
第十三
规划处
账户
过渡期
险恶
黄色
不治
亭
人造
仲@@
共和
工委
床
强军
拉脱维亚
欠佳
煞车
特惠
码
简易
署@@
调高
谋取
财长
车队
迎
远东
九百
今午
伏@@
使节
劳动党
双程证
反腐倡廉
国策
图案
市镇
录像
惊人
政要
暗示
用具
硫
签名
聆听
脆弱
脱颖而出
衣物
道东
铺@@
骑
3万
七十五
城区
复杂性
威慑
家乡
度@@
旅@@
日新月异
标记
沙伯
沙漠
派驻
源@@
球队
精神科
缔结
荒@@
途
雀鸟
雅加达
驻地
龄
不论是
公安厅
剩下
副院长
包围
太平
宇
平静
当家
房子
曝光
服@@
独家
纯粹
舱
莱斯
责任人
跨入
适度
逐@@
重型
鞋类
99@@
不如
主义者
九一一
二〇〇四
令@@
伪劣
前任
合成
婚姻法
工党
思潮
擦@@
改良
栋
百分之四十@@
百货
目光
祗有
私
筹码
评
输
酒后
附
侯@@
保守
兑
全数
六十万
前者
国营
图书
布赫
干旱
提供者
支线
河北省
洗手
绝大部分
聘
解答
说成
诺夫
超速
逼
陈云林
限@@
亲友
亿万
八万
再生
减缓
四十万
国统
外围
奇怪
学界
实体
寄
拜登
挤迫
旋律
玲
相距
舰@@
花卉
虚拟
迁移
过分
邮费
@@@
am@@
epd
产卵器
务必
劳教
呼@@
唱@@
地处
声誉
始终不渝
导师
尖锐
工商联
提拔
无偿
检视
海空
热潮
用于
电影业
疏导
购置
辛格
郑重
重开
首长级
60%
th@@
从业
修炼
后面
堆填区
懂得
拨
描绘
数字化
新高
有望
棵
活鸡
熊光楷
熟食
生长
百分之十五点@@
神盾舰
租赁
荒谬
萨
赞@@
速@@
非本
面值
〇三
三百万
业权
主席团
伊始
公有制
嘉年华
妈祖
安全法
实实在在
庭@@
彩
玛嘉烈
肖扬
芯片
诊断
诸@@
随同
雄@@
香
200@@
20万
人寿
列席
劳动者
发展区
发展权
召集人
名牌
多云
审@@
就@@
席@@
按@@
敌@@
新华
族裔
机械化
水土
浩@@
海洛因
科恩
立足于
算是
线索
缔约国
背@@
责令
运营
选取
预备役
风貌
ed@@
un@@
东山岛
九二年
介@@
位@@
低迷
全权
四十分
国产
在此之前
城镇化
威力
尼亚
强有力
总商会
扎
挖
损坏
插手
无力
明星
津巴布韦
炮@@
烧@@
牵制
莫
西铁
近代
进去
随行
雨天
享用
以东
以军
住宿
倾泻
先锋队
六四
单线
厦门市
因特网
如同
小型张
总队
拨出
拿道
昆明
标本
棉@@
浮@@
盛大
筹委会
耐用
肇事
设计师
通货膨胀率
儿@@
军力
哥@@
四百万
回教
场馆
官立
对比
巴勒斯坦人
巴拉克
必要性
或者是
技
抢@@
拜访
控@@
昔日
是@@
显现
民主主义
牟利
目击
离任
等到
财
酝酿
馀
][10]
][13]
不可@@
中科院
保护主义
养老
华裔
发展史
定价
师生
想@@
撞@@
民族主义
离岸
耐心
警戒
负责任
赫
郊区
酸
22.@@
70%
900
一八@@
丑恶
中国队
六万
刘慧卿
剑
区域性
占用
展品
念
放映
教导
无牌
有形
柯士甸道
段@@
烈
热地
片面
看台
礼宾府
董事局
行走
邹家华
酒精
青海
临近
五十四
传入
侨眷
六百万
刘
卢卡申科
印巴
发给
委@@
拟备
收获
数月
杀@@
演艺
稳定性
突破性
袭
观测
误@@
谋@@
邱@@
铭
露
非官方
预备
频谱
马祖
一千零@@
东涌
严谨
买家
决@@
向来
周一
器具
子弹
宪制
开端
情谊
格外
泽
珍
直播
签约
花费
见解
警司
话@@
逃
选址
重伤
重重
陆炳泉
饲养
/@@
58@@
92
chi
一千三百@@
五十七
僭建物
充@@
到期
勘探
十亿
实务
居于
揭发
敬意
机上
漫长
直属
认
语@@
贴@@
赠送
通胀
闽
阁
险@@
风波
餐
......
0.1%
57@@
es@@
三年
上游
乐意
习@@
乡郊
井@@
假设
六十四
准@@
几百
区局
周五
外相
存有
宣@@
小学生
崇@@
房署
查明
标书
渠务署
爆
立党
签定
约值
编配
见证
课堂
赛马
辛勤
还@@
销货额
黑客
七万
下达
不遗余力
五千万
供电
勇敢
卡塔尔
可怕
周密
想象
推选
教唆
正气
沿坚
特权
申述
百分之六十
知会
窗口
经济@@
综合性
谈论
质@@
迹
闻@@
4万
de@@
上学
佳节
侵占
偏见
兼顾
大师
审定
更生
杆
欠薪
窗
终
能量
自主权
苑
荷
荷@@
说到
诺贝尔
起码
邮局
闻
青岛
青藏
鸭
价值计
反思
官兵们
山泥
所作所为
手持
捷
水面
清关
激起
玩@@
画面
畅
育@@
衣服
适@@
雨量
%
2005
20亿
公务
历经
反抗
同志们
天雨路滑
夫妻
媒介
子孙
宽频
巴拿马
收缴
激进
燕@@
特稿
犯下
疑匪
百分之九
益@@
祸
肆意
舒适
通航
长洲
──
上课
主动权
付@@
企@@
债权
六万@@
冷
原材料
启示
吴
居者
庄严
当初
损毁
权限
歌曲
测验
灾
犯人
界线
秋
科技@@
稳@@
编造
萍
谋杀
重量
阳市
驾驶者
0.2%
1979年
亲眼
冬
划
北海
印有
可观
奉@@
妇联
常识
年期
建筑署
撞倒
汉语
演奏
火力战
煤@@
百分之六十@@
第十四
答@@
要点
降到
68
一千万
一百五十@@
不适
五十六
亲密
倾斜
冒
分发
十五万
协办
博彩
坦率
度假
感冒
拿到
挤
插@@
施罗德
核潜艇
沿用
泡沫
消防员
电网
管理处
纪念品
编码
自信
规
讼人
评选
车位
遗体
释@@
阐释
高尚
64
下发
东行线
八一
列举
卢维思
国家级
安徽省
尖@@
抵触
拼搏
改制
明朗
油站
玛
禁运
穿@@
老一辈
蓝
薄
读@@
贵@@
运往
逃避
78
人事部
休
入党
兼治
升降机
参政
反潜
叶选平
后续
吹@@
宣示
小孩
德黑兰
打黑
执勤
改建
时限
欲@@
测控
礼物
穆斯林
经典
蛋
训@@
防汛
院@@
除恶
21.@@
78@@
ac@@
com@@
不久前
买@@
划@@
化学品
反正
回头
场面
埃塞俄比亚
摆@@
权威性
洲@@
海口
滞后
王光亚
珍@@
登记处
示
结业
网友
美日
蚊患
裁员
论文
转乘
迎@@
运输局
通讯员
韩杼滨
1978年
ing
下榻
专才
中立
二五
二八@@
从中
他@@
信箱
凯
利亚
华北
吃饭
哈尔滨
四十多
士官
屏障
年青
朝方
母语
津
畏
疏散
百分之十七点@@
社科院
聚
胡
船员
薪
被动
记忆
贫@@
迎合
遇难
配件
chinese/prod
ok
serv
中组部
交易日
会考
储量
克什米尔
内幕
几内亚
刑@@
厘米
吉尔吉斯
否
咪表
始@@
密
对上
导游
延期
批示
招生
敌方
数位
枪械
汇票
潮@@
移植
腿
视听
连系
金融界
马德里
25%
一百二十
一路
代表处
军政
寻@@
山东省
带入
开局
挤塞
揭批
携
王毅
约旦河
致词
财团
身分证
隐@@
香港岛
验收
默@@
25.@@
一味
五十亿
交出
仙
列载
夺@@
屋@@
废
待续
支配
效
文化部
渎职
爆@@
理事
疫症
百分之九十
盐
确@@
礼品
科技部
稍@@
见习
输@@
驳斥
鲁
96
dna
一连
事前
传闻
加利
博览道
厂@@
塔利班
填写
巴方
战力
换取
排斥
服务@@
母@@
淫亵
湖南省
潜@@
甄选
百分之七十五
着@@
越@@
远见
锋
黄志光
1989年
4000
ur@@
会展
作案
兑现
函
单极
吸毒
增值税
外游
婚@@
尴尬
岛屿
巡@@
弄
张铭清
捐
数学
无赖
水量
求诊
湾@@
理顺
罗范椒芬
舱单
角@@
角逐
败
赶
阻力
验证
12亿
97
严禁
仔
侦@@
升学
唐树备
国台办
土库曼斯坦
害怕
尼克松
打交道
执行官
投资@@
案发
治本
淡化
百分之十二
睡
瞄准
稍
立体
蓄
角道
解读
重心
钟表
须要
首饰
高士威道
in
何厚铧
共同体
冶金
减弱
加油站
周德熙
哀悼
地步
家电
宽带
寄予
打好
搜获
水下
河道
泪
灌溉
热门
益
粒子
综述
置业
署名
股@@
茶@@
超额
辞去
述
通缉
阮@@
阻塞
一九八九年
一千五百
七千
不一
低估
再就业
印度洋
在野党
地表
塑胶
宋
完工
惟
截获
择业
水上
漏
特派员
猫
由@@
膨胀
补给
贸
过硬
锐意
防卫厅
鱼类
46@@
两百@@
会堂
住所
体育道
先锋
孙中山
并存
庙
心愿
拿@@
排队
操@@
旗@@
河南省
炉
瓶
管辖区
统战部
行贿
辜
七万@@
东至
乔@@
二一@@
优点
势@@
发电厂
变数
咭
四分之一
处在
得奖者
想像
抛@@
报称
接任
散发
港区
电池
约翰@@
补救
诚实
请@@
遮@@
鸡@@
﹪
05@@
1500
73
佩雷斯
另行
周六
塞尔维亚
增发
师道
态
报税
排查
改用
琴
百分率
职务队
茨
赛马日
赤@@
马耳他
30亿
一千四百@@
中程
年级
情报局
抱有
指针
收生
昆@@
武官
沦为
流动性
熟
积水
称号
穆沙拉夫
象@@
通讯业
陆上
黑龙江
0.3%
亚美尼亚
传票
光学
公帑
农田
分隔
单边主义
塑造
康体
戒备
挖@@
新式
暖
毁灭
法律界
洋溢
热心
电视机
私利
简报
糖
纪念碑
练习
耳
营销
规@@
贸发局
足球赛
镇压
颠倒
hkma.gov.hk
严重性
中学生
二零零八年
作证
俄@@
八百万
冒@@
即日
参访团
发掘
变质
名列
周二
国籍
坛
培训局
尊敬
屏幕
岛@@
常见
心得
总干事
所在地
拨@@
挂钩
指挥@@
有赖
束
样式
检阅
清盘
用电
百分之十一
神盾
笑@@
蛇
订@@
适应化
遴选
铺设
110
一千五百@@
中型
为敌
主委
举世
免@@
冰毒
华沙
参展
发债
号@@
城市化
基辛格
婚礼
密码
拆@@
曾建徽
柳@@
水位
洞@@
潜能
然@@
燕
牵引
盛华仁
经济局
联委会
莱
衍生
跑到
透
骗税
上扬
事儿
侵蚀
便于
军转
合营
宾@@
尚@@
库存
彬
得主
政团
春天
治军
的@@
祝@@
组委会
野心
间@@
陕西省
领事
飞抵
饬令
鲜花
77@@
中欧
交叉
侨@@
便@@
党团
八十万
凯瑞
大麻
孔
宣传品
带给
平安
弃@@
引擎
息息相关
成败
拟订
摩尔多瓦
波罗的海
球迷
皇
盾
第十七
粉@@
精
负起
霸
饮品
魅力
0.7%
com
二号
优越性
佐@@
八十五
写@@
剧@@
卡拉
周日
团夥
开庭
扭曲
报酬
提法
汽@@
爆竹
犯@@
百分之十三点@@
神秘
箭
纵@@
罢工
群众性
西亚
贝尔格莱德
隐蔽
预订
0.5%
72
iso
专用区
丘@@
东面
传染
住屋
侵华
出庭
分支
刻苦
区署
友@@
变幻
合物
吞吐量
委聘
家务
容纳
岁月
旗号
检察长
济
爸爸
生涯
留念
相待
老年人
股价
芬
规划区
访日
走到
身亡
过重
运动场
逊
通关
阻@@
驻外
98@@
乌鲁木齐
区分
半价
哈塔米
唯物主义
固体
坐视
坚持不懈
备案
夏天
多哈
尤德
山顶
投向
搜出
效@@
旁边
社会党
科学馆
谷@@
跃@@
运营商
防化
一九八@@
争执
何椿霖
佣金
关联
兼任
出版社
出面
剥削
劳
半导体
受害
叛乱
古老
呼吸道
安老院
宣讲
布拉@@
感动
抚@@
李远哲
法制化
清算
灌输
牌@@
狂
玩弄
电厂
研@@
耶夫
蚊@@
谱写
赶@@
陛下
霸道
鸡场
1999
76
ir@@
一九九八
一百九@@
上旬
主席国
主教
人权会
努@@
地基
实时
寓所
展览厅
截停
打出
打掉
抵押
支持率
无党派
板@@
海床
突破口
缴获
若然
裨益
讨论会
貌
责制
运输@@
邀
高温
[6]
一九八八年
七十六
主政
九龙区
受助
后代
层层
属@@
帷幕
平息
形@@
抢险
旅游@@
晋@@
李文和
极度
滥@@
狂@@
百分之二十五
精品
紧迫性
薪俸
铜@@
id@@
下落
不可或缺
个@@
主角
以西
修理
其二
具@@
刀@@
加倍
发病
吉林省
命@@
售出
囚
域
守法
实业
币
打仗
扫除
接报
文革
新生
柯林顿
浅水湾
源于
现今
电气
电车
谈起
谋杀案
贪@@
进来
选购
铜
长途
飞往
鼓@@
0.4%
130
一九七九年
乎
二九@@
体重
克斯
免受
冠@@
吴作栋
回报率
埋伏
奖金
寿命
小麦
崇尚
幻想
总参谋部
政绩
敞开
无可@@
期内
校内
涵义
相辅相成
着名
筲箕湾
纪念日
翔
联勤
融@@
警力
追查
集结
驶至
ci@@
二亿@@
保护伞
俱@@
借贷
公诉
园@@
女孩
安全带
强弱
抗衡
拜@@
接手
教员
有趣
欣@@
监察部
粉碎
维吾尔
行劫
视觉
论断
论调
负荷
资政
迫害
逆
遇上
邮轮
郝@@
闹剧
陈健
.com
1.5%
1985年
40@@
亮相
刚@@
勤@@
参赛者
只@@
坎@@
填@@
并进
引渡
忘@@
总参
招致
文化@@
普遍性
有时候
根基
楚@@
欢乐
煤气
物体
犬
百分之八@@
缘
葛@@
讯号
豪
趁
跑道
酒楼
长期性
首府
2003
28788246
休假
传销
何鲁丽
全程
关系史
制衡
副国务卿
协@@
卢古嘉利
吊@@
实兵
宣传部
市局
年份
怪
慢慢
拉大
挥@@
正规化
毅
盼望
祥@@
绘画
议决
通行证
魏@@
77
亡
传来
俩
几@@
加沙
印刷业
反美
回去
地价
坚守
壁@@
家具
居然
带到
战舰
损
掌
政治化
昭@@
校本
洲际
滋事
牙@@
秋天
第二十
纲领性
经纪
聪明
菜@@
购入
转往
邪
错综复杂
阿拉@@
震
颜色
东道
中山
任内
作物
克拉@@
六十八
勘察
华夏
县@@
周恩来
商船
回合
墨@@
大搞
天空
奋发
巧
延迟
总计
撤@@
无形
无比
本局
标准化
海拔
瘫痪
百分之十四
签@@
经销
耀
行将
贝
集中制
集装箱
领导层
66@@
参演
变相
器官
大奖
姑息
察@@
寻常
废料
忽略
押@@
料@@
洁@@
深思
漂亮
球员
百分之十四点@@
科学化
立于
竞@@
莉
较@@
队长
防扩散
驻守
1988年
28781687
ep-3
中介人
二零零零
任志刚
伊斯兰教
倾@@
六十二
凸显
力气
加油
只好
复谈
字眼
孤@@
安全观
宫@@
工作量
庞@@
强奸
征税
怪@@
授@@
改动
旁@@
昌盛
普法
桩
淡水
物力
特性
猛@@
现存
示@@
胆@@
诉讼法
诊治
译@@
谢意
附带
颁授
24.@@
军地
列确
刘淇
剖析
历年
坚拿道西
壮族
宋健
山火
录用
录音
思源
慧@@
截@@
扑@@
抗美
报表
早前
木材
柏
民主党人
游览
爱丁堡
生前
申请书
睹
肥@@
获释
财税
边疆
重演
鸿@@
26.@@
50亿
一号
一百六十@@
七百万
专业化
免税
公投
分局
列强
利害
别有用心
割
劣势
南面
卡特
告别
呼应
定于
底线
廊
征管
承保
报价
放到
桥@@
沙特
法理
熟@@
看作
禁毒处
立陶宛
脚@@
舟
草地
葵青
西化
讼法庭
评为
诺基亚
赵启正
足额
还有
退还
送行
随机
零售量
鸿
to@@
tpb
专政
丧@@
二〇〇八年
亚洲区
倾听
偏远
八十八
六年
减薪
几何
判@@
勉励
午宴
善良
地形
失控
布拉格
帐@@
拔@@
捕@@
换言之
方方面面
曙光
梦@@
点票
电讯业
穆罕默德
竭尽所能
继而
苏州
茂@@
谣言
走访
身处
轮值
这@@
迟迟
述@@
2004
im@@
东江
值@@
兴衰
内政部
制毒
台币
售@@
廷@@
心灵
忧患意识
探亲
来宾
毕@@
游人
激@@
牢
神经
第十八
组团
续期
背离
蒲岗
追加
预估
预祝
一九四@@
二百零@@
伦斯斐
使用率
免除
刺@@
固有
大体
始于
定时
总司令
排水
搬@@
有效性
有色
松懈
河运
百分之十三
西贡区
造福于
防线
隆@@
黄大仙
250
27.@@
em@@
〇五
上环
二〇〇六
二百多
任免
传教士
何况
修宪
内心
减产
出击
划定
加设
员们
工作@@
快艇
急速
技@@
星球
柜
正规
水泥
污
泊@@
激化
火葬场
灰
炎
球赛
疑
离岛区
私下
窃取
营办
赶赴
辞@@
违
连线
邦@@
防蚊
阳性
飞速
te@@
七十二
三星
专讯
会上
便利化
医
古物
后盾
吓@@
告诫
团聚
图像
大计
委派
小额
左派
弄@@
扭亏
抗洪
拆
明爱
期满
测绘
瓶颈
算@@
糖尿病
翻天覆地
艰辛
讲求
诚信
选用
阿卡耶夫
主动性
产权署
作假
便宜
促@@
信众
养殖
刘江华
压倒
固网
培
天天
工程@@
布殊
异议
往年
意念
摒弃
摸索
撞击
收盘
敦@@
曹刚川
泛滥
温哥华
结成
者@@
艺术节
裁判官
读书
追踪
销售量
领汇
齐全
12%
23.@@
62
and
不单
丰富多彩
体能
保障@@
候@@
充裕
八号
其一
击落
分批
古代
后于
垂@@
审时度势
平日
应用于
引爆
恒@@
搭@@
攀@@
新台币
旅行团
无从
智库
梁爱诗
款@@
汕头
治病
祝福
祸害
粉
订下
连续性
选人
遇@@
锁@@
.....
13亿
什
全力以赴
卫士
变动率
口径
增补
外墙
定下
宽@@
尼斯
庆典
弊端
提堂
斯特
无理
时数
有识之士
朗
相符
纳米比亚
老年
诚@@
货柜车
辈
金边
钻石山
闯入
82
94
ab@@
on
专家组
先例
共青团
券
厚
叫做
员@@
咖啡
国歌
堪称
始
敌意
数据库
新近
机器人
步步
目录
继往
要么
见于
赌
遇难者
销@@
零部件
题@@
颜@@
驻美
高地
鸦片
63
9,@@
book
h5
三十五万
丰收
冯惠芳
北面
女人
安全性
文职
早晨
歧视性
法令
焕发
现职
畜牧业
研讯
科技界
程式
篮球
维奇
触@@
诗@@
述评
通话
邻
锁
闪@@
黑烟
1980年
30万
][6
七十一
主力
偏离
偶然
兆
内务
冰鲜
单元
南昌
厘
右@@
合唱团
堆@@
塞浦路斯
婴
引资
弱点
恐惧
才能
扫黄
抬头
束缚
柜台
游乐场
称霸
简短
航道
蒙受
行车线
详@@
贝尔
跳伞
问答
须@@
颇为
0年
九千
人间
企业法
众议员
优美
余地
八万@@
八年
出版物
刑期
列宁主义
剔除
合影
听说
填海区
复检
工作天
弃
恨
想起
捕捞
接听
政经
敌视
检查组
浓度
炮制
犹太人
献策
碧@@
简报会
罐
网民
翻新
联合报
金银
钦@@
门槛
陆战队
限定
01@@
il@@
www.lcsd
一九九@@
中西区
为名
以内
保守派
债权人
出入
击中
分期
加气站
圣
尼加拉瓜
山水
归纳
忧
摊档
摩托罗拉
敬
旧金山
景象
校董会
活泼
洽谈
测
爱沙尼亚
琳
电子版
界@@
竞争性
筹@@
筹建
管好
级@@
终结
联想
警讯
调度
赡养费
迁@@
迁往
释义
门口
需求量
靠近
韩方
题材
so@@
专栏
中叶
乐趣
再造
卢
卢旺达
告示
咖啡湾
基数
增兵
备存
多久
婚
官司
宠物
害人
悦
抵抗
术
林业
标榜
浪@@
灰@@
王英凡
盗@@
西九
赫尔姆斯
足球队
达瓦买提
这样子
追溯
郎
部长们
陵
高效率
鲜@@
91
三百多
不败之地
二〇@@
俄军
停用
分担
卷入
吉隆坡
善后
坡@@
岸@@
延至
急症室
息@@
慕@@
报到
接下来
斡旋
斯基
昼夜
本科
格鲁吉亚
氯胺酮
沙滩
流亡
猪只
用语
立法法
缺@@
谱
雾
鸣@@
0.6%
28781480
4,@@
67
ig@@
一下子
一九六@@
专案组
东莞
亚行
停课
健体
分管
制造者
即场
后方
唯@@
固@@
培训班
外务省
奋战
教堂
新界区
无端
晓
杜尚别
棒
照明
留给
端@@
粤语
约束力
诱惑
货船
贴近
车速
转轨
锁定
陈民杰
需@@
风浪
鹰
htm@@
七十四
上演
下游
不禁
九九
九龙湾
事端
二万五千
二千万
伸@@
何在
侵@@
倾销
全港性
况
副本
卢森堡
叛军
吸入
外展
大仙
太太
意欲
打素
拉登
拘@@
模@@
热切
特许
猛烈
祗
科尔
科续
组件
结局
落客
踏上
铺路
隐形
隐藏
雨后
领海
驳回
160
28.@@
\
不完全
二百五十
亚运会
信用咭
出事
即便
友善
叛@@
唯有
学风
幕后
抱怨
推卸
汇聚
汇集
生日
癌
百分之十六
盟
着陆
罚则
肯@@
董
责
贯彻江
进口额
适
透@@
阻吓
食店
麟
14%
chinese/service
下挫
六十七
前天
县委
咸@@
复
对面
就绪
干净
建言
得益于
拉拢
李光耀
泳季
燃烧
百德新街
皇岗
简直
纸张
罢免
腹地
自雇
船长
训练@@
论点
语常
达标
过量
配对
阵线
集体主义
革命党
骚乱
高瞻远瞩
鸡蛋
30.@@
][2]
ip
la@@
us@@
〇四
东道主
丢
事变
于今
互通
交响
伯
保护@@
八十二
兴办
减至
前身
勤劳
君@@
启发
商量
增产
天星
奈@@
寒@@
布朗
师资
弄虚
弊
总装备部
意外率
抓@@
拓展署
掉以轻心
掩护
援朝
搭乘
撤回
核弹头
民族@@
泥
浅
深夜
特有
盒
相机
给@@
羊
自置
致意
舞弊
行骗
议论
谈谈
贸易@@
起伏
跑@@
返港
途经
500万
79
desk
tr@@
〇二
一举
不折不扣
书院
交付
交流会
关押
创造力
制高点
力图
反邪教
发票
堕落
失衡
宿@@
寸
对等
尖端
希尔
开枪
徐匡迪
投资人
据点
掌@@
接载
断然
污@@
玛丽
甚么
百分之二点五
约定
纪念馆
组织者
缔约
老龄
胶袋
良知
落网
藻
补助金
评分
赶上
逐一
链
靠@@
领导者
11%
1986年
ne@@
z
之类
以史为鉴
伊拉克人
侵略者
前述
勾
包机
卡拉@@
参
发送
哎呀
喀@@
嘉
国家队
宪@@
悬赏
成长率
战车
手表
李少民
杜老志道
求实
渡@@
温
片@@
百分之十一点@@
科学园
繁@@
纪念币
脑@@
自强
良机
规限
视作
这时
递@@
酒@@
0.8%
74
86
`
cnn
一九七八年
不同于
仰@@
像@@
单亲
参观者
喜悦
填
外电
外面
定论
小童
尤
岂
工程院
德治国
快乐
慧
戈
指挥所
斯坦
昂贵
株
毁坏
洪森
海防
淮河
添@@
湾泳
熊猫
狄@@
献身
生产线
百分之零点二
社民党
笔@@
美台
谬论
贾春旺
钻@@
问责
防御性
验@@
15亿
tc
上报
东山
两千零@@
乒乓球
二十亿
交待
人性
使领馆
信教
关键性
兽医
农奴
创汇
制成
卡车
反政府
发行局
可靠性
后劲
回港
大西洋
常设
年年
恒生
成千上万
我@@
投机
服务处
欺@@
死亡率
水电
沙特阿拉伯
液
混凝土
熊@@
物流业
理智
祥和
突飞猛进
结核病
缴费
羽毛球
耗@@
裔
要害
讯@@
连锁
退伍
钻
队@@
餐馆
鼓
87@@
ed
ep@@
仙@@
会费
偷
公道
内陆
助手
博鳌
品格
国界
夸大
奏
好评
实惠
工贸署
房屋局
找寻
投购
拒@@
放下
教派
数值
新闻社
无奈
杨医生
物色
狗@@
王后
疗法
秋季
端正
第二十一
管理法
粪便
纷争
缺陷
网球
菌
裁@@
许嘉璐
踏@@
酒类
销量
雨水
预言
93
services
九六年
交还
从未
信守
倾倒
六十三
共享
兼备
出资
分阶段
利于
商议
圣士
大熊猫
如实
干事
总编辑
恐
恐@@
愚昧
持平
文凭
查韦斯
源泉
漫@@
灰色
王克
百分之十二点@@
糖@@
系@@
翁@@
耶
自古
致死
薄@@
藉口
计划署
逆@@
选举人票
露@@
193@@
71
89
ia
pe@@
一千七百@@
一开始
七年
之余
付诸
伏
信息@@
利亚@@
副处长
加固
动乱
千禧年
协议书
四号
天堂
契@@
弱@@
恒
意向书
拍@@
早于
池水
浩
淡@@
演示
用水
矿业
粮@@
纪念@@
老鼠
聚焦
芳@@
苗@@
藤@@
这儿
阅@@
频率
驻京
鹿@@
一九七二年
七十万
予@@
八十四
勤奋
午餐
卡尔@@
吴荣奎
坎代
境内外
夏威夷
失事
孙
孩子们
定出
布隆迪
当成
彭
心血
搞@@
攻防
旺盛
油气
沿线
病情
盼
研
科技业
第十九
缓
美沙酮
节能
行李
贸促会
贸易业
长沙湾道
阿齐兹
陵水
鲜
5,000
5,@@
6000
@censtatd
七成
三亿@@
为由
位及
低调
保管
入禀
关头
军魂
几千
分判
升旗
升格
升温
县长
各民主
四国
土力
堡垒
夫斯基
套摺
存量
寺庙
岩@@
帆
帽
心目
把关
播@@
旗下
月台
栏目
殷@@
毁灭性
流程
潜逃
烈@@
牙
畜
百分之十七
缺席
蒋任宏
詹@@
调处
跌@@
车用
转运站
软弱
连结
通则
面对面
面额
风筝
1.1%
ation
七十七
不止
中成药
二五八二三〇二五
健儿
健身
入主
入伙
别的
包袱
南水北调
压制
堵塞
壁
对岸
岳@@
平减
开放式
护卫舰
挂牌
掩饰
普理赫
浅@@
深知
猎@@
生产率
用意
痴迷
石家庄
矿工
砖
祗要
章节
筒
纸币
茂
远大
郭伯雄
镜
零一
零三
黄埔
ic
tra@@
七十三
不切实际
两千
中意
五一
人格
仓
代表@@
充公
六十一
共计
减负
医学院
十二亿
十号
吹
喀布尔
定会
家用
容器
寒
尊@@
少女
归属
恤
慰安妇
批核
投降
指向
改正
教资会
无权
欠缺
步行
殖民主义
水灾
汗
涂@@
湘@@
爱心
瓜
电梯
疏忽
百分之零点五
矛头
缓@@
腾
艾买提
苦难
词@@
说出
车上
返@@
通风
钱财
附加值
飘@@
一百三十
三十亿
三千万
为本
乐队
九万
人际
众院
使用权
兼职
农牧民
受聘
司马义
吴敬琏
围堵
境地
夥
大关
干犯
平面
悲惨
成交
拉米
捐助
掩@@
摆放
摩托车
本法
歉意
段落
激增
琪
百分之十六点@@
眼前
私有化
税项
经济部
莲
薛@@
行星
警钟
议政
跌至
跨界
载客
辽阔
运输机
避寒
配售
门户
陷
198@@
bookorder
三成
主办权
兜售
八十六
冻@@
刺
危险性
四年
填报
备战
孝@@
学制
客车
尘
展览馆
幼
广度
强盛
情感
无助于
查出
检查站
毛主席
法学
潜舰
物件
生存权
疲弱
离退休
管理@@
维系
腾飞
蛊惑
诠释
越共
里程
错过
风雨
马里@@
100亿
2.5
七十八
下落不明
依旧
促统
净@@
分社
呕吐
孕妇
崩溃
库奇马
念@@
惨剧
慈
戴秉国
拟@@
敷设
来源地
棉
棋
波折
爆裂
百分之零点一
皮肤
盆
纳扎尔巴耶夫
脑
薪@@
觉悟
记分
评议
诊
较好
陷于
饮料
6万
al
qu@@
the
中式
九成
二五三七一九一〇
借款
出身
刑警
剪@@
劳顾会
千瓦
即止
同心协力
呼唤
四处
地上
塘福
奉劝
存入
审阅
对对
尘@@
屈@@
山西省
巴拉@@
布告
延
拉戈斯
拍照
排污
援
摩
摸
整整
文康署
文锦渡
映
柜位
概述
注@@
津@@
流传
浦@@
献
电站
盈亏
社会@@
粗@@
联交所
芝加哥
获邀
说服力
赠
辑
递增
铁木尔
阿族
ps
五四
使@@
保护法
全天候
全职
农作物
出卖
加国
升降
危害性
反感
发还
嗯哼
坤
外观
大海
实物
察觉
当好
得力
怀孕
损@@
旅发局
暂@@
有价
氯@@
流转
淡
留院
百分之十九点@@
百分之十八点@@
百分之零点三
确切
祸@@
编撰
荒
落脚点
誓言
讨@@
说到底
造林
邦联
邵@@
重建局
野蛮
钢琴
顾虑
1.3%
1984年
1987年
28699568
83
九百万
以北
伤员
俗称
保税区
党史
净化
南沙
发觉
台北市
基因组
外科
大韩
天台
奔@@
弥@@
扫@@
报关
接管
斩@@
暗杀
架@@
查找
欠@@
毒害
沟
热衷于
燃@@
犹太
猛
瓦斯
移送
空白
简介会
美食
自行车
致谢
许仕仁
识@@
败坏
跳板
躲
运河
送给
逃离
选项
遭@@
间断
难忘
面试
餐@@
140
2.5%
7万
8万
mar@@
〇〇
不雅
中秋节
二八四二八八四四
仇恨
倍@@
八十一
八十三
农历年
冷藏
北南
厄
原始
发信
基期
大火
妈
审裁处
察
寿@@
岗@@
巧@@
市署
怡和街
总和
抵@@
控制@@
摘@@
收窄
是非
更迭
流行性
瓦杰帕伊
生产量
生活费
略@@
疑似
知识型
破除
积
缩@@
羊毛
脸@@
荣获
虚报
转用
轻伤
郑州
郭金龙
里头
长裤
隐瞒
龟背湾
1.4%
1982年
ca@@
两栖
两百
九十九
事务部
云云
人民网
修养
傅铁山
分部
压迫
周光召
地产业
宿位
寒冷
希慎道
怒
手工
打死
抽查
抽签
抽调
接班人
摸@@
斯德哥尔摩
来京
染@@
残酷
离场
穷国
纵横
蓄@@
西面
觉@@
通力合作
遂行
郁@@
青春
马尔@@
1.5
81
87
ho@@
⑻@@
一百四十@@
世界性
中队
位居
供养
克拉克
六成
加装
千禧
受访
史实
听闻
响@@
响起
域名
峰@@
帮@@
干事长
恐慌
慈@@
报读
押
桃@@
汪@@
沙祖康
泊位
测绘处
湾仔区
犯案
电费
竹
网络化
而不@@
胸
记者们
资源部
跃
适切
逃税
遗弃
驱@@
194@@
2000@@
33@@
69
一面
专案
中英文
么@@
互连
减排
初中
华街
吞@@
国库
塘@@
大亚湾
奋进
害@@
富国
工资率
差额
得票率
总表
悄悄
摄氏
明文
流向
清明节
港九
港府
游击队
灭@@
熊
猜测
班机
石头
纠@@
耐@@
耗
联合@@
誉为
证者
详列
购票
贷
迷
里根
防控
霞
饲料
鸿沟
0.9%
1.2%
863
su@@
一百亿
三道四
东西方
东风
亦@@
亿@@
任意
倒塌
先导
加之
十足
单向
占有率
吉佩定
复活节
工程处
户@@
扣减
新闻网
民运
汇丰
污蔑
泡
涉台
港澳办
秘@@
租客
组织法
胜负
胡鞍钢
航空器
落户
诉@@
贤@@
饶@@
黑龙江省
1.6%
一方面
不管是
五百多
佛罗里达州
便捷
公司法
剧变
副外长
劝
劝喻
化石
医治
协力
原意
启
售票处
圆桌
坡
实实
广电
得奖
志强
总后勤部
抗生素
摊派
晴
暖@@
服务站
本处
殴打
汤
消委会
润@@
班禅
田径
空话
经贸处
羊@@
腹泻
自由党
获益
落选
融
被捕者
西气东输
识
赵衍红
趋@@
还价
连道
钧
问到
阅
1.8%
300万
丝绸之路
个性
乐于
仙湾
以方
伪钞
佐敦道
傍
共融
军校
刘华秋
午@@
厨房
周明伟
唱片
喉
外佣
多变
头寸
好几
姆贝基
客人们
布达佩斯
怀有
怎
急救
性命
拭目以待
搜@@
斜路
旅游局
有史以来
查核
殖民地
海龟
滥发
漫画
炒作
王光英
百分之百
百分之零点四
离去
精度
纲
莅临
蓝鸿震
藉着
远华案
逃走
遍布
长廊
阿罗约
鼻@@
1998
7,@@
es
ing@@
j
一万五千
一千多
三点
中青年
九号
二〇〇七
二零零三
亟待
供奉
侮辱
保险@@
元朗区
分级
区区
医师
印证
回访
处理厂
孔子
字样
定居点
宴请
巨
幕僚
年满
建材
归入
徐才厚
恰
悔@@
手软
执行@@
收买
收紧
本职
珠三角
稀@@
类@@
缺口
联通
脱
艰巨性
蒋正华
课@@
账@@
辅警
还草
造势
邪@@
酒吧
链球菌
震荡
革命化
预案
频@@
颠覆
饱
魔@@
2006
se@@
〇六
一九八七年
一千八百@@
九十五
二五二七七一七七
公尺
农药
判罚
单仲偕
反独
召集
向下
周四
喜爱
塌@@
墓@@
夺
封圣
延安
录取
徒@@
总协定
成功率
成思危
投诉人
新华网
旺@@
明明
李国@@
派系
瓦尔
竹篙湾
编译
苗
英皇道
迈
院道
须经
.hk
1.7%
][11
bo@@
q
一会儿
七号
东北部
中电
亮@@
任关佩英
八十亿
其三
副司令员
吐@@
地方性
大卫
大自然
安卡拉
完成量
定案
寓@@
巴林
平战
度过
执委会
扰
拳@@
掌控
接入
效用
旅程
无期
昏迷
朝日
朴@@
查证
棘手
水产
洁
浓@@
渔农处
疑@@
票@@
筛选
累
纽@@
纽西兰
联赛
船东
范本
营救
解雇
资讯@@
迈上
进口@@
避风塘
那儿
针
防鲨网
阿卜杜拉
陈德良
霍华德
飓风
首场
驶@@
100%
199@@
limited
pr@@
东铁
交战
估价
伴
元件
准时
刘华清
加勒比
南南合作
可惜
可见
外迁
多方面
大阪
失职
嫌
己@@
带备
建于
役
患上
悲@@
情报@@
成才
投票人
据@@
政变
晖
更生湾
机员
李荣融
来自于
杰福兹
棋@@
棠
欣喜
油料
泄露
泉@@
泊
牵头
甘肃省
电磁
白人
百分之三十@@
砸
礁
穆尔
精辟
纳斯达克
葵@@
薇
装有
装甲车
西北部
迪士尼乐园
面子
1997
专人
中国化
中情局
乃@@
云集
亚军
从政
偶@@
出兵
切断
利弊
动辄
匈@@
南湾
发扬光大
四周
基调
大义
大纲图
尼日尔
德治
悬浮
援@@
政纪
民政部
涨幅
滑坡
灾情
煲蜡
理应
百分之二十点@@
膜
莲@@
萎缩
葬
跻身
过海
银河
阮国琴
限制区
鱼雷
180
]]
一心
一百六十
中德
伎俩
免疫
公示
公私营
击毙
刘建超
副作用
发来
吸@@
垂直
复制
好多
对接
山坡
左翼
布鲁@@
年终
怀抱
悟
战斗群
抗击
拥@@
暗
有机化
有罪
极大
泄漏
琼
看清
真心
碰到
结余
英特尔
英镑
草原
表率
观察@@
讨价
讲者
跟@@
辟
进口商
速递
醒
钻石
长度
陌生
驻扎
鼓噪
44@@
75%
一七@@
五号
代表队
低空
体积
倒行逆施
六十九
共商
养成
冒牌货
冲破
北欧
单身
参访
各种各样
听众
哈佛
唉
地中海
基辅
壮
嫌犯
尺度
巨型
归来
总的
恶意
悲观
截
扫
拉丁美洲
探望
携@@
放眼
数百万
既有
机票
某师
欺凌
武术
溪
滞留
生命线
百分之七十@@
百分之三点五
祗能
秀茂坪
竞逐
第二十二
精美
羁押
肥胖
艇@@
茨@@
藏独
赤
踏入
随便
靳如超
骑@@
鸭@@
黑帮
40万
][2
is
ity
一九七@@
三百亿
不力
中转
主产区
二八六八〇〇〇〇
佑
分数
力所能及
午
南宁
口蹄疫
哭
处决
女王
奶@@
娃
属实
帽子
开学
强势
录@@
忍让
战友
招收
摇头丸
李华明
汇款
滑
熟练
电子战
留医
疾苦
盈@@
穷@@
纯@@
细心
缤纷
蚊虫
高压
1,000
三五
上调
不已
专利权
九九九
任教
会期
体操
光盘
典
前瞻性
副首相
囚@@
园艺
国庆日
外向型
学业
实名制
尸
屈服
愈@@
成年人
披@@
押后
撰文
时常
显而易见
河流
注意力
海产
清查
渡过
滨
猪@@
甘
百分之零点七
省部级
禁烟
符号
耕
职安健
舟@@
诉
载体
迁出
迟@@
遗址
邪说
金钟
钓鱼湾
铁路线
铃
闹@@
震动
马拉@@
驾
鸟@@
鹰派
ta@@
〇一
一百一@@
一百二十@@
三资
中南
之友
俗
制药
卡西亚诺夫
哲
堂@@
外办
外委会
如常
婉@@
安盟
强力
微生物
愤
战事
挡
挥发性
捏造
搞活
政法委
新闻局
某@@
核对
案@@
此刻
歹徒
深渊
热闹
爆窃
特意
王储
精兵
莫大
话剧
起计
车玉明
过份
迟
邮电
降温
非关税
骚扰
鲤鱼
鼠
112
61
95%
[3
f-@@
ti@@
ut@@
wi-fi
一九八二年
一九八六年
七五
乘车
京士顿街
亲戚
何文田
做为
催@@
八十九
凯利
出笼
劳动节
勾@@
参战
反之
取录
受助人
受惠于
周永康
哇
四五
圣诞节
在即
复康
夏萍湾
天文
局方
并重
幸@@
忧@@
戏@@
战斗@@
教室
敲定
旱
暴行
枪杀
甫
百分之一点五
石原
科门诊
纳税
耕@@
背叛
自治法
蓬
西伯利亚
西药
西雅图
警觉性
豆@@
贺信
赵
轮流
辜振甫
退回
适应性
那时候
酬金
钢材
阅览
陈至立
陵@@
难关
非国有
韩朝
颠复
黄昏
45@@
一九八五年
不振
不然
义不容辞
何钟泰
侧@@
保险金
光顾
冒险
凡@@
凶杀案
参众
取胜
受益人
含硫量
哲@@
奉命
妙@@
威胁论
宇@@
官邸
小说
局限于
屯门区
广交会
床@@
恋
打造
挽回
摄氏度
撒
攻击性
时装
曹志
杀伤
李承仕
止@@
正午
流氓
深入人心
添马舰
爬@@
理会
症状
目击者
省会
童@@
统计员
缆车
航天员
舰船
花圈
英格兰
荡
莉@@
营盘
设宴
词汇
赞
跟上
郑汉钧
釜山
长春
闭@@
闲@@
非但
颂@@
预设
风景
黑暗
f-16
lo@@
sars
td
〇七
上月
不足率
中层
亚欧
亮点
人马
体育会
何处
依次
共和党人
兴发街
刑
友人
台联
吓
呈@@
喝@@
四成
回购
场内
坎
埋头
奖章
安心
宽免
工作日
幻@@
战火
打假
报送
插
敏锐
昆
本色
来信
歌手
法宝
波及
滚@@
牵动
病床
益处
研究@@
科学性
突袭
管辖权
纠缠
肇@@
自学
蒲亭
视像
赛场
身体力行
车道
转发
近水湾
迷惑
阅兵
阿米蒂奇
阿萨德
雨季
馆道
鸿兴道
1.9%
16%
9万
ag@@
sh@@
sp@@
一点五
东院道
中智
九七
人蛇
佳绩
做起
分道
划界
受薪
困@@
城巴
奎
奥姆真理教
尼亚@@
屏@@
并举
张君
彩色
总公司
悉
抢占
搭建
摄@@
文部
旨在
早些时候
旺角区
昭
梯@@
歼@@
汇价
泄
漏@@
焕@@
状@@
琴@@
甜@@
生产商
百分之二点七
盆地
盗
科协
窝@@
竭
筹措
紫光阁
累@@
经济学
绵@@
脚踏实地
自首
荃湾区
贼
车祸
迈入
远景
逃犯
遍及
道义
针@@
饭@@
香港@@
黑白
1.0%
一一@@
下车
事实上
亲情
人命
写作
军装
划一
则@@
到港
劫@@
化肥
南美
听从
唯
基点
多方
大好
失当
小渊
应收
弟弟
归根到底
德育
惨@@
投下
持股
挫败
捐@@
揭晓
摘
撒@@
攻克
救护车
救生
李纪周
某团
横跨
油尖
消化
溢@@
犹如
瑟
甚高
症@@
登机
百分之九十@@
百分之十八
破裂
硬币
科普
篇幅
蒸@@
让@@
请教
踏
转播
辉@@
钻研
阿拉木图
须知
预示
题词
高昂
+
40亿
84
=
c&m
一九九七
一十@@
三成@@
专职
东西部
中美洲
仪仗队
企事业
供需
侧重
俞宗怡
党章
八一七
兼容
刊@@
制胜
剧烈
南华
吊
国泰
壮丽
大庆
大街
居委会
工业区
布加勒斯特
平道
总督
批发商
政府军
教统
敬业
晋
本国
桌
派出所
浆
海牙
灾@@
烧伤
王在希
珠@@
盲@@
碰
磨@@
筹组
紫@@
练@@
美联储
自助
营业额
裕
譬如
记载
贷款额
辛苦
追捕
1:@@
2.1%
google
与其
为高
举例
亲手
依循
侦测
全局性
写道
即日起
取长补短
受贿罪
叫嚣
同机
吓阻
垃圾@@
多极
太阳能
安危
富民
层@@
崇拜
工业品
帝国
微粒
成立于
或者说
投标者
护法
招待
排列
无穷
早餐
明渠
有鉴于
查清
核算
步兵
沙田区
深情
滴@@
牙医
甘心
矿区
管理者
谋划
贴上
辖区
通商
造访
道教
避开
铁道部
陈云
雷暴
革命家
饮水
黄海
for@@
gpo-1
两万
中国@@
二恶英
会议室
伯杰
位数
再接再厉
副校长
加多
勤俭
厚望
同学们
后巷
呆
四亿@@
四千万
在逃
坑@@
宇航员
宽限期
履@@
建筑师
录影带
打压
探
新人
末@@
梁建邦
欧洲人
游乐
潜水
潜质
现于
瑟@@
病患
禁飞区
离京
纠集
纤维
纵观
经营权
缴@@
职业病
肆无忌惮
艺趣坊
莎
订出
讲到
许诺
论据
选战
鉴@@
零五
静态
鼓动
齐心协力
13%
2.2%
2.3%
60@@
90@@
ec@@
no@@
什叶派
仓@@
保监处
关贸
典@@
分域
划时代
华东
卖给
原居民
双程
双语
反舰
受害国
吴基传
哈瓦那
商住
国别
塘
境@@
处以
夕@@
奋力
审裁官
寄交
建筑业
得来
悼念
慷慨
打工
指战员
挑拨
救出
救生@@
斗志
施
无非
普尔
样@@
母乳
海珊
涌入
滩@@
煮熟
燃放
版@@
版图
理事长
电子@@
疏@@
监理
盛情
窃案
肃@@
背道而驰
自居
苯@@
行政@@
议联
起火
输血
邮政署
长们
阔@@
霖
02@@
500@@
中来
也门
二三
人民军
优胜者
侥幸
倒闭
借用
包容
化为
厅级
厅长
发射@@
受骗
名词
喉管
圣人
多渠道
大案
姐妹
孙亚夫
就近
年纪
库务署
廉@@
廉署
开发@@
性格
惠及
愿为
房协
招股
拣选
暂定
本岛
格尔
横行
沈阳市
热诚
特殊性
百分之八十@@
省览
碟
童军
维尔@@
罗夫
罢@@
脑炎
腾出
芝
蓝天
蕴藏
贮@@
贵州省
送上
鉴
铸@@
阁@@
阴
零七
音乐厅
香江
验尸
骨肉
鹤@@
1983年
2.6%
215@@
con@@
pro@@
一千九百@@
一揽子
一般性
七十多
上下@@
上帝
主战
习
书写
交收
人民党
任重道远
伊斯兰堡
传言
低下
住客
停战
公关
具体化
匈
北部湾
升天
卫生@@
及格
双规
台湾@@
嘉年华会
国法
坚定性
壮@@
复杂化
夏隆
外衣
多哥
大政
妄@@
定性
定点
客商
宽减
尺
工业署
影视处
怒@@
怡
恰@@
惊讶
慎@@
扫雷
投靠
换代
政治性
敏感性
杠杆
来袭
概览
毁@@
消退
满怀
甚@@
疲软
百分之一点八
监察@@
秉@@
秘
签注
米洛舍维奇
维园道
老龄化
节流
英国人
表内
视障
记住
贯通
运动@@
通宵
部件
重叠
钱彤
阿曼
阿里
预警机
驻点
1000万
2.7%
29.@@
][6]
一九五@@
事务性
二00五年
代办
偏差
入口商
减速
副主任委员
包庇
发展@@
号称
囚人士
垫@@
孔泉
巡游
愈演愈烈
戏剧
技工
报税表
收藏
新区
暑假
有毒
毒瘤
水稻
求医
河野洋平
法纪
渲染
澎湖
点名
炼
照搬
牧
王凤超
玺
琳@@
电信展
界面
空降
精干
肆虐
脱钩
腐蚀
药剂师
评判
谈判桌
谦
趣
轮胎
通力
郑万通
金日成
铜锣
门道
闸
阵@@
阶
院方
音响
颂
2.4%
200亿
55@@
pp@@
q@@
一九九零年
一百八十
二百一@@
元月
公主
共军
农德孟
出租车
原则性
参数
反应热烈
另@@
召唤
国有股
地积
坚称
埋
大军
大势
大法官
宏大
察看
将士
展览@@
工作周
平凡
广华
弟子
得失
得票
打入
授课
操
文教
昌都
春季
曼德拉
李淑仪
束@@
档次
棚架
田弘茂
瘦
百分之二点六
眉@@
穿越
素养
紧接着
约翰内斯堡
续称
罩
航空@@
葡萄酒
诞
赌@@
赏@@
趟
辩@@
违@@
连年
里边
闭路
阿布@@
陈锦华
随地
风光
首尔
驻南
鲜血
][11]
万一
严防
九十万
九十六
乡村式
仇@@
企业@@
伐
余万
例证
六号
删去
劝@@
原子弹
受训
坚尼
堤
处级
学生们
尖
就算
居高不下
市容
干燥
廉价
廷
拉赫莫诺夫
指使
授
提名期
提防
摆出
擦撞
无畏
昂@@
桂林
水道
求真务实
海鲜
混
画家
百分之九十五
直径
眼镜
短程
神州
窗户
紧贴
紧跟
职守
药厂
蛇头
衰@@
诉诸
贫
趋缓
追随者
针锋相对
零年
饮用水
馆@@
197@@
3.2%
html][@@
mo@@
ts
中年
乙@@
九万@@
二五一一六六六六
人潮
低廉
体谅
修补
先决
全港
内脏
分之@@
包裹
十三亿
合一
型@@
处理@@
奖@@
妻
就医
履约
岭@@
并肩
底下
得分
抗战
握
搜
撑腰
改版
斥
有志
有益于
植
横加
水利部
法兰克福
消闲
港证
灌
爱好者
特质
用者
畔
百分之二点三
瞬间
礼貌
祭@@
缴款
置身
致歉
苦干
范
获派
著
蔡素玉
衰
警长
近似
迫@@
遵@@
陷阱
零下
顿@@
高额
鬼
鼎@@
&@@
17%
1949年
2020年
le
ooo
一环
三三@@
不可告人
为准
之士
二○○@@
交通警
依归
信用证
停滞
全长
冯沪祥
决策者
创伤
副议长
加蓬
勤政
单项
合法性
大增
大洲
天国
天线
孟加拉
安全网
官式
实话
成行
报业
报社
探明
撕@@
操控
收听
教宗
旭@@
时点
本部
李敖
棚
歌舞
海岸线
海洋法
深层
濒临
照常
王冶坪
碎
科技园
稿件
窗@@
糖街
红外
纹
线报
绅士
维多利亚港
职方
胃@@
胎@@
腹@@
药房
行情
袋@@
计有
试用
购销
逸
醒@@
长程
雅罗育
驱动
驶往
鼎力
.org
][15
][7]
tvbs
上季
专电
中通社
九十三
也就是说
仍旧
修葺
克尔
党际
公开赛
凝@@
刘晓明
加工业
医科
厉害
名人
哀@@
围攻
土地换
大宗
大洋
奖状
小巴站
小撮
尖子
屏
山市
已@@
并购
建构
开心
微电子
惟一
撤职
晶@@
更上一层楼
有偿
有别于
朴
林焕光
核威慑
欧元区
毅@@
法西斯
火化
牵@@
特设
王永庆
琼@@
百分之十点@@
笼
经营性
绕
胜任
荔枝角
调任
责@@
赌注
辛
辨认
进香
迫于
造谣
邹@@
零二
饮@@
43@@
pa@@
七十九
不是
中流
事例
二00@@
亨@@
估值
佐治街
促进局
共存
出海
劳模
占到
反社会
发言权
召回
同心同德
失修
宗数
宝石
实属
宽容
封建主义
幅员
延后
开车
开阔
徇私
情操
戴维营
拜
控制权
收复
收容
教科文
昭示
杂
李家泉
核扩散
根深
格林斯潘
氧@@
池@@
消减
润
深重
滞@@
畅谈
疾@@
症结
百分之一点三
百分之十九
礼堂
祈祷
福州市
私立
科夫
管理人
缓刑
艺人
英明
著作
行经
观摩
解难
诱因
赃物
走火
轴
远亲
追
露出
顿街
高官会
35.@@
68@@
][12
hynix
一九九0
一十
一厢情愿
三菱
二零@@
五五@@
仕@@
余吕杏茜
克列巴诺夫
公布续
六四@@
养殖业
军火商
分拆
刻@@
勃@@
协防
印发
印花税
厂家
厦
参谋总长
变迁
国门
奔
安保
巨星
帕
廿
张克辉
张宏喜
彰
律
心思
总揽
悲痛
意料
感触
打气
抗争
掠@@
未成年人
本文
杀死
校外
核四
植@@
歇@@
殊荣
残
残余
毒素
炎@@
烂
生化
电线
病者
登入
百分之一点四
相若
矿山
穆
第二十七
粗
精益求精
胸怀
腐@@
良多
融洽
警官
试探
购买力
越战
迄今为止
陈旧
集训
高雄市
*
1000亿
6,@@
:50:02
par@@
一针见血
丝@@
举国
买主
交易量
体育@@
侵袭
俞@@
免去
八十七
军界
凶@@
出口商
刘京
南下
唾弃
喀麦隆
地雷
坑道
头痛
奏效
姜恩柱
孕育
季候风
对应
工业国
己任
布置
建行
建议者
德才
总领事馆
感兴趣
感化
承
族人
无核
旧式
晒
普罗迪
来看
某部
染
槽
残忍
民主@@
海区
点票站
煮
牺牲品
登场
百分之二十三
直选
相差
磁@@
空战
米尔@@
编组
罢
罹难
腰@@
致信
舂坎角
艺术馆
袭@@
角落
造船
逼@@
银行界
陈伟业
鹅
105
1981年
2.0%
3.1%
3.5%
ad@@
ip@@
一百一十@@
丁石孙
三百五十
专长
业街
中新网
中线
主页
二百亿
五千多
交通@@
光彩
党务
入场券
写下
写信
劣
厂房
反面
告票
埋@@
大有
奖牌
子公司
存亡
宣
将@@
小小
小鹰
建设部
德里@@
必由之路
战乱
拟建
揭@@
收录
暗中
有名
杨文昌
核试
案子
棋子
气流
灯号
率@@
生成
百分之三点二
百分之二十一点@@
百分之二点九
监礼人
礼宾
空难
米切尔
累累
罗豪才
英方
营地
裂@@
购得
赫尔辛基
迁
部位
露面
项@@
风力
飘扬
高考
117
350
m1
m2
中日
义大利
乔治@@
九年
二千四百@@
享@@
仰光
住址
供应地
促销
值班
偷窃
军警
冷气机
分会
加拿
北大
参建
反空袭
唤起
娟
宁波
宋德福
小提琴
尧
峡
师范
干脆
建设者
开火
怡@@
惹@@
指望
援建
易于
月报
法塔赫
灭火
申
瘾
百分之零点九
看成
票数
空地
簿
精髓
羞@@
耿飚
联络@@
联营
肩
肩负起
膳食
花园道
订票
讽刺
课本
轮船
迫降
邝@@
镜@@
阿里@@
障
100@@
15万
16亿
600亿
de
et@@
【
】
一九八四年
业余
主轴
了不起
以身作则
伞
假币
停产
入围
出口量
分公司
刊出
判令
劫持
劲@@
厄@@
发育
品德
回首
地地道道
垫款
外军
好战
妇
委托人
娱
官僚
局限
帝
干群
幸运
归案
怨@@
执
攸关
教养
教统会
显露
本金
李炳才
村庄
柄
气愤
沛@@
沿摩
海基
清拆令
源自
特命
特工
犹豫
留任
痕迹
百分之零点八
短发
砍
确信
究
竞争者
第二十四
纳粹
缉毒
缘@@
肩@@
臂
自强不息
蒲@@
视而不见
触及
辞退
辱
造价
金克尔
钓
闭幕式
降雨
零时
顿时
骗人
鬼@@
170
18%
8000
●
一千亿
一百四十
不予
专注
中非
乡亲
事务队
二千七百@@
二零零@@
今期
保护价
信用社
僵化
军团
出口国
出走
劳工部
卑@@
叙@@
名叫
坝
堵
声带
大声
失效
夹
宙斯盾
宴会厅
巨资
幕@@
廉
开放型
引来
征集
德己立街
总长
批驳
拳
接达
摊
收据
救济
明知
服务员
杨永
次次
毕业于
水务
波士顿
渡海
爆炸品
牌照费
疆@@
百分之一点一
百分之九@@
百分之二十四点@@
百分之零点@@
皇帝
策@@
精密
索马里
纯洁性
组织@@
组阁
胡忠
豹
赏金
越是
趋利避害
过滤
远足
部级
重于
陆基
难怪
饱受
驻军法
骄@@
01月
2000万
2007
25亿
8,@@
ix
jo@@
三千多
不稳定
买方
交易会
交谘
佐证
佩
俯@@
充沛
养人
凤
分析师
剖@@
反恐怖
各式各样
周铁农
咬@@
唐纳
啤酒
复修
奋@@
姐姐
帐款
引人注目
张胆
总的来说
总结余
患@@
悬@@
投标@@
拟于
指导性
挺@@
捕捉
接种
收地
放射性
敬献
敲@@
旅团
李亚飞
横幅
毕道
沿摩利臣
法援
泳@@
洪学智
浓
海美湾
游戏机
湿
演绎
热那亚
猴子
百分之二十二点@@
百分之零点六
省籍
着力点
福特
科特迪瓦
立项
统揽
耐
节奏
被访者
视频
证券法
说明书
谋略
足球场
轮椅
输出国
追随
采集
陈果
除害剂
隔音
马丁
高超
鲜肉
1.2
23%
500亿
html@@
ve@@
一万二千
专营权
中直
二七三四九〇〇九
亏
亚厘
仪@@
价钱
休闲
伸
住宅区
侨界
克雷蒂安
免税额
八成
兰队
农牧业
分成
副所长
动画
南美洲
厂务
受审
变暖
口口声声
合作@@
四十亿
坦
复制品
外间
多用途
奖券
妹
层出不穷
广告@@
强加
径@@
必胜
忧心
戒
打牢
执行长
技术员
捕鱼
摊@@
新兵
朱丽兰
概况
民革
水渠
永葆
沃
沉痛
海战
灭亡
炸@@
男人
登记@@
百余
盐@@
督@@
祗@@
繁殖
缺点
耍
脚步
自发
萨尔瓦多
裕@@
西街
观音湾
译
贝尔@@
车牌
辜负
邮资
酷刑
须向
饱@@
马尔代夫
高中级
1年
2.8%
60亿
7000
][5
nnnn
一九八三年
东东
东道国
中银
体内
利便
制贩
副行长
加纳
华为
印章
呃我
商家
土瓜湾
坦承
外海
天然林
太原
审结
密不可分
工业用
应届
循@@
德米雷尔
总括
感激
抢滩
报考
掉@@
敌机
散播
数十万
斯坦@@
新意
新闻办
有关于
李明逵
查看
档主
档户
概@@
民选
水塘
渥太华
漳州
牲畜
狭窄
白南舜
百分之一点六
监
研判
稽察
精神病
编排
美金
耿@@
肥
腔
航程
落后于
葬礼
血肉
训练场
贴息
赎回
透视
阿巴斯
零四
领养
颈@@
食堂
驶离
魏茨曼
麻
1975年
28246111
ie@@
ms
一视同仁
不言而喻
严明
中湾
亚历山大
伟业
低谷
先生们
克里@@
六十多
兴奋剂
减灾
办成
南丹
反驳
召@@
台盟
商品化
塞拉利昂
增派
声浪
奎@@
奥克兰
寄托
寡@@
局级
崇德街
序
开战
当上
彦@@
惨
惨重
才@@
扫墓
找准
报告期
抬@@
改选
放行
斯托@@
施展
旱灾
曰
朱亚衍
杀手
检定
棍
榄@@
气象@@
气象局
泄@@
波斯湾
洙
浸会
特邀
白天
百分之二点八
码@@
第二十六
筹
简便
管有
纪要
组图案
美术
胶
茶叶
莹
衔
西门子
覆
誓@@
试飞
请于
轰@@
钉
门路
阵容
阿克@@
饮用
龙舟
17亿
oo@@
不公
丙@@
主席台
五点
伪
伪@@
侧面
停车位
停顿
僵持
共用
净值
刘云芳
前方
前日
势在必行
反共
受制于
另加
可卡因
可爱
史观
名贵
向往
呵
哪儿
喜庆
大陆@@
太空馆
姿
威信
威尔
完美
室@@
家们
屡屡
巨变
广东话
录影
徘徊
扼杀
报讯
拼
早报
晚些时候
李丽娟
欺骗性
正门
气球
氮氧化物
汉族
洒
派往
浴室
混委会
渐渐
烟雾
爆破
电信业
畏@@
百分之二十一
百分之二十四
眼下
破坏性
索引
经办
结晶
缩水
置疑
美分
腾@@
舰长
船务
花旗
花红
英雄主义
误区
豁免权
财经界
赞誉
赶往
轨迹
轰动
过路
选情
通信@@
通社
造型
阵雨
附例
零八
革@@
顶尖
风尚
马哈
魂
默
龚@@
000万
10,@@
113
1945年
25456182
4.5%
75@@
[13]
legco
m3
s/@@
一百七十@@
一百三十@@
不容
不得已
九九@@
乳@@
二千零@@
五分之一
仁济
仿@@
企业化
偏袒
入伍
全盘
六千万
共建
关爱
军车
冬天
分量
利臣
制售
劝说
十一五
卸@@
厄瓜多尔
原则上
台长
司徒拔道
吉布提
吊车
学法
崩@@
幼@@
弘法
弟
张目
当即
彦
快餐店
惊
慢@@
打响
披
推动力
摆上
日数
有识
检举
横向
民情
泥土
涉爆
液体
漠视
激情
炸毁
炼@@
牌子
独霸
申请@@
电报
男士
百分之一点七
百分之二十三点@@
票务
程控
稿代
窄
立功
笼罩
纪
缔约方
缝
考古
联队
肝
肝@@
脉@@
莎@@
薄弱环节
起于
足联
转制
野外
青睐
骇人
高尔夫球
高屋建瓴
.gov
2,000
70@@
85%
〇年
不合理
东湾
乎@@
九龙塘
争议性
伸出
佩戴
供应处
光纤
兵员
农地
减慢
凶徒
出口@@
分之一
切入
判定
利民
及其
告终
周到
国安
均@@
外套
威望
寄出
封杀
帝@@
废纸
张国@@
彼@@
微妙
志愿者
怀远
怨
总后
悠@@
惟@@
把@@
捣乱
攀
新造
无知
月底
植被
歧见
歧途
氢@@
汤曜明
测算
溶@@
滴
灯光
点燃
狱
王刚
百分之二十二
百分之二点四
硝烟
磨擦
称职
纳拉亚南
纷@@
维尔
脂
致敬
航运业
船次
英文版
茅@@
荔@@
获赠
萧
蒙骗
薄熙来
要员
覆@@
访谈
译本
诱
赶快
超前
返抵
迟于
酌情
重振
铤而走险
靠拢
颁奖礼
驶
132
][9
af@@
一千二百
一成
三千五百
不择手段
两千多
中小
主讲
九五年
二氧化硫
人行
估
保安@@
倡@@
入口处
减省
刻不容缓
加密
区位
十点@@
参股
可耻
呼
圣地亚哥
堕@@
塑料
墨尔本
外销
多功能
奴隶
如意
屈
屹立
幻影
德尔@@
必不可少
忍耐
总纲
想想
戈兰
战果
手袋
批予
抗美援朝
掘
收拾
文康
斯科@@
时分
服刑
机械@@
梁刘柔芬
楼市
楼龄
横额
殊
殿@@
沉没
沉默
淮
港方
潭
灭罪
痛心
百分之七@@
相隔
看似
真实性
眼界
碧
社交
禽肉
租者
稍微
突显
管理署
精华
糟糕
紧接
美欧
萧炯柱
落入
装载
认罪
财年
连环
邀@@
酿成
银牌
闻名
阜@@
阿不来提
霍文
额@@
饰@@
马湾
骆@@
骗汇
高危
鱼塘
龙景街
1-@@
3.5
35%
36.@@
:35:02
gu@@
{
一九三@@
下院
中心组
传单
倚@@
借机
先驱
全日
公仆
关口
分娩
利湾
前去
副代表
北总区
卡多佐
参予
发性
咳嗽
垮
城门
增效
天军
妮@@
寻回
尔德
岭南
年长
店@@
开进
张德广
情结
拉莫斯
援助署
搅@@
易燃
普及率
晶片
曾荫培
本土化
权责
来源于
杨孝华
校方
格林@@
楚
比拟
毛里塔尼亚
沃尔@@
沙岭
溪@@
生产国
百分之三点一
盾牌
看守
眠
福克斯
科学界
等同
管线
索拉纳
红油
统合
美苏
翠
翼@@
胡国兴
航海
苍@@
蛮
讲究
讳言
详
贯@@
边远
违章
逼近
金币
零售价
零售点
雷根
青海省
革
鱼礁
3.4%
400万
bc
ers
一九@@
一成@@
不复
不定
东条英机
中关村
主宰
乙烯
书刊
价位
伤势
估价署
侵入
保守党
信函
停靠
克莱@@
八十多
公海
出门
刷新
勋
匆匆
县乡
名将
吨数
吹嘘
器@@
四点
四百多
图片展
坪洲
太空船
安民
家中
岛国
工业部
巴勒斯坦国
幼儿园
建制
开立
彼得
恳@@
惨案
感慨
愤@@
抱负
拉斯@@
招呼
择优
挑
接壤
攀登
敲响
星期天
暑期
有损
机种
材
来回
构造
枉法
检疫局
欢庆
水价
水费
浦
特尼特
王炬
现况
疫区
禄
禾
种族主义
立业
经理级
罗宾逊
美籍
胜出
胞@@
蒙蔽
要是
货仓
起降
超市
过早
郡
都@@
重用
问责性
闯
防灾
频密
颖
风采
马湾东湾
驱使
1200
65@@
ard
csb
da@@
ice
一致性
七三@@
中原
丰田
乏
九十二
从重
仑
以防
份量
公使
养鱼区
凭@@
割@@
勘查
匡@@
区议员
医疗队
卖方
卤味
卷@@
反科学
受雇于
史密斯
吴官正
复活
天晴
奖赏
字符集
封闭令
干诺道
平常
幸
库克
废止
总政
成年
指派
挤@@
提炼
改作
整体性
文汇报
斯塔@@
旧址
昂
来年
极限
柜员机
查问
梅窝
浩大
涅@@
淫秽
漆咸道南
灾难性
爬
生殖
留用
病学
相约
眼泪
短信
碰@@
秘书@@
称作
税额
第二十九
管用
绳@@
编成
职员会
职训局
联名
股本
芮@@
苑茁
苦练
诱@@
贺
跃升
轩
近代史
送院
逃脱
逆境
重估
震撼
额度
鸟类
22%
ion
~
万国权
不屈不挠
专利法
世世代代
主意
主旨
九十七
九十四
何以
保安员
克罗@@
党外
公害
减亏
分离主义
功率
厌@@
可取
含糊
国防军
地毯
外务
大举
大坑道
大潮
威尔@@
娜@@
字符
宝钢
审议会
巴士线
巴沙尔
广东道
广为
康庄
形形色色
影印
恩格斯
惹
愿景
打到
抓捕
担@@
拉那烈
挑@@
摇
旅馆业
昂坪
松绑
析
格里@@
橡胶
歼八
气势
法郎
海尔
灌@@
炎黄子孙
烧味
片段
牙科
筑
管局
米尔
终端
罗素
聘任
聪明才智
胸@@
脊@@
蓬@@
藏文
虞
计划书
记忆犹新
诋毁
谨@@
赤裸裸
躺
边宁
门外
震慑
青见
饭盒
高炮
黎可漂
0/@@
45%
ce@@
me@@
sa@@
一九九〇年
不容忽视
丛@@
丢@@
中秋
主力军
九四@@
二氧化碳
仿真
何方
侨
偿债
傲慢
兜@@
冈@@
再见
军中
刘锦洪
创业板
励@@
协调员
危
吃惊
国际台
堵截
墨西哥城
复查
妇@@
姐
实质上
富而思进
尹@@
居港权
巨头
师长
平整
悬殊
所有权
投票日
招聘会
拥抱
拨入
控烟
推到
推测
援藏
数万
无烟
次日
欣欣向荣
残骸
比起
毫无疑问
沉降
沙尘暴
沧桑
泡@@
活佛
王乐泉
疏于
百分之二十六
百分之八点@@
空间站
窃
结识
脱贫致富
脸上
落得
蔡
设限
路网
迎头
通缩
逢@@
郑
部会
配发
重托
长大
随军
集中@@
雕
零关税
青山湾
鱼缸
10646
300@@
49@@
iv@@
ltd
一汽
书法
亡@@
交易@@
企业主
伯格
例会
保罗
做成
八点
军演
农业税
刘健仪
副团长
劳教所
勘测
南总区
印度@@
受挫
国号
国宝
国强
图表
圆明园
外传
头等
奖品
妥
妥当
姑@@
常住
年头
幽默
开征
弧菌
强硬派
征程
很少
心意
忍受
惠
戚@@
执迷不悟
抹@@
排忧
整洁
族群
时日
李平
柱@@
检索
歌声
此起彼伏
氏@@
江河
湘
潘基文
点火
牟取
百分之二十六点@@
砍@@
禽畜
移居
税基
窃@@
符@@
算盘
精通
纵火
羽@@
肢
脉
艺术团
血管
行政性
警民
记利
试验@@
豪华
迈尔斯
运抵
配制
重阳节
阿联酋
限量
隙
雄辩
霸主
非常任
鞋@@
顺畅
领牌
颈
马克@@
高低
麦克@@
0.0@@
103
14亿
360
:04
el
ent
ia@@
ibm
一手
亟
产出
京团
任建新
估量
低潮
体温
佩里
使到
充斥
入息令
入读
分段
利比里亚
北京道
厉@@
吃苦
固
妙
学到
宽广
尊
带走
帮教
张俊雄
归宿
徒劳
快讯
房价
扭亏为盈
挟洋自重
掘@@
搜捕
收费表
放过
教条主义
斯·@@
新界西
无核化
昔
晴@@
最迟
木星
机群
梁展文
欧共体
气功
沃尔玛
沿途
洛夫
派兵
浓缩铀
港城
湄洲
滔天
烹@@
独有
独立性
狮子山
留有
疯牛病
百分之三十五
石云生
硕@@
碎@@
碑
磅
神社
穿上
立国
籍@@
网点
聂@@
胆
臭
苏哈托
荟萃
薇甘菊
裤
览
质检
赤潮
转售
通向
遥感
铜牌
铭@@
青山道
04月
3.6%
3.8%
不得@@
与日俱增
世界杯赛
九十八
争相
事业性
产业界
休馆
低层
偿@@
党内
全线
农牧区
分制
匮乏
反卫星
右派
号线
周梁淑怡
声望
外层
多层
大叔
大埔区
太阳@@
夸@@
奏@@
媒
宣传@@
对空
寻
小食
工作间
巴中
巴西队
币值
干什么
弗拉@@
恶果
房产
抽奖
挡@@
掠夺
收缩
斯顿
新版
新设
无罪
时速
昂船洲
有余
未成年
求得
油污
法改会
深入基层
淳
渠务
熙
狼@@
环绕
申报表
电讯@@
百分之二点一
相称
神话
秉承
管会
紧记
统计表
美容
背弃
自救
自满
自立
花样
蒂固
虹
西非
诱使
败诉
货运量
贸@@
超音速
转帐
轻工
郭永怀
酷@@
阻
集合
集邮品
青联
风俗
飞行器
马哈蒂尔
麻痹
1.4
1600
1995
2.9%
289@@
@
by
gcn
lan@@
uc@@
一九四九年
三八
上前
下水
丢掉
主办者
主官
二千五百@@
交织
产销
传说
估算
侨联
倘@@
债@@
储备粮
党群
入屋
冀
写入
决算
刘思影
南极
参选人
发稿
合唱
后悔
增拨
多出
天皇
奥尼尔
妄想
学习班
宪政
小幅
小渊惠三
屡@@
巴人
平原
序@@
店主
张建@@
微观
总理府
息率
持续不断
捆绑
支部
旗日
早年
春运
暴利
有理
注资
海地
炒
炒@@
焚烧
父@@
玉米
环评
电脑化
百亿
百分之一点二
相片
砖@@
神奇
绘@@
绞@@
聊天
药业
落幕
藏语
虾
装卸
覆盖率
诈骗案
试卷
诱发
象牙
载入
辅道
遥
邮
酬
醉@@
阿卜杜勒
雷斯
颖@@
马铁
高呼
08.@@
1.3
10+3
1823
1996
278@@
34.@@
55%
]@@
ge
int@@
东协
中东欧
为所欲为
亲信
从速
何等
偷税
六百多
共通
农林
凸@@
出入口
分处
分店
分清
刘江
创举
劣汰
动感
劫去
升任
卧@@
反制
召
听听
吴阶平
喜人
嘴脸
复合型
大有可为
妮
孙家正
实况
屋内
引诱
弦
心里
承接
抓出
投寄
折合
报失
撑@@
教廷
暴发
月球
模
正版
毅进
母婴
毛里求斯
泰山
泳
海鱼
湿@@
滋@@
焦虑
牌局
特拉维夫
独自
独裁
献上
现为
班级
畅所欲言
百分之三点八
百分之五点五
盯
睡@@
离校
笑容
篮
粤@@
糟
繁多
纯洁
结下
绕@@
缠@@
网络@@
罚款额
翟@@
翻开
聊@@
职安
获救
蝴蝶
解释权
警察局
订于
设计@@
评审团
请愿
调水
贸发
跃居
进场
迪尼
述职
避难
金融@@
链@@
防空@@
陪
集思
驾@@
﹣
2002@@
:1
ber@@
三百一@@
串
乐器
二00二年
二十五万
二千五百
亚的斯亚贝巴
亨
似@@
位处
具名
农民工
冷淡
凉
凉@@
分解
利好
加萨
北爱尔兰
半殖民地
南丫岛
卫队
可口可乐
合格率
名目
墟
外流
大展
安全局
宙斯
宴
尔巴@@
岳
式@@
征服
抵消
拉夫
挣扎
捞
控方
敦
断交
本期
欲望
民们
汗@@
洪灾
淮@@
滕@@
潘文凯
炮弹
犯法
狂轰滥炸
百分之三点三
盆@@
硝@@
科长
移走
程思远
稻@@
窝点
管理费
经文
者们
育人
自治州
航天器
艺术@@
莫夫
观望
解码器
试金石
诺沃克
诺言
谭耀宗
赋
超低空
轮替
适逢
邢@@
郊
重创
铝@@
降幅
非凡
21%
24%
38%
cp@@
international
ist@@
一百五十万
为时@@
二零零二
仔@@
代码
候
候任
值此
停办
光缆
六亿@@
六十亿
兽@@
准确性
出人意料
分销商
列宁
到头来
动手
匿名
南疆
厘@@
口腔
古国
史册
呆@@
命脉
喉@@
地对空
场景
墙壁
增援
声讨
外在
太郎
宁市
完整性
居安思危
展板
履新
左转
年轻化
序列
引领
当月
微型
忍@@
才华
持之以恒
援助@@
敦道
日中
显示器
暴
暴乱
替@@
杜
格拉@@
框
欢度
死难者
毙
汉字
油轮
沾@@
消费@@
演唱
潜入
瓜@@
生气
病假
百分之二十八
盗用
瞬息万变
竖立
紫荆
约翰
终究
统治者
绪@@
罚@@
罪人
署会
联谊会
肇事者
肯尼迪
腐化
自修室
船队
艾尔@@
英军
荒唐
萧条
西湾河
订货
调拨
贪
赃款
资本家
赋权
路人
转折点
连接路
重现
鉴证
陷@@
青衣@@
频
骗徒
齐抓共管
-2
1950年
2500
3.3%
5.2%
76@@
9000
abm
dr
ea@@
gl@@
ik@@
一百一十
三星湾
上街
下设
不平等
中间人
丸
九千万
交纳
产权局
今季
休会
休息日
党制
兰特
共性
冼@@
前瞻
剩
动性
单单
南中国海
卸货
反腐
吐
喊@@
四成@@
国安会
圣殿教
场站
增聘
大角咀
学前
安街
密封
富余
屯@@
布达拉宫
席次
废弃
微笑
戏院
扯@@
投保
投票率
拳头
挑战性
接待@@
推崇
摄影机
收音机
数控
更正
曾否
末期
柳暗花明
欢呼
民主派
深处
清新
渗水
滚滚
火器
牛仔裤
猜@@
珊
疾
百分之四点五
盗窃案
盟军
相抵
绑
罔顾
聊
联动
自欺欺人
荆@@
菲舍尔
蛮@@
衬@@
西南部
规避
警车
说起
诺维奇
辽@@
运算
邝其志
阔
阿旺晋美
青年@@
题为
黄星华
06.@@
212@@
6年
8.3%
car@@
executive
po@@
东华
东突
中文版
事业心
二〇一〇年
互谅
亚特兰大
交换机
介
保育区
俱
倒卧
储备@@
公决
关连
分域街
判监
利得税
剥落
剧团
北九龙
反导弹
反湾
命中
咳
唱响
困惑
国内法
国家局
图文
堡@@
复关
头发
奶
安全感
安德森
工时
广益
廿四
开放性
强加于
强敌
彗星
往后
怀念
惧
打捞
扫描
扶植
承投
抑或
拉夫@@
拘禁
授勋
摧残
擦鞋
放入
政纲
文盲
日记
时空
明目
未然
村务
核弹
楷模
比价
比方
民品
派别
涨@@
液@@
渠
滩泳滩
演艺@@
猪场
疟疾
登陆@@
登革热病
百分之七点五
百分之六点@@
着想
磁悬浮
礼拜
第三十九
紧锣密鼓
脊医
舷梯
菲方
警卫
警诫
谘询会
起义
迪斯尼
酸@@
里约
钥匙
问世
陶
雄风
雪域
顺序
风范
饱和
马里
53@@
cs@@
hongkongpost
mobile
to
一四@@
一点六
下放
不得
丑@@
为题
二〇〇九年
二点五
亚运
使者
俗@@
保值
保险人
倒数
再三
冯检基
况且
出口值
出版@@
函@@
利用率
加德满都
加息
动荡不安
助人
北美洲
博茨瓦纳
历任
厦@@
变换
台侨
哈利@@
哎哟
哨
喧@@
地契
培植
天灾
失实
学教
学系
市报
师父
帐篷
带出
年限
庇护站
庙@@
弯@@
彻
性病
惯常
手脚
批量
扼要
技术@@
抓起
投诉组
护理@@
拐卖
拒腐防变
效忠
教职员
无可避免
日本@@
旱情
时半
本性
柔@@
校董
模特儿
比兰德拉
民光街
汀九
洗钱
液化
深有
湄公河
爷
牌位
珍藏
留住
疆
百分之三点六
穆萨
穗
管委会
终将
经叔平
经理人
缅怀
罗智光
翘楚
耐火
肉食
脉搏
芦@@
血腥
规划@@
资助额
资料@@
辜@@
达尔
违禁
迦@@
遗产税
邦联制
酌情权
酒牌
金斯
镜子
险阻
零六
首选
鹏@@
鼠@@
龙汇道
08@@
108
1400
go@@
lin@@
pu@@
─
〇年代
下班
九十一
二千八百@@
二千六百@@
二千多
五亿@@
亚视
交易商
交警
介绍会
伊斯坦布尔
传奇
使用费
先期
入会
公主道
公司制
六六@@
冤@@
决意
分析@@
十余
千秋
华道
卢武铉
反差
古典
可贵
史无前例
哥哥
器件
外方
失利
媲美
嫌疑
孩儿
宿
工农业
已久
巴尔@@
德拉鲁阿
态@@
总领馆
恐龙
恭@@
愉景湾
感人
戴上
扑
承前启后
抄@@
投融资
指纹
挥舞
搞乱
新城
日报社
时称
晚报
曝
有别
材@@
标示
梅嘉娃蒂
检查@@
死路
毒贩
气节
永恒
沙乌地
涉枪
清真寺
潭@@
灭绝
炎热
烂@@
疑为
监事
真主党
砍伐
秦
穆夏拉夫
端倪
第二十五
红十字
纺织业
综艺
艳
苏贞昌
营区
蓝田
蛮横
行动@@
表列
讨好
评议会
诬蔑
豆
贮物
赠@@
趁@@
跨区
辅以
辱@@
追截
递
遥@@
铸
阿拉伯人
陈婉娴
音乐@@
驱车
默契
102
1300
23亿
69@@
cd@@
st
一万零@@
一点七
上海@@
中坚
中摩
主题性
丽都
乐曲
亚尔
以至于
倾向于
停工
充电
入宪
入市
冲厕
分界
初一
前款
劳动@@
南巡
博客
卡洛斯
危急
发射场
发行量
合家欢
合情
同党
回收@@
图则
垃圾箱
大坝
大炮
大连市
头版
字母
存货
安全@@
尝
屈辱
建设@@
开脱
弃权
弊案
弘@@
归国
彩电
微弱
德拉@@
惠灵顿
护栏
抽
拉票
招魂
拦@@
拿下
拿起
指导员
捉@@
携起
撇除
支持度
政策@@
新闻@@
施若德
族@@
无所@@
映@@
更替
术@@
朱光亚
极右
死伤
比什凯克
毫克
水银
汶莱
油公司
泉州
涂谨申
消散
深造
清正廉洁
渐进
渤海
火星
灯笼
献计
用好
男篮
百分之二十七点@@
窜@@
答问
米勒
紧随
终生
统会
网络版
联谊
股指
脂肪
臭名
船厂
衡
装货
训法
议员们
财赤
贷@@
转线
辨识
过渡性
追赶
遣送
郭东坡
镍
长短
门前
防伪
防御@@
隔绝
雅虎
顾问@@
飞碟
马拉
鼓掌
齿@@
02月
12]
135
240
3.7%
54@@
80亿
bbs
bs
chief
do@@
policy
ss@@
七亿@@
七八
上当
中越
二〇一@@
二三四三二二五五
二千三百@@
五五
五八
以色列人
伍世文
优惠@@
伦理
何俊仁
促进@@
倾注
僧@@
先机
入选
八千万
公契
共济
准备金
出厂
利园
剧场
办厂
劫
博尔基亚
卡西@@
卢瑞华
县城
台湾省
吕聪敏
回流
圈@@
塑@@
外语
多重
大雪
女士们
威慑力
季军
岁@@
带回
庙宇
庭审
录音机
彰显
律师@@
德州
找@@
抱@@
拯溺
挟
换文
探测器
提述
收市
新颖
日喀则
星岛
林村
枝@@
枪击
架设
梁耀忠
次区域
毛额
水体
水兵
派人
消
潮湿
焊接
猜
甲型
疫@@
百分之四点一
百分之四点八
索阅
细分
终端机
综@@
翻案
航油
艳@@
衡@@
表三
誉
语音
课外
谊
赌波
赢取
趁机
路线图
运到
迫在眉睫
逸@@
里斯本
量化
阿布杜拉
除下
非公务员
顶住
颜
魔
鲁宾
19%
260
4.1%
65%
9.1%
98%
ct@@
ver@@
三六@@
三四
上文
上访
下述
不解
串@@
之源
云咸街
五星
些@@
任人
保险费
信奉
公寓
减员
减持
初衷
力学
勋爵
厦门湾
叉@@
取用
司马@@
后台
周文@@
器皿
回扣
坤@@
天后
寿
小朋友
尔斯
屠@@
巴斯@@
带头人
广义
忍无可忍
惑@@
惯用
扎根
护卫员
抽出
拼@@
排出
撤消
擅长
改划
敢@@
明晚
有责
李系
标准@@
校友
档@@
档案室
次长
此访
水文
求救
汤显明
法网
深色
演唱会
火炬
爱情
特拉@@
特派团
理直气壮
瓦希德
生病
用性
田凤山
电量
白纸
百分之七点@@
百分之二十七
百分之四点二
看病
硅谷
租置
空空
篮@@
精锐
纠风
纵
细化
结出
结案
美孚
群力
肺@@
胺
臣@@
落山
蓝甫
藉由
藏匿
规律性
规模化
许信良
评论家
请辞
谢尔盖耶夫
贪官
贫铀
贴有
赌场
躁
辩
选中
遗骸
遣@@
醒悟
释出
钦
银矿湾
阿布沙耶夫
降级
陪审员
音乐家
饥饿
驶出
111
123
196@@
230@@
35亿
4.2%
5.8%
6.6%
60万
7.9%
8.2%
:05:02
tel@@
一席之地
一查到底
下降者
东南部
中信
乏力
乔宗淮
买到
产业署
仿佛
保释候
做事
关卡
冻
出版业
函件
刘国@@
募集
匆忙
南京市
卡尔
印方
变本加厉
否决权
员额
咬
哈达姆
唆使
地拉那
外人
大坑
奥申委
孙振宇
实效性
屠房
年假
并列
床位
得天独厚
成套
战败
手套
扑杀
批地
抽象
拉斯
拨款额
挨@@
捧
推上
揣测
改弦更张
文员
斯克
新股
方位
时有
普里马科夫
景隆街
有赖于
朝夕
村落
桑
榜
比武
汇市
沈
洗衣
浮
消费量
消防局
涵@@
淳@@
演播室
炮火
独一无二
电视网
病态
盟邦
直达
看重
石硖尾
破案
确诊
神威
竭尽全力
箭@@
粉岭@@
系数
翻版
耗费
菊
落下
蒸蒸日
蔑视
虫@@
血缘
触目惊心
计划@@
诚恳
谢列兹尼奥夫
责无旁贷
赏
赛季
趣味
身兼
车轮
辨
过场
进藏
违禁品
追逐
逝
里斯@@
锅
陕@@
雯
零九
韩元
马绍尔
驾驶员
高喊
黑工
106
192@@
1971年
3000万
4.7%
5.6%
5000万
7.5%
80万
][7
address
ce
co
fa@@
sbs
wi@@
一片
一百七十
三藩市
严加
丧命
二00三年
二八四二八八四五
二零零四
交锋
亵渎
伊方
会社
低价
侯赛因
公庙
内设
军港
功效
加油机
助益
勋章
升起
南路
参议长
同事们
名利
唯读
商号
四千多
国中
地对地
垦
壮观
外逃
多党
天基
太空@@
好莱坞
如是
如遇
寥@@
山姆
巨擘
市集
廖
延展
开明
弄清
弗
形迹可疑
忘我
急切
慕尼黑
成倍
扫毒
拨付
持续性
捞@@
播种
改名
政治@@
斑
旅游胜地
无情
有所为
机床
李汉东
李淑铮
查册
欢欣鼓舞
死硬
残障
民安队
气田
汁
浇@@
漂浮
火焰
照料
特战
画像
盛名
砸@@
禁制
秀美
纽约市
终极
经纪人
绳之于法
缩影
罚没
群策
翁
老区
胎
胚胎
脑膜炎
自新
自费
航天局
花展
苹果
范例
虚心
订有
详述
谢肃方
贞
责成
赶来
辅@@
远期
迹@@
退让
适量
遗传
陈慕华
鲍彤
黑金
104
12万
286@@
37%
67@@
80@@
852
cen@@
et
htm
sk@@
wa@@
⑻
一一一
一九八一年
一脉相承
严肃性
中大
中西
二千九百@@
以求
传教
侨务
信封
倚赖
全身
军情
决断
出手
出自
加利福尼亚州
升华
卧底
印尼@@
印行
厂街
反帝
反法西斯
可操作性
吸
呐
喂饲
嘴@@
国家党
夂
大潭
奴@@
好奇
宝座
宣威
工作会
带兵
廖晖
彼岸
得意
心理学家
忙于
悍然
感染者
或者@@
打劫
招揽
拥挤
括@@
控诉
揽
摆到
无所不@@
时尚
晕@@
有幸
期权
李柱铭
松花江
枪战
校际
核工业
梨木
梯
樊@@
歪风
母公司
气概
派递
淋@@
深圳河
渗入
渣打
爽
王室
生灵
甲级
电影@@
电视@@
百分之一点九
百多
皮革
监督@@
知识@@
石油@@
碍
秦汉
纳米
组装
编者
美利坚
老虎
腐
腐防变
自古以来
良心
药材
蔚@@
虑
裂
观光客
证券化
话音
请来
贩商
赞许
赶紧
超标
跳舞
转载
辨别
违者
迟早
逃生
选派
闪光
闪电
零零@@
露宿者
面包
预制
马日
骄人
189@@
1974年
5.4%
7.1%
[2
一万三千
一次性
不足之处
个人主义
中途
乌兰巴托
二○○○年
二八
二零一@@
仇
何玉贤
供人
依存
保住
倍增
先发制人
冒天下之大不韪
军分区
农副产品
到时
加征
勃勃
化妆品
千亿
卓识
卡通
原判
变通
同僚
后人
国安局
坊@@
多管齐下
大豆
大风
奋勇
套装
妻@@
姑娘
定向
市内
平和
平坦
归功于
彻@@
彼
战士们
托管
执法@@
承包@@
拖下去
挤逼
搭载
收益率
教职
旧有
晚年
梅加瓦蒂
概
樽
武汉市
殓房
比亚
汪洋
泄密
法典
泛
波顿
泰方
派对
海外版
涂
满足于
演奏会
演奏厅
爱国会
犹
狂犬病
独裁者
狮
现代@@
电价
电视剧
疫病
百分之二点二
百分之五点二
盛赞
相提并论
矿井
禁锢
空管
竞技
简历
精湛
索非亚
纾@@
综合@@
美国队
而上
职前
联络部
肝脏
胃炎
膳
自始至终
至上
装饰
裴@@
访华团
请到
调升
贸易部
资质
车间
转而
送入
送来
途@@
遍@@
遗失
邦交国
采购@@
重温
金永南
阿不都热西提
非农
预防性
饼
马伦道
![3]
.gov.hk
07月
11亿
18亿
190
27%
4.3%
911
we@@
一〇@@
一三@@
七千万
三四@@
三者
丑
丝绸
中古
丰厚
乔装
习近平
五六@@
产业@@
亲爱
保证金
假若
兄
克斯@@
克雷@@
关税区
军事化
凭着
出价
割裂
功勋
加建
北极
十二点@@
十时@@
升读
华美
卢押道
同声
吐露港
吵
和兴路
固守
国家@@
坏@@
大范围
姬鹏飞
客货车
寄望
就地
尼克
山川
工商@@
己方
席哈克
庄家
开源
当面
形状
征途
心存
性化
成品
护卫
护航
拾
措@@
收集站
教唆者
散去
星光
月薪
有增无减
权证
杨森
标志性
武拒统
殃民
民党
活期
海陆空
深受
添置
演讲会
炸死
烟酒
热忱
煞@@
爱德华兹
狮子会
王文元
王进东
生产@@
电源
疗@@
百份
知事
知名度
研讨班
祸国
穴
空谈
竞争法
第三十一
粮农
纤@@
纱
纳尔
纾困
绿灯
联欢
联欢会
联结
聚众
肠@@
胡笙
舢舨
艾哈迈德
苏有朋
营房
葡萄
行线
衍@@
诱骗
贩@@
贸易商
起源
身受
车长
转述
轮候册
辛旗
途人
醉
钓鱼岛
钱正英
锅@@
长跑
门类
阵阵
阿什@@
难过
雪上加霜
零年代
面广
颐
风情
馆长
骤雨
魔术
鼻子
1.6
1.8
17]
28亿
44%
ge@@
hong
mail
ment
sho@@
一九二@@
主义@@
主犯
九三年
二三九八@@
于民
亏@@
亲子
例@@
侦察@@
停建
允@@
养院
军军
军购
决裂
别墅
刮@@
前滨
化合物
口气
台上
合伙人
合肥
呐喊
味道
品行
哈哈
团团
围墙
坦白
垫
大同
奉
婆@@
学好
安全部
客货
对敌
尤科斯
展会
岛内外
工业@@
常年
年金
总政治部
总目
恤衫
慈云山
手指
手语
损伤
政见
旅游者
无一@@
明信片
暇
月历
有功
服务费
未雨绸缪
李诗佳
杏@@
林区
果然
核动力
榕@@
武器化
殿
毕生
气象台
沪@@
法学院
清洁@@
湖州
炉@@
点儿
爸
献给
王子
瘦@@
百分之
百分之三十二
百分之三点九
知青
碎片
社情
祭祀
空防
约见
纪德舰
经常化
缩
罐@@
翻身
耻
脂@@
腿@@
萌芽
萧如彬
萨德
观塘区
警告信
证券业
诬@@
贵重
踢
转世
辰
通商部
逼真
遥控
采矿
释疑
野鸟
量刑
锐减
闸@@
阿沛
陈永@@
霸@@
饰
高位
高高
鲤鱼门
鼎
1.1
111.@@
2.4
28911001
3,000
33%
94@@
di@@
ex@@
html][5
id
ph@@
×
三点五
不及
不同@@
不至于
习俗
二成@@
于世
今秋
仰
任由
仿效
体弱
使用量
停下
偷去
六百亿
冰箱
出版署
务工
卸下
厘订
参与@@
反馈
发电量
句号
合流
吕
启迪
和平@@
哈萨克
售楼
园林
坚固
坠
大兵
大象
奔袭
孤儿
实验@@
对准
尔·@@
干道
并发症
幻
康复者
张志@@
弱化
得当
恢复性
患病
悬而未决
惑众
惨痛
戒烟
抗灾
挤占
搏
收于
改观
断绝
新田
方法论
智囊
更有甚者
月食
朝美
权法
权衡
枢@@
柯
楼房
欢聚一堂
歼击机
汕头市
油库
洪涝
深恶痛绝
淹没
渊源
演进
狐@@
环保@@
玻利维亚
百分之三十六点@@
百分之四点四
盛行
祠
福利界
第二十八
老妇
肺
胡说
脱贫
自然@@
自由@@
落地
落客区
藏学
藏毒
虐
表上
训练班
记下
详列于
谦虚
谷野
贵阳
资本金
选任
通讯@@
遇害
长篇
除名
随处
革命性
风风雨雨
驰
骏
高档
-1
1,0@@
19]
230
270
4.9%
5.3%
5.7%
70万
[7]
gen@@
he@@
hkma@@
hsdpa
ib@@
ks
landsd
一七
一九一@@
一百三十万
一百九十@@
七十亿
万象
三千八百@@
三号
不免
中央@@
中委
中心@@
主编
乡议局
二0一0
二八三二四三一一
五成@@
仓库业
会址
使用@@
偏低
停业
入股
八七
六八@@
军乐队
凌
凹@@
刑侦
划清
列夫
副厅长
副总经理
加派
勉
单是
反贪
发自
另定
叶世炽
咖啡@@
哪@@
哭@@
唐山
售予
商报
四百亿
回想
城道
处心积虑
大埔@@
大米
奠基
如山
媚
工业界
工友
工种
巷
布宜诺斯艾利斯
干涉主义
建功
开发商
张忠@@
张文@@
弱智
录音带
彭德怀
思索
慎防
拥
按摩
故乡
救护@@
教委
整齐
斐济
方言
春耕
昭然若揭
暴跌
朝向
末日
本本
李业广
村委会
枯竭
民俗
民盟
民船
泅渡
海里
满腔
焚化
牢@@
牵
特大型
生活@@
生肉
生计
略为
疗
百分之六点一
石块
碳@@
示范区
离散
私有
程序@@
税法
线上
罗高寿
老婆
考古@@
胜于
腰
自备
致和
舌
荃@@
萨摩亚
葵青区
蜂@@
蝗虫
蝴蝶湾
衫
言辞
证券@@
评注
误会
贞@@
货轮
购货
辈子
达卡
逆流
邱晓华
钞票
长青
阿拉维
阿斯纳尔
阿方
雷锋
非统
面世
韦
音乐节
预审
高楼
齐心
31%
6.8%
:05@@
da
g8
kong
mc@@
stat
swd
ul@@
□
一五
三角@@
不信任
不够
不法之徒
专上
专区
乐手
乞@@
也@@
乱象
二七
二二
二千三百万
二零零五
交货
伍
作曲家
佣
供应@@
停滞不前
克朗
内资
冷却
冷锋
凌驾
出外
刚好
创始人
刹@@
努
勤务
化学物
化验室
匹@@
午间
南昌街
南端
博爱
双拥
发声
句@@
咄咄逼人
哄@@
哥斯达黎加
地政处
失灵
奈
奕@@
姐@@
字号
安抚
审计@@
封面
属性
屠
崎
巧妙
差饷租值
巴拉迪
帆@@
帘
席上
开盘
彻头彻尾
征费
律@@
扩军
承包商
报告@@
捡@@
撕毁
时会
有鉴于此
查询处
标兵
核化
核计划
桥本
活动@@
浮现
渔
滚动
滩头
王朝
田聪明
电脑@@
番@@
百分之八十五
相邻
瞒@@
禁毒@@
科学@@
稍为
立院
站不住脚
简述
粤剧
精采
织@@
经社
绿地
罕
肌@@
胡乱
腊@@
自焚者
自用
苯丙@@
薪级
觅
诊@@
语气
贝克
贯
贾
赵紫阳
轻便
迁入
过上
逃往
选举@@
逊尼派
郭
重启
铭记
闯@@
防空兵
附录
陆战
降息
雾@@
韩国人
驻京办
骇客
高利贷
鸽
26%
3.9%
400@@
4g
4年
5.9%
7.7%
90万
T@@
ba@@
cor@@
gsm
man
sch@@
wor@@
丛
中奥
为时
书本
五二零
五四@@
伽@@
供水量
依从
侯
修毕
修顿
假想敌
停站
共鸣
再厉
分辨
切割
刘云山
加价
加薪
北大西洋
十万@@
卖出
双双
反坦克
取信
取回
咨询@@
哈德
喂哺
囊
地税
壁画
声援
夏粮
多彩
大马士革
失明
夺冠
契
奸
姚
孚
宁道
实干
家门口
尔德@@
尔特
已婚
巴尔舍夫斯基
师们
带同
常抓不懈
底价
开往
张文光
弥漫
彭定康
总装
恩平道
悲哀
承租人
抗体
拉巴@@
拼命
排球
措辞
政务@@
数亿
斜@@
斯里@@
旱@@
明治
有意思
机型
李万燮
李金@@
条令
查验
欢送
歼
求学
江丙坤
治政
波澜壮阔
淤泥
湾区
潜
烈火
燃气
犹@@
王文@@
玩火
生物学
生肖
由来
电机
男孩
百分之二十八点@@
百分之五点六
百分之六十五
百分之六点三
监护
硕果
祈@@
科什图尼察
科大
积压
竭诚
粤港
纵使
编印
美满
美联社
老是
肚@@
脏
舌@@
舞剧
茶话会
萨尔@@
表情
讼费
证交所
误入
诽谤
课室
起见
载明
远航
迫不及待
避
郑家富
锋@@
锵
间隔
防治法
阿拉伯@@
陈甘美
青屿
靖@@
韩国队
韵@@
餐饮
马关
鲁迅
龙年
1/@@
1959年
1994
2007-01-@@
283@@
74@@
ap@@
br@@
www.immd
一万八千
一万四千@@
一点六@@
万事@@
三千零@@
上门
不妨
中芬
二零一零年
产科
以权谋私
以身试法
伪科学
伴@@
何勇
停机坪
储户
元老
克里斯托弗
克隆
免于
冈
决策层
冶
出没
副董事长
劝谕
加盟
务局
北上
半封建
单边
卜@@
即属
厄立特里亚
参赞
发行@@
发行人
取证
口袋
哥本哈根
唇@@
嘉奖
国书
塌
大人
奶奶
好坏
婆
孝
季刊
宁日
安倍晋三
安德@@
实情
客气
家事
小汽车
尤多约诺
山地
市价
布希@@
度假村
座落
建华
张全景
影子
役@@
徐荣凯
性侵犯
惑
所有人
打桩
扔@@
扰@@
抛开
拜金主义
择@@
挣
掀开
提款@@
撤走
播发
操作性
收纳
文告
昏@@
星级
普拉@@
服饰
望远镜
李向群
李大@@
杨耀忠
杯赛
查尔斯
栏杆
核战争
楠
毒性
氨@@
永续
求是
沙国
沸@@
注册@@
浮游
浴血
浸@@
焕然一新
犯者
狂热
狭隘
甲板
疼
白克明
百分之三十七
破灭
破解
竞相
紧缺
胖@@
艾滋
药剂业
蓄水
薪津
蛋白
装配
警衔
诀
调停
败类
贩子
贼人
贾沛年
路程
输油
运道
追问
适龄
通篇
遵行
郑博士
郑必坚
金川
间道
阔步
防空洞
阿姆斯特丹
附设
陈希同
隗福临
难民营
鲁滨逊
-3
02.@@
04.@@
06月
1.7
150万
1960年
213
220
280
303
3年
6.7%
:0@@
ard@@
c-@@
cl@@
publications
success
symbian
us
一二
一千六百
一点三
万万
万分
上海街
两百万
乔
九八@@
书信
二00八年
二元
二百五十万
偏偏
内置
军心
冲绳县
减刑
分类法
匙
南北方
印上
历史观
反应堆
发钞
受益者
吉尔
周文
售票网
国庆节
坎特
坠@@
坪@@
埃塞
塔斯社
增创
外岛
大谈
太过
奠下
奥尔@@
姬胜德
娱乐业
孙孚凌
学习@@
小时候
工矿
巨浪
巴利道
巴德
帅
建起
归属感
征得
徽
忙@@
快递
感染力
我区
战绩
所有者
抱持
拉赫@@
拉近
拿来
捕鲸
提示
摄像机
摇摆
教区
敛财
数以千计
数十亿
无异于
日本队
晤谈
普雷@@
智优
机师
枯@@
染上
标明
核准图
桩柱
检务
检方
欣悉
正告
死胡同
汀九泳滩
汇总
洋洋
涛@@
淘大
演兵
炜
炫耀
炭@@
烟台
热水
爆窃案
父子
狱@@
疆独
登高望远
百分之四点七
皇室
盎司
瞎@@
秦华孙
系统性
统统
统领
维园
缉@@
缺氧
美德
舞蹈@@
艰苦卓绝
节假日
茫茫
获知
菌@@
菲利@@
营养@@
藤
觉醒
解脱
设厂
评比
谎@@
贬@@
购货额
软体
载客量
辅
透彻
通信网
遇有
鉴别
银行家
锲而不舍
闵@@
防沙
阵亡
际@@
零星
颈部
高价
魂@@
鹰@@
麻疹
0623@@
08月
8.1%
8.9%
be@@
e-@@
ld@@
一九七五年
上天
不动
世博会
中国籍
中枢
人权@@
会所
传授
伤重不治
体育界
供应品
保护费
信服
候鸟
借出
免职
全面性
公正性
公益性
兰桂坊
午膳
叫嚷
召见
可信
台大
否@@
吴淑珍
呃这个
哪怕
喻@@
四百五十
园圃
埋下
备用
夕
始终如一
委任@@
存储
存在于
安东@@
安康
宵@@
寂寞
富士通
封盖
小版
屋顶
山路
布什@@
希望于
帖
开门
张俊九
彪
惋惜
惩@@
战俘
战鹰
打败
改编
放出
敌情
断送
新来
旋@@
无愧于
无障碍
早餐会
明斯克
暂缓
更名
服食
李国能
李贵鲜
板块
架空
查封
校巴
株式会社
格尔@@
格斗
案犯
检察@@
概率
次官
欧尼尔
歌唱
正向
正是
武大伟
死去
污染源
治乱
海堤
涣散
湛江
满载
激荡
甘美华
甚少
畅@@
痛恨
百分@@
百分之一点@@
百分之三十一
百分之三点七
百分之三点四
百分之二十五点@@
直线
硫@@
祖先
票房
科委
积聚
移师
程碑
税品
稻米
笼@@
精选
紫外线
罗斯@@
联署
胪列
航天@@
船民
船湾
艺墟
苗头
街坊
补办
西贡@@
访者
询问处
说来
赴@@
起因
轮训
软化
过错
运量
选委会
逾@@
那边
郭家麒
配有
金山
铅
闪
陪同团
雕@@
雷达站
靶
鞭@@
高尔夫
高质素
魁
鹤
鼻
0,000
21亿
250@@
58%
as
fehd
om@@
ordering
other
pc
products
provision
str@@
voip
一九七六年
一九九六
一百二十万
一百零五
上院
不变
专制
丘
东街
中兴
乌鲁木齐市
九八
九江
亚非
人代会
人和
伙同
伤口
供应链
信息网
值勤
公益金
关系@@
其害
写字楼
农奴制
冲入
冷气
减小
分明
分立
切尔诺梅尔金
刘翔
到时候
功臣
勾当
十元
千载难逢
半径
协进会
卓
印象深刻
反垄断法
取而代之
回族
地役权
增资
多达
天主教会
奋起
奥斯@@
孟买
审判长
富人
小平
少讯
尽忠职守
山顶道
工夫
巴尔
布特弗利卡
常驻
干劲
张左己
张旗鼓
彭明敏
悬
惊喜
惯@@
慰
户籍
扎伊尔
抑@@
拱@@
挂号
挫伤
捞取
搬运
改经
政令
教育者
文传
旗舰
无毒
旭
昂然
暴露无遗
本地化
权宜之计
梳理
楼价
毅力
民委
气息
江南
油类
沼@@
温州
源源不断
滚
演戏
澄
炸馆
牛头角
狠狠
独派
王永@@
生物质
监督权
监管局
相通
着眼于
研习
研练
硬性
碱@@
磊
科维奇
突
箱@@
篮子
绑匪
缝@@
罹患
美道
肢体
胡小笛
舒服
艺品
营运商
萧万长
萨利姆
蒋介石
蒙特@@
蚊
观塘@@
视力
试爆
诞辰
谘会
货币化
走入
赵南起
蹂躏
车子
转送
轻重
辟@@
连连
通胀率
逾越
遣
郑汝桦
铀浓缩
铁路@@
长处
间谍案
雀@@
零售店
雷德
静坐
靶@@
领军
馀元
高阶
鲜艳
黑山
1/3
1700
333
5.1%
64@@
7.8%
:20:02
bank
imf
ul
一千四百
上阵
下级
不乏
不息
不结盟
专业@@
两千万
中土
之地
之流
二三五@@
五百亿
井下
享誉
仲
任重而道远
优劣
伟雄
体育场
作答
你@@
光芒
全资
公德
出具
利马
制片@@
刺探
剑桥
功绩
北纬
十分之一
协调@@
占用人
卵@@
受权
口罩
埔@@
基德
堪培拉
复议
大气层
天使
奢@@
妖言
妥为
威廉
威武
娱乐@@
学期
宅
对地
尽其@@
尿@@
岩石
巨人
平安@@
平行
年资
并行
庆贺
废墟
张思卿
形同
情怀
愧
慢性
扎德
扔
技改
提名人
搏@@
收场
文集
斯特罗耶夫
本级
本院
李杰
杜青林
构筑物
林业局
枪手
树林
核销
榜首
欢迎@@
歌剧
殡仪馆
比喻
海豚
消防@@
涉足
清水
港产
溢
特赦
田北俊
电影院
男婴
疲@@
百分之九十八
百分之四点九
监护人
相较
看齐
矣
禁制令
福利@@
稿@@
精明
纸箱
续约
综观
羁留
美国@@
老同志
耶稣
肿瘤
臂@@
自愿性
苯
虚开
装机
西湾
要职
解剖
讼
询@@
贝鲁特
越野
运动鞋
里斯
重头戏
金税
错失
防护@@
雄心
非党化
韦尔
韩美
颐@@
馀地
马拉松
骗@@
高燕
高调
高铁
麟@@
黄竹坑
1800
1970年
4.4%
42%
43%
450
6.4%
600万
9.9%
:01
au@@
av@@
cd
en
ent@@
一九四五年
一会
一百八十@@
七五折
三千六百@@
上升股
上马
不实
丛林
丽都湾
乌方
乔晓阳
乔木
乘势
争斗
互为
人机
人气
伊蚊
传染性
伤痕
伦敦金
佛罗@@
侮
信访
候车
充实率
克仑特罗
入场费
公交
公信力
创刊
前行
加气
十二万
单兵
南宁市
厘清
参观团
反倒
台岛
吾
呈请
嗯嗯
国际@@
圣战
在乎
地利
增盈
声纳
复交
多维
大校
太子道
奔走
女生
好头
妙龄
孜
宝库
室外
尸@@
尼亚佐夫
巫统
巴国
布里@@
希尔@@
常人
庇@@
弘
张荣@@
影展
征用
微机
德军
德尔
情理
愁
感谢@@
憧憬
成交量
戴利
扫黄打非
投案
拉姆斯菲尔德@@
掌管
掣
摄
支流
支行
教署
敷衍
斥资
断定
无异
时装@@
普曼
暧昧
最多
朋@@
桌@@
械
棒@@
植入
欺压
歌连臣
步枪
水晶
沆瀣一气
河水
油国
法则
浓烟
液晶
激战
物有所值
独奏
独断
王伟@@
甚为
田曾佩
疗养
百分之四十五
百般
皇国
直言
相望
相等
睡觉
矫@@
稠密
粟@@
紧要
纪德
纳德
罗马@@
羡慕
耸@@
聚首一堂
自尊
航运局
英基
蒋
蚝@@
蜕变
西进
试鸣
贡@@
购买@@
起着
跃进
返航
连日
迫切性
酒泉
鉴别力
锡
除去
陪审团
雇@@
雕塑
霍尔@@
非执行
首当其冲
骂@@
1,6@@
1100
122
19亿
300亿
38.@@
4.8%
6.9%
[8]
eu@@
ielts
nt@@
ob@@
○
一刻
一点二
七六@@
上司
不再
不清
业部
两万@@
主妇
主子
主席令
义和团
二百二十@@
伊军
会前
作过
俞晓松
假帐
克瓦希涅夫斯基
入盟
写出
农工
冲锋@@
减肥
凸现
分析家们
副手
助理员
半决赛
华润
印中
厂长
双刃剑
反应炉
发展组
发证
受贿案
古今
各行各业
合作者
同心
名为
名副其实
后继
后遗症
后顾之忧
员会
员方
哎@@
回收箱
在位
垮台
基督@@
堵@@
墙@@
处死
外泄
多时
天网
天色
好感
娅
嫌疑犯
子宫@@
学府
宁静
定型
密封式
小分队
尽展
帮忙
广岛
废弃物
张永@@
弥
当政者
彩票
影视@@
征兵
恋@@
惟有
意在
成都市
抚养
拜耳
搭建物
收费@@
放飞
教义
教条
教练员
文稿
昨@@
晴朗
朋
朗讯
本事
札@@
杂物
杂费
李绍@@
村镇
来历不明
林斯
格勒
欧安
母校
毓@@
民办
汉光
汽车@@
沃尔福威茨
沧@@
波涛
渣
温和派
溜@@
滋味
演讲厅
澳元
灼@@
热浪
特地
王志@@
现成
球菌
甘地
甜
生理
用法
电话@@
留言
疫
疯@@
疲劳
病症
白白
百分之五点@@
省军区
看管
破坏@@
碟@@
碰壁
私渡
究其
章孝严
米埔
绕开
统局
缓急
罗安达
联办
联络办
聚居
船艇
苏丹@@
苏格兰
葡@@
葱
蒙上
藉@@
虚伪
行进
装上
视角
言词
警醒
购房
赖以
踏出
轻铁
辅助队
边防@@
连城
逊色
避车处
邱义仁
郁
配送
银幕
锤炼
阎@@
陈辞
青年报
领队
颠@@
飙升
马歇尔
驶经
高点
07.@@
1,8@@
1965年
1967年
2.3
210
28699@@
7.2%
86%
97@@
and@@
sd@@
tc@@
一千五百万
三十五分
上千
上路
不得而知
个体户
中高级
主因
之不@@
二〇〇八
二千五百万
产能
享乐主义
仆@@
今个
付运
代为
传到
住民
体坛
何去何从
侍@@
保证@@
俾@@
做人
催化器
允诺
元帅
免疫力
公开@@
六成@@
军品
减债
凭证式
刘明@@
动式
劳安
区旗
十五亿
十字@@
半球
印备
及于
可悲
吻合
唯物论
啊@@
困局
图们江
圣彼得堡
基督徒
处理器
奋发图强
威灵顿
孙子
孵化
宁可
家伙
对照表
局域网
巴西利亚
市郊
年老
广播员
应诉
建校
张闻天
当做
彭佩云
待人
待命
总则
总指挥
恭贺
憎@@
成品油
手腕
拒统
提上
提速
握@@
放大
昔@@
晨@@
普里@@
最高层
有数
服务器
朔@@
朝鲜@@
权谋
杨汝岱
杰克逊
松动
林善纪
核武库
樟@@
正职
歪理
比对
毛巾
气力
水电站
汪恕诚
波段
泼@@
渐@@
澎
火热
炳
烧毁
焕
爆炸物
牙买加
牵扯
狂妄
狡辩
猛虎
疏
病逝
百分之三十八
盗窃罪
礼遇
社会阶层
福利会
移转
空对空
空气@@
窜
立法局
索夫
繁华
纺织@@
绑@@
绳之以法
罗致光
老兵
能源部
脑子
致歉信
荡@@
萨拉热窝
萨马兰奇
虫害
行车道
西洋
解救
记述
讲机
论者
话语
误差
读卖
货运业
起色
超导
跳水
达尔富尔
过滤器
运力
返还
违犯
退款
退税率
选为
逊@@
鄂@@
重挫
重订
重量级
金三角
闽@@
阿斯@@
陈德@@
雪梨
雷达@@
非国大
韶@@
预算@@
风球
餐会
马力
马车
03月
125
28%
6.5%
70亿
gbs
inter@@
ofta.gov.hk
res@@
ry
sd
一三
不辱使命
专款
丛生
严治
中南美洲
中学组
为民
主导权
二八三@@
二手
交火
京城
会后
但@@
佐
倍加
假释
偿
克敌
八亿@@
八路军
兰德
其事
减去
几十万
凡此种种
切磋
刘顺尧
创出
利斯
刹车
加拿@@
医学界
十三万@@
华中
卖国
卡里莫夫
压抑
原告
及除
叔@@
变异
可携带
台联会
史蒂@@
合伙
味@@
和合石
啥
嘲@@
国家化
国立
图一
坠落
埃尔@@
增减
大公报
大权
大赦
失调
好手
如属
妓女
学习江
学徒
害命
小于
层级
建厂
廿一
强身
德·@@
志坚
怎么回事
恫吓
悉数
成交额
截然不同
户数
扬长避短
扶
承建
报收
抱歉
担
指手划脚
掌权
推移
搬离
搬起
收件
显示屏
晚餐
普罗
暑
曝@@
曾宪梓
月号
朝气蓬勃
术语
林地
染色@@
核定
核燃料
桑托斯
欣然
民权
汹涌
沙丹
沙田@@
没法
油尖区
法国人
洋人
洽@@
流浪
深思熟虑
渝@@
溜
滑落
漏税
演词
潜伏
灯塔
熟习
熬
特尔
特惠金
猖狂
王岐山
用兵
电话线
畅旺
疏通
百分之七点七
盘旋
目共睹
相传
真伪
督办
石家庄市
礁@@
禽
科院
秒钟
第四十
等同于
答辩
粤方
综援金
编织
缺失
罗列
美利
而无@@
肌肉
肿
胜地
胶囊
自杀式
自治权
臭氧
航速
芷@@
苦心
蓉
裁
解冻
记名
证词
误判
课题组
购物@@
路径
转晴
轰
运回
近岸
迪亚@@
造诣
道出
那州
邮箱
邻@@
销售@@
防火墙
雷射
非政治化
颁赠
饱满
馀额
马术
骤然
高加索
高血压
黯@@
.net
0622@@
09.@@
115
195@@
25万
280@@
39亿
4000万
800万
][8
bt
ch
ell@@
ep
ev@@
group
htm][3]
net
one
pt
s-@@
一九七三年
一八
一生
上岸
上衣
不平
东经
举起
二六
互换
五成
五百一@@
产假
亲笔
份数
伋取
休渔期
优厚
传送者
体恤
全额
冀@@
内科
册封
冠冕堂皇
凭证
出让
分析员
刮
制空权
前辈
剧增
剪
剪彩
割断
功劳
动员@@
十时三十分
卑劣
卢萨卡
印刷品
发展观
发行额
合金
周小川
周期性
唤
商品房
国务院令
国大党
圃
均势
城规
埠
堪@@
填料
复文
外力
大兴
大卫教
大部
大陆架
太阳系
奋
奴役
客厅
密使
尾随
巡弋
巴布@@
年利率
库尔德
庸@@
开关
影音
总的看
悉心
惶@@
战争@@
戚火贵
技术股
护送
拉萨市
拐@@
挑战@@
挫
振
捕获
接触@@
推定
搁浅
撒哈拉
收成
攻读
放射
文化节
新民主主义
旅日
旅美
无耻
时节
机动车
栖@@
根据地
桎梏
欧委会
歪@@
每@@
比照
氮
汗水
汽
法德
流离失所
海岛
海浪
滤水厂
漆@@
澳人
点算
煽@@
燃料@@
爱民
牧@@
犯有
环翠道
电讯盈科
病毒性
百分之五十五
相聚
瞻
碰硬
磨合
福音
稀
稀释
突防
立下
系列@@
络
统计@@
群道
自动梯
自给
致送
菲政府
虾@@
襄@@
西德
誉@@
订为
记者@@
许许多多
调节@@
购进
贸然
超强
车票
轻工业
辩称
远望
追缉
退化
郎@@
酮
重婚
锐@@
防震
阿勒@@
阿比@@
陈毅
难能可贵
集聚
青岛市
颁@@
预谋
领导权
领略
风度
高扬
高明
默默
01.@@
05.@@
150亿
1956年
25824@@
2年
3.0%
320
43亿
9.3%
elec@@
ian
per@@
se
th
tion@@
Ⅱ
一派
一百五十亿
三维
上万
上百
不偏不倚
不可磨灭
不堪@@
不定期
不洁
不致
东送
严要求
中检
主办@@
书券
二千二百@@
二手烟
二氧化氮
亏损额
云山
五十年代
从前
以资
优于
伞@@
伸展
体察
侍
修女
停电
克里姆林宫
六七
六二
兰街
军代@@
冲动
出版商
击伤
功不可没
勾画
化武
北朝鲜
单程证
发病率
古城
司法@@
叹
合作社
同乐日
名裂
后天
吨位
哨@@
商业区
团里
土发
多多
大使级
大榄
天花
妈@@
害群之马
屠场
岭澳
嵌@@
并入
幸存者
弗朗@@
徐海@@
微波
恰恰相反
悠
悲
成像
成数
所在国
打伤
扭@@
扶助
抗震
抢去
拆迁
振华
捐血
推举
收付
放任
救难
敷@@
斤
断言
方兴未艾
无核区
日增
时间@@
昏
李嘉@@
李德@@
李明江
李永@@
构@@
林郑月娥
桂
桥本龙太郎
模仿
殉@@
求真
油画
治标
波幅
波茨坦
流利
流露
消防车
清偿
炮声
玻璃@@
田中
申购
百分之二十九
百分之二点@@
百分之四点三
石礼谦
祖庙
禾@@
私自
科克
科技型
积极进取
称呼
立足点
笑话
第三十
第三十八
第三十六
练功者
终点
美商
胆敢
胜诉
腹
自已
臻
航空业
苟@@
茫
萧灼基
蔚
行人路
西医
许文龙
调查员
贺年
贺词
赛车
赤道
踢@@
身败
车身
输水
迅@@
违法者
迷彩
送抵
醒目
重塑
钞
钱袋
铺位
阶梯
陈列
陶瓷
青苗
风帆
飞毛腿
饥荒
马前卒
驳
驾驶@@
黑体字
鼓劲
齿
!@@
0621@@
109
120万
138
1946年
2.
29212222
59@@
9.5%
][16
][17]
ca
hs@@
htm][2
si@@
○@@
一九
一千七百
一千三百
一声令下
一贯@@
一蹴而就
九亿@@
习惯于
二一
于事
亚洲@@
交会
交响@@
伊丽莎白
传人
俘虏
保罗@@
借镜
倪@@
党部
其上
冲锋队
几百万
凶手
分校
刘秀@@
初稿
初选
利街
制备
前程
副司长
加权
加盖
北京@@
北非
匠
卡尔扎伊
厅局级
又@@
合法化
后尘
吕孝端
咀@@
咭@@
唱机
喀什
噶玛巴
国产化
国雄
基站
堤防
墓地
备注
外交界
多半
大仙区
大棒
姬
姿@@
娘
娘@@
对症下药
展馆
属意
工事
布尔@@
常备
年刊
年宵
建有
建树
开馆
弦乐
录像带
徐博东
微升
德曼
忌
思想@@
急升
总医院
愚蠢
慰@@
打扮
扩
拍戏
持证人
挣@@
排行
推断
推波助澜
揭穿
撇@@
攻坚战
放假
数以万计
时宜
时时
晶
暗独
暴徒
有利@@
朱佩
李伟
李氏
杜拜
核大国
歌星
毒气
民航@@
氧化@@
水雷
汛@@
汝@@
治疗部
测定
清水@@
溺
滔
激怒
烟霞
照相
爆炸声
爱滋
牛仔
狼
玄@@
王国章
王晓@@
王玉@@
现代级
瑜
申明
留守
登载
百分之五点七
百分之六点八
皆@@
盒@@
研资局
积雪
立法@@
站到
第四十二
红灯
纸品
经发会
统一@@
继任
缓冲
翰
翻查
耗用
耽误
脏@@
获得者
蜜@@
血淋淋
要价
言语
调集
谢尔顿
赵明录
跑官
转作
软件业
轻质
迁就
还款
追缴
退缩
野味
鑫
铃@@
锭
问道
问问
队员们
防患于
陈智思
院童
陶文钊
随之
隔阂
雅丽氏
预赛
频段
风洞
飞回
首创
马头
驱散
驶进
高难
默克尔
1955年
2600
26亿
3500
38亿
4.5
63%
7.3%
7.6%
89@@
A@@
][21
ess
tid
vi
一九六九年
一块儿
一帆风顺
七五@@
七千多
七四@@
七时半
下半@@
不绝
严寒
中产
中选
丰功
乐道
二九
产油国
人意
从快
伊斯@@
伟绩
伺服器
低息
何秀兰
使出
供有
侨民
偷渡者
储
先富
光复
光大
六点
兴盛
冤
冲出
出名
出席者
出炉
出生率
刑讯
划出
剧本
加尔@@
劣@@
勘@@
卸
原订
去信
友邦
受封路
叶国谦
叶秀华
吃药
听觉
吴定@@
吸食
咏@@
哈拉齐
哈马@@
商贩
嘉手纳
四百一@@
圈套
在意
坏事
垂范
基本点
塔尔@@
复合
大洋洲
天时
头角
奔驰
奖惩
如对
如此一来
如火如荼
安全区
富于
寮@@
崔健
巢@@
工资期
巧合
币@@
康体@@
归结
当政
律师会
得克萨斯州
忙碌
恤金
恶毒
房车
手下
抽水站
拉姆@@
挑动
推开
摸清
收效
收藏@@
改称
放于
新房
旋
旋转
无中生有
日韩
普莱@@
景台
景色
智能化
本田
机载
林中斌
林秉恩
染病
梅兆荣
模特
樱@@
樽@@
欠缴
欺负
歧@@
民建
氧
沉浸
油缸
泊满
法律@@
洒@@
流于
浓缩
渊@@
渴
溃@@
澜
烟火
照样
牵连
狮@@
猜疑
玫@@
璋
画展
畅销
疑惑
疗效
疹
百分之七点一
百分之五点一
百分之五点九
百分之四点@@
相联系
看守所
督
矛
祗是
神户
科工委
穆萨@@
突击队
窒息
立法权
算数
维新
缉
编订
羁@@
而今
耕耘
耻@@
联组会
航运界
荫@@
萨塔尔
萨格勒布
融为
西宁
规约
觅得
语文科
请示
谭国器
谷物
责任者
贿@@
赢家
走近
路轨
载述
过期
连夜
选准
选择性
郑若骅
里氏
金库
钟声
铃铛
铝
锅炉
键盘
闽南
阴霾
降雪
非议
香蕉
高盛
魏京生
鼠患
0.5
190@@
2300万
24亿
3.6
32%
36%
4.6%
48.@@
64%
66%
9年
am
gov.hk][5]
gps
ma
man@@
mp@@
s/k
ve
ⅹ
〇四@@
一万九千@@
一万六千
一万四千
一九九五
一千八百
一身
三千五百@@
上风
不丹
东芝
严守
中台办
中标
中湾泳滩
中间道
乘机
二点四
于明
保全
俭
停车@@
傅全
公司化
六〇@@
兴业
内定
写照
军国主义者
军旅
决定权
减价
凶
分力
列岛
前锋
办公@@
办公楼
加工区
动人
匪@@
单据
南昌@@
博尔顿
卜
去掉
叔叔
名胜
后退
向好
哈尔
哈比比
喻
因工
国防@@
地空
基地化
塔吉克
外企
外景
大都市
大额
太空战
奈及利亚
好看
姆卡帕
孟
学者们
官员们
寄往
寮屋
小学组
就是
巡礼
巡警
工业局
工会法
巴基斯坦@@
平方
年初三
开讲
张中伟
张援远
张春@@
弥合
弯路
归根结底
德意志
忧心忡忡
忽@@
总务
恪尽职守
戒毒所
扇
扩音机
技术部
抛售
拖垮
拟稿
挪
捣毁
据信
摇篮
摧
收费处
改过
文化界
日产
时下
时光
权人
李家祥
李昌@@
杰罗
柔
楼梯
正反
比索
气味
水分
沟渠
法制办
泻
泽民
洛桑
浩劫
淘@@
滋长
潘
灶
炼油厂
烦
物理学
特派
王宫
玛丽@@
环线
班长
瓦尔@@
甘美
生还
用量
电讯社
癌@@
白云
百分之三十三点@@
百分之三十九点@@
百分之九点@@
百分之六点二
皮诺契特
瞻@@
示范@@
私营化
种植业
竖
笃
第四十五
精良
纵横谈
结为
绕过
统合论
罗斯
老家
肚子
胡启立
胸襟
脱节
自豪感
舱@@
花灯
英属
草签
营收
落客点
董秉印
董辅@@
蝗@@
血压
衷诚
裤@@
西班牙@@
触动
触发
说说
调减
贡献率
资料馆
赋@@
赛区
赞成票
赣@@
超时
超期
踩
蹈
身着
转趋
辐射@@
过半
送回
里克
里岛
钰
铭贤路
键@@
长年
阁员
陈俊生
降价
限制性
隧
雪柜
零售额
雷管
霍尔布鲁克
青马
非农业
韵
页@@
顺理成章
首屈一指
驶向
高手
麦鸿崧
龛
0000
03.@@
1964年
211@@
29%
4,000
50,000
7年
ar
i-@@
mus@@
ru@@
weather
一点儿
万千
三五@@
不景气
不管谁
与共
为多
义愤
争创
事事
亚裔
享年
人情
伊利@@
传真机
伸向
低头
佛得角
信用状
倍感
停放
先烈
克劳@@
兢兢业业
八百多
公明党
公正@@
六六
兵场
兽
军师
决胜
减让
分委会
刘延东
到任
加元
加工@@
务部
华文
卒
博大
厕
原创
双线
受聘于
可比
合众国
同乐
名次
吴文@@
呼气
售票
嗯@@
固醇
国亲
国度
国计
圈子
圣地
坎坷
基里巴斯
塑像
大化
大将
天上
天才
奥尔良
官房长官
定息
定稿
实意
宽阔
对撞机
小儿麻痹症
尾声
尿液
岭道
布吉
席卷
幼稚
废水
庸
建筑@@
开户
彩虹
微克
悄然
悦@@
扭住
抵赖
拆借
挥手
排期
摊子
收件人
数次
斐@@
斑@@
旅居
无证
既@@
晋级
根除
格斯
检修
止于
死灰复燃
比利@@
民进
水区
水生
水路
江市
沟@@
泥潭
泽尔
浮出
涂炭
消费税
清朝
游艇
爪@@
片子
王倩仪
珊瑚
瑛
畅通无阻
白沙@@
百分之三十点@@
百分之二十九点@@
百分之五十二
真是
着急
睁@@
知情权
短讯
确凿
科比
积分
穆迪
空洞
端午节
纽
经济型
结社
绝路
考察@@
耻辱
膊
自相
芦须城
芭蕾舞团
苏黎世
茵
荫
莫过于
菲利普
蓝本
蕴含
薄扶林
蚁
蛇@@
行踪
补习
西沙
调查@@
费尔南德斯
赔偿金
足协
足迹
跳出
辅导员
迎候
运用于
返回舱
进发
追回
选配
逼迫
邮展
邮趣廊
都柏林
里约热内卢
针织
铁道
长乐
阿盟
隐含
难于
集群
青壮年
靖
顾全大局
预选
马尼@@
麦
黑海
+@@
130万
2.7
22亿
2500万
28781802
380
9.2%
china
ee
english@@
htm][11
ima@@
md
pd@@
sit@@
wcdma
○年
〇八
一万六千@@
一百零二
七十年代
丈
上车
不合时宜
专家@@
中五
中药材
丰盛
主人翁
乐富
乡事
买入
了事
争辩
二五八二四@@
二八五@@
二百四十@@
五二〇
仇视
仪表
企盼
作浪
侦缉
保守主义
倍受
候审
偏向
停售
全境
六八
兰花
关联@@
关门
军令
军长
冷冻
减收
出产
分贝
刘仁芳
利亚州
利税
劲旅
勉强
匪
十二@@
卡迪@@
印第@@
危殆
卷土重来
发展部
发起人
叹@@
同性@@
同级
吴亮星
周详
呼喊
咸
哈尔滨市
哈桑@@
哗@@
哨所
善信
喘
四分之三
四重奏
回收率
国投
圣火
地质@@
坦言
处事
夏悫道
夫特
夯实
奔赴
奥组委
女排
好不容易
婴儿@@
宝贝
实为
害己
寰
寸@@
小区
局限性
展区
展销
屠宰@@
岂@@
巾
平措
年幼
张学忠
张福森
强健
征文
徐
心头
怂恿
急症
惨遭
惯
成军
战员
截取
截止到
手提@@
手榴弹
扩增
抗御
拉到
拉德
招聘@@
指为
据知
搬到
放进
斧@@
旅费
早先
旺季
月饼
杀案
林光宇
林超英
果真
柏格
梭@@
步子
毒化
民航局
水池
水车
汇流
江山
油车
治沙
注销
洪圣爷
派团
测评
浑身
渝
港市
湘缆
漂@@
澳方
火山
灵车
煮@@
牧师
特·@@
特纳
王沪宁
理学
田亮
畜产品
痊愈
白立忱
百分之七点八
百分之三十四
百分之六点七
百分之四点六
皮鞋
盈
盖茨
盲
石原慎太郎
石灰
社福界
种粮
突发性
站立
童年
笃@@
笔试
第五十三
简讯
管制区
簿@@
纪录片
纱@@
纹@@
织
经查
绘
统筹兼顾
绩@@
绳
缅@@
罹难者
而出
耗尽
聚一堂
股民
肥料
腊
自营
自诩
舞蹈团
船街
艺术品
艾哈迈@@
药方
蛋糕
血汗
表白
表露
褒@@
襟@@
警戒线
讼@@
诊疗所
试用期
询
诸如此类
课征
谢尔@@
贝宁
货单
质押
费尔@@
越方
跟着
踪
车型
车船
轩然大波
软木
载运
辣@@
辩证法
迎刃而解
近乎
近程
逃亡
逃去
选择权
邬维庸
里亚
重弹
重镇
金色
键
长洲东湾
阿赫@@
陈文@@
陡峭
青龙
风速
飞到
飞行@@
香港区
马凯
骨头
高专
鸡肉
黄庆锋
116
118
1957年
2,0@@
242
3.
6.1%
:20:03
:50@@
at
ation@@
lg
log@@
lu@@
mic@@
min@@
off@@
ste@@
ter
一万七千
一八六@@
七点五
七百多
万里
上校
下跌股
下限
不许
专注于
两百多
中国网
主攻
主流@@
九份
九四
二一一一五九九九
二一四七五四七五
二七三@@
二零零六
五点五
交融
产卵
人民@@
伙伴国
传给
传讯
伪证
伸延
佩雷@@
供销社
依仗
依存度
依赖性
信任@@
倒董
债务人
健康院
先于
克林
全然
公有
军官法
净额
出行
分步
分裂@@
刑律
创办人
制式
刺杀
副参谋长
副检察长
力强
加班
劳动法
包容性
北斗
十运会
压倒性
参政党
反恐怖主义
反战
发誓
可笑
台北@@
同伙
听见
吸烟者
周转
唯物
围剿
国语
坚毅
堆沙
士道
壹@@
复原
外表
大渡@@
天篷
头条
夺理
奥马尔
好友
好客
如厕
妹妹
媚@@
字句
宁波@@
守旧
安葬
密码匙
居住@@
居心
山庄
峻
张家@@
弱势@@
强项
当区
彻查
往前
忆@@
快线
总算
总统@@
情治
惨败
成建制
截然
批复
抒己见
投保人
报国
抬
抵挡
拍卖会
拯@@
挟持
排挤
推进@@
摩理臣山道
摸底
撤换
撤除
收集@@
改成
攻击@@
攻占
攻打
政务官
敌后
敏锐性
斯洛@@
旅游区
明智之举
易事
普天@@
最低点
有薪
服务性
未列
杀伤力
杨立门
杭州市
梯队
植物@@
止跌
民航业
汝州
江湖
泪@@
洗礼
洛阳
海市
消业
渗@@
湖泊
溺@@
漠
炮击
版面
犯罪@@
王世@@
王牌
玩笑
环境@@
理论性
瓶装
界限街
百分之三十三
百分之八点三
百分之四十九
相识
站点
第四十六
筹得
系于
组歌
终院
综治委
缆
罗伯@@
置若罔闻
群体性
老调
聘@@
自如
航向
良种
节节
萨德尔
薪俸税
虐儿
蜂
行劫案
见效
观察期
言之过早
认错
讲出
讹骗
诗人
诡@@
调试
调迁
谢里夫
负责制
财源
财资
费城
贺劲松
赚@@
起重机
跃上
辛亥
迟缓
速率
逼供
邓国威
邮筒
里德
金关
金饰
铸造
长级
长鸣
防卫@@
防卫省
防腐剂
阻断
阿迪@@
附则
集邮组
零五年
非军事
非法定
革命@@
韦德里纳
顶层
顺德
饥@@
鹿
龄@@
05月
141
37亿
46%
56亿
9.4%
cy@@
fm
htm][3
html][12
me
mon@@
n2
son
t-@@
td-scdma
一万五千@@
一九九四
一千一百@@
上映
上海人
上缴
下文
不思进取
丨
中匈
为此
主席@@
之于
乐活道
乔治
九一@@
买官
了结
事业@@
事务@@
事局
二百二十
二百四十
亚省
交互
传播@@
伺机
停泊@@
偷偷
八八@@
公示制
内情
冉@@
刊宪
划上
刘春华
刷@@
前题
副省级
加宁街
加里@@
勋扣
募
北海市
华商
华语
南太
卢耀桢
反对者
台面
右倾化
各司其职
合理性
合符
向东
吴文昌
吻
咱@@
喂@@
喜讯
地委
埋葬
增信
墨西哥@@
士们
多维@@
天鹅
套用
奸@@
嫁
孔雀石绿
存活
学员们
安慰
安曼
实习生
实有
审判权
家里
小队
就业率
居住于
展厅
展台
展期
岁晚
峡@@
巴新
布里坦
库尔斯克
应负
开幕辞
弯
强暴
当权
心理学
必然性
感叹
截留
扑救
打倒
托运
扬弃
扯
批准书
扼@@
抒@@
抢夺
拼凑
接二连三
措
掷@@
提留
搜查@@
撼@@
收敛
效法
散步
整天
斯蒂@@
无序
昨午
智囊团
朝阳
权数
杆@@
李文@@
枪决
柴湾道
标识
校正
档休市
梅尔
棉花路
棠@@
次要
母子
比特
气象站
江青
油塘
法国队
泼
洗净
洗澡
洛克希德
海空军
消费国
港外
港岛线
港股
湛@@
滨@@
演化
火药
燃
燃油@@
特长
王恩茂
王汉斌
现阶段
珠海市
瓦努阿图
生育率
田北辰
痴呆症
百分之十点四
百分之四十六
监管@@
盯@@
盲人
真挚
研究班
碳
磨难
科隆
空天飞机
米兰
素描
约翰逊
纵向
绘制
维护@@
缉私
美式
老翁
肤@@
胜选
脑部
膀
自卫权
自由派
自重
航展
航舰
芝@@
苏植良
若果
获致
落水
蚀
表演@@
裂缝
装卸区
视学
言书
计时
计量
诚邀
诱饵
谢辛
贷存比率
贺辞
赌徒
跌破
跪
路透社
躲@@
车载
辖下
辟设
返家
连长
退党
通函
通邮
遗迹
邓兆棠
部落
酋长国
钱树根
陈耀邦
隆隆
隶属于
震中
静止
靶场
鞋业
领馆
馆内
骨骼
魄力
'@@
1,9@@
126
1951年
49%
5.5%
6.5
8.5%
82%
9.6%
az@@
ies
windows@@
一万一千
一八四@@
三亚
三千二百@@
三百二十@@
世界@@
东头
为公
为荣
为非作歹
乏@@
二百三十@@
亨利
亲近
任重
低落
依期
依赖于
侣
俄罗斯@@
俄联邦
俄通社
借款人
倦
倾
儿科
公开信
公开组
共和军
关节@@
再生产
出逃
列作
刘泰英
刘葆荣
前人
加里
劫匪
勃勃生机
勇往
十八万
博览馆
参联会
反盗版
叶小文
同属
后滩
吐痰
吸毒者
呃呃
周岁
哈方
嘎@@
四份
四化
因循
园地
国航
国道
圣经
坐落
增势
壮志
复课
外管局
头子
奥斯卡
奥运@@
妇女@@
姜
安娜
完整@@
实有赖
密闭
富豪
寨@@
尺@@
山头
崔崇尧
工程业
巴特@@
布雷
师训
带上
干嘛
开列
开发者
张长立
归咎于
当兵
徐徐
徽章
心机
急功近利
急欲
恳请
悬崖勒马
愉@@
截流
戴克辛
打消
打通
执纪
抑
投资案
抗病
捉
授意
政府@@
敌军
敬佩
数千万
敲击
文体
斯科特
时代华纳
昂扬
明珠
明证
普森
景区
曹庆泽
替换
有关@@
有条不紊
有盖
本钱
极差
构件
枕@@
林士街
架起
核军备
棕@@
椅
椒
概念@@
橡@@
款人
殉职
残暴
殖@@
毯@@
氟
没错
法援署
注册证
浑@@
煌
狙@@
猛增
玩忽
百分之五十一
盛情款待
石澳道
碗
窟
窥@@
立志
笛
第三十四
第五十六
第四十三
粮油
紫
绍
统筹@@
绥@@
继承@@
编列
老大
耐用品
胁迫
胆固醇
自信心
自杀性
至此
花招
茁壮
荣耀
落空
蕴@@
蕾
藤森
补价
见识
解困
计入
试验场
诺罗敦
调校
货柜@@
贯穿于
费改税
资源@@
赔
走低
躲避
转基因
软硬
输电
辗转
达州
邬@@
量力而行
金紫荆
铁闸
间谍@@
阴性
陇@@
陌生人
除此以外
陪@@
随团
雪灾
霉
靡
面部
鞍@@
预想
饕@@
107
124
154
1953年
2000亿
250万
28056403
28293010
4.0%
93%
investhk
ird
iz@@
new
re
spe@@
stat@@
www.@@
“@@
〇〇@@
一万八千@@
一万多
一九八0
一九八零年
一亿五千万
三七@@
下层
不愧为
不确定性
不约而同
不翼而飞
不见得
中间@@
丰碑
举证
乐街
乐观其成
乳
乳癌
争拗
二七八@@
交权
人所@@
仓储
伊荣街
众坊街
会议@@
体制性
余若薇
供不应求
促进组
信誓
修订@@
倒车
偶尔
傅
光是
克·@@
克明
八百亿
公分
六六六六
关掉
冯
决非
出乎
出尔反尔
分派
初生
利润@@
到户
制宜
副食品
力霸
劝阻
加费
务省
十二万@@
十时半
卫国
历史@@
县处级
发人@@
发问
变形
叛
叛逃
古人
可想而知
合作制
君子
吴伯雄
商业化
啸@@
囊括
地震局
基德@@
塔尔
塞内加尔
填土
增建
增订
备妥
复旦
大昭寺
大队长
失道寡助
头路
奥卿
奥德@@
奥斯陆
好于
妥@@
孰
宏图
定局
实例
寝@@
射频
尖沙咀@@
尚慕杰
尽情
尾巴
屯门@@
山村
巴塞尔
巴士@@
巴拉
布罗@@
布莱@@
希特勒
带往
平衡表
广泛性
应征
废旧
度量
张锦@@
当头
往事
徐冠华
徐德金
恩斯
愚弄
手足口病
才干
抓到
投送
担子
拍板
拘
拘押
拾@@
按钮
探矿权
控制力
摔@@
放手
故居
整件
文人
斑斑
无事佬
旦旦
时代感
时隔
智中
智障
李永达
李继耐
杰夫
林芝
果敢
枪击案
柴
标价
桑特
桥咀
桥头堡
桥头路
椒@@
比尔
毡
气管
水产品
水到渠成
汇展
沿江
海天
清贫
清风
游击
湿度
潮汕
澎湃
火种
烟草@@
熏@@
爆炸@@
牙齿
牛症
王学贤
珀@@
用字
田中真纪子
电信@@
男单
留党察看
病菌
痕
白金
百出
百分之五点三
百分之四十四
监理处
真空
眼看
祖马
神盾@@
稳住
稽核
第四十一
策发会
简布会
紧绌
红楼
统计科
美林
翔@@
聋@@
职称
聚敛
肝炎
肤色
肺结核
艰险
节制
花瓶
苏东
草药
莆田
获批
萝卜
著作@@
蛇口
蠢@@
行政院长
补领
西方人
西昌
西藏@@
计生@@
记取
讲坛
设防
诱导
财产权
责任心
货运商
贩毒案
跨进
路障
转好
迅即
运会
进党
道西
遗
遥遥无期
那天
重临
重担
钢筋
镭射
陈斌华
降临
隐忧
障碍物
雁
霍英东
面孔
题写
风灾
饲@@
马达加斯加
骗子
高山
高致病性
鳄鱼
黏土
131
134
2,8@@
2001@@
2030
32亿
330
34%
48%
56%
6.2%
7.5
8.7%
:2
:20@@
abc
cc
emb@@
hu@@
ko@@
sp
一九五九年
一早
丁光训
万众一心
三百五十万
三百四十@@
上文所述
下乡
下滩
不顾
业务量
东涌@@
中风
为零
主干
乐章
乐见
乔丹
九四年
九点
争得
二〇
二〇〇@@
二一三
二一五〇@@
于人
五二
井冈山
人仕
伉俪
伪制
体格
体质
佘@@
作废
例行性
倾向性
允
克莱斯勒
入魔
公共汽车
兴致勃勃
兴风
其馀
内线
再现
冕
凶杀
分摊
划线
刘永@@
利器
办妥
劣迹
动脉
十一点@@
半点
单列市
南汽
博士生
博得
厉以宁
去向
友情
受益@@
叙述
史钊域道
各负其责
吉尔@@
吉尼亚州
同仁
同学会
喀什米尔
嘿嘿
因于
困苦
国名
国是
堵住
填平
增开
天平
太空站
失信
威廉@@
宁愿
安倍
宗教@@
害者
小儿麻痹
尽头
居地
届@@
山脉
山麓
工艺品
差瓦立
巴嘎班迪
帐单
广播@@
廉洁奉公
律己
必备
恭
恰好
愈加
愚
愚@@
愿@@
打架
投掷
投票@@
抹黑
拉尔
招投标
拨给
挂帅
指挥车
指日可待
挥霍
捆@@
捏
换成
排水渠
掣肘
推演
推给
插话
援手
搬
撮要
支架
收容@@
放话
教育日
数天
数日
文物馆
方程式
日均
明令
春风
晏@@
更快
曾浩辉
最高级
有的时候
本部门
机关报
杂技
李春@@
林木
歇
毛保费
民歌
氧气
求成
汇报会
沉沦
法学会
法语
泯灭
洛克比
活生生
深圳湾
港湾
湾仔@@
火场
点评
照会
献出
王启人
王瑞林
王缉思
理查@@
瑰@@
生物@@
留座
百分之七十八
百分之六点四
百花齐放
监委
短裤
祭
祺
离休
离间
科学家们
租借
移民局
竿@@
第三者
第四十八
筑起
答谢
策划者
纪实
经销商
统独
绩
编纂
罪案率
美誉
翔道
翘@@
考取
胡志明市
自办
致欢
花园@@
苛刻
草率
莫斯科@@
虹@@
袖@@
裁判员
褐@@
要务
见证人
观音
警察法
讲师
说道
调剂
调查会
谣
谦@@
货款
贵宾@@
贻误
资助局
走高
超脱
距@@
载列于
辣
近月
连带
连锁店
递减
道远
道道
酿@@
释
金人庆
金奖
铀
锣@@
长线
陆运
隐匿
隔夜
难堪
需时
霆
靳@@
风潮
饭厅
馈@@
马哈@@
马尔
驹
高行健
麻原彰晃
黎明
黑市
1.9
10000
1944年
1961年
1973年
2,5@@
277@@
28152200
6,000
79@@
8年
9.7%
97%
:50:03
[10
b-@@
html
if@@
il
ipv6
mb@@
││
一万亿
一九七七年
一亿多
一千二百万
一点点
一百一十五
一览表
三〇三
三万五千
不胜@@
专业界
世上
东方红
主教团
举债
久拖不决
乌兹别@@
乒乓
乘搭
二十四亿
二零零七
五一四七三
们@@
优待
会操
位子
侄@@
侨办
俗话
信邪
偶
催生
僚@@
僵@@
儒@@
全运会
共约
养鱼户
军械
军衔
出力
分署
削
前台
剔
剥@@
加勒比海
务使
北岸
十六万
千余
博士@@
危机感
县政府
参会
参展商
发射架
发源
变现
只不过
可乘之机
合宪
吉祥物
同居
名城
哺@@
因果
园池
地标
基督
壶
处止
复工
大刀阔斧
大户
大浪
天真
夺去
妹@@
委员@@
威斯康@@
子尤
字幕
存于
季报
宇航
安居
完满
宜昌@@
宿营
密布
导引
导赏
小量
少先队
尘埃
居多
嵌
帅@@
干扰@@
平均价
年平均
开掘
开花
异地
张恩照
录机
彤
彩旗
得宜
感召力
感想
戊类
成语
手无@@
打喷嚏
打起
执法不严
投考
投诉@@
抢包山
抢走
拆解
拉卡
探视
搞垮
撑
擦
攫取
改写
斯大@@
新泽西州
方可
无几
无可
日航
景街
智能卡
曲格平
有待于
有恃无恐
有效率
有点儿
李小@@
李庆@@
李鸿@@
杠
杯@@
柯布连道
格罗@@
椭圆形
概要
欢
正直
殊@@
毁掉
民工
水流
水箱
油管
油量
泌
泰晤士报
流浮山
流连
浊@@
浪漫
消耗量
渐进式
游荡
滞
灵感
烽@@
牧区
物理学家
特困
狂欢
猫@@
现钞
瑶
用尽
电信局
电贺
疑点
疼痛
百分之七点六
百分之五十三
百分之五点八
百分之五点四
百分之四十七
皇民
省政府
真真
眼镜@@
着实
礼仪
神情
票面
禁烟区
福道
移往
空邮
笑声
第三十七
第三十五
简
粉饰
糖果
素帕猜
纠
红包
纬@@
经纬
绷
缉捕
罗伯特
罪魁祸首
考上
肚痛
自取
自残
自然人
自由主义
花车
苏恺
荒漠化
营利性
葬@@
蒙得维的亚
虑@@
行军
袁守芳
覆盖面
解密
订价
讲课
许光锋
设计者
证供
评估团
诊症
语重心长
豪宅
豪情
财委会
资本@@
赎金
赡养
起初
起卸
越境
跨海
路甬祥
车程
轰轰烈烈
输气
边贸
达佛
迂回
过问
近郊
进出口额
追寻
适当地
适得其反
通路
遇袭
邦戈
邻里
郑维@@
部际
金润赫
金灿荣
钊
铁笼
长制
闭门
闷
阿利耶夫
阿米塔吉
陈冯富珍
陈奎元
零五分
零零
露台
非礼
音量
颇@@
风向
饿
马克思主义者
驾机
骨子
骨折
高新区
高音
鲁斯
鲸鱼
00%
00年
11.4%
186@@
1976年
2003@@
3.4
4500
8.4%
930
96%
cr@@
im
sorry
tn@@
tra
一千一百
一班人
一百一十四
一郎
丁午寿
七千六百@@
不慎
专行
丢弃
临时性
主修
丽珍
之义
九十亿
乱纪
乾
二六一一三@@
二千亿
二百七十
云层
互让
五七
五金
亡灵
交易额
人像
人尽其才
从容
付费
代用券
代表权
以备
份@@
伊朗@@
伊犁
低位
借调
倾谈
免责
入内
全团
共庆
军内外
出生@@
刁@@
分包
刘敬@@
利己
制性
剥离
副主委
力戒
动物园
卖官
博尔@@
卡比拉
印机
卵
反私烟
取出
同工
吾@@
哈里里
响亮
唱歌
四十五亿
回馈
国忠
块@@
坚韧不拔
垒@@
埔
域多利道
埸
堤坝
塔里木
塞尔@@
壮举
声言
壳牌
大埔道
大奖赛
大陆热
夷@@
夸张
夺回
奶粉
如出一辙
妃
姓@@
存疑
存贷款
孜孜@@
守信
宝岛
寂
导火索
屡次
幅@@
庄如顺
序言
应运而生
庙街
弗雷@@
录制
得利
思想家
或有
截击
打进
打鼓岭
批给
报关单
拉马@@
招待所
拨冗
拷问
换上
排污费
排泄物
提款
擒@@
支前
支援@@
支点
攻潜
放火
救熄
教研室
敲
斐然
新低
施以
无名
无家可归
无损
日臻
日语
时性
昊
晾@@
曾钰成
有节
朋辈
服务组
期于
朵
机动性
机舱
李卓人
李子彬
柯伊拉腊
根子
栽种
榆@@
横滨
歼十
歼灭
母女
民心所向
气质
水运
永无@@
汽车业
沉船
沽@@
法医
洛克@@
洛斯@@
活动室
流通@@
涡@@
游锡堃
漫
漫游
火箭@@
灵敏
炭
焚毁
焰
照抄
爱戴
爱教
特别@@
狂风
王金平
用电量
百分之四十八
直言不讳
着眼点
碱
磨
祖宗
福尔摩沙
种草
穹
空降兵
窘境
笼统
管理员
系统化
约翰博尔顿
纵火案
纷繁
纸袋
美术@@
羽
耳朵
胸部
自省
臭名昭著
舞厅
航权
舰上
芒
英联邦
药丸
菲国
菲律宾@@
菸@@
萃@@
薪水
蜡烛
被困
裂痕
装配式
观光@@
记忆体
讲授
诗琳通
谜
谢罪
谬误
谷底
貌@@
负担重
贻@@
赢@@
赫尔佐克
足见
趸船
踪影
蹄
躬@@
车尾
转职
转车站
轮岗
轮战
轻轻
过长
迈阿密
违宪
迷失
逮@@
遣散费
野中广务
野战化
金桂冠
销往
锺@@
长安
闲
陈佐洱
陡@@
险情
陵园
随意性
雁@@
雄壮
零点五
霉素
驻院
骗局
鲁莽
鳗鱼
黄鸿超
黏@@
10,000
175
2,6@@
2001-02
258247@@
3.7
35万
460
8,000
88@@
:0
][20
comm@@
fo@@
han@@
har@@
html][11
npt
shernise
wil@@
—@@
一九五八年
一元化
一心一意
一步
一零@@
丁类
七七
三亚市
下稿
不以为然
不言自明
专业性
东岸
主导@@
主脑
之门
二0@@
二点二
二百六十@@
二零
亚于
亚洲人
代代相传
以继@@
仿
仿制
休斯顿
伙@@
住处
住宅@@
佛学会
佩去人
供销
侠
侵吞
储蓄率
催人
儒家
克莱斯蒂尔
入学率
其言
内地人
军内
军服
农用
冯国经
净利
准将
出错
刃
利剑
劝告
医疗@@
千家万户
卢布
卫生厅
印尼籍
厥@@
友谊赛
反湾泳滩
反飞弹
台塑
司机@@
吃亏
后座
吵架
周寒琼
唐天标
商务@@
商营
嘱咐
图形
地面@@
坍塌
外交家
外访
多余
多明@@
夥@@
大妈
大意
大选年
天山
天颂苑
太空人
奈尔
孙广相
安源
官场
宛@@
宣战
宰@@
宵
家喻户晓
家禽@@
寡
山河
巡逻@@
巡逻艇
差价
巴解
平均值
年初一
度假@@
开场
开拓@@
弄污
弗雷
张黎
弦乐团
弹劾
强盗
强风
德市
恕
悉@@
惠民
成形
托马@@
扩张性
扫清
折磨
报案室
抹
拂@@
拨作
持久战
挨打
捐献
捧@@
接驳@@
搭配
摆卖
摩根
教士
敲诈
斧
斯塔
旁加王旁
无轨
日科夫
时评
明晰
是呃
晃
普斯
杂志社
李志@@
枝节
桌子
桐
梁肃戎
梧@@
检验@@
棕榈@@
植根于
椰@@
残奥会
殖
殷
毁于一旦
毕业@@
毫@@
污染@@
汤加
沙姆沙伊赫
沥源
法会
泵@@
洛斯
洽会
流亡者
测试@@
浩浩荡荡
淡泊
渔农业
温床
湾仔道
漫步
澜@@
灭鼠
炙@@
熊自仁
熙@@
特写
犬@@
独尊
狭小
玩忽职守
白杨
百分之八点二
百分之六点五
百分之十点七
监察员
直系
票站
票箱
稽查
立论
简明
管方
粒@@
精减
索赔
紫荆@@
繁复
纺
绚丽
统帅
绪
续任
缸
自家
自治县
苑@@
英里
茶具
荣立
蛋@@
补偿金
规画
言之
讨
许志功
许惠@@
诈欺
读书@@
货区
贿选
走路
超限战
踞
蹲@@
边缘化
迁徙
这样一来
进口国
进口量
违法@@
连接@@
迪斯@@
逐级
通俗
郊外
酒家
铅@@
银川
销路
闭幕会
防空袭
阿德@@
阿马托
陈昊苏
陈明义
院友
隐性
非油气
韩文藻
颂德
预
颓@@
风雪
马会
高德@@
鲁平
黎栋国
黔@@
齐备
119
1977年
2004/05
246
28777711
3.2
316
34亿
36亿
530
54%
8.8%
APEC
ant@@
ban@@
cit@@
ics
mh
um
一九六七年
一九六二年
一以贯之
三九
不争
不善
不堪
不朽
东县
中保
中常委
中正
中用
主场
举重
乍得
二○
二六七五三三@@
五万多
五十五分
交汇
人防办
介于
伟民
传承
伯恩斯
何祚庥
信义
信息业
候命
借阅
先遣
克尔@@
克森
兑换@@
党代表
党首
公物
六千多
写进
冯国@@
划拨
前赴后继
发改委
发热
可怜
可致
可读
台山
号令
合议庭
后头
后来@@
咀
和缓
和衷
咎
唐国强
商事
商们
商贸@@
器械
四点八
回击
国库券
国防法
坎培拉
域@@
塞特
壮胆
复盖率
大大小小
大脑
失业者
嫁@@
守卫
家家
寄养
对冲
寺@@
就学
就读于
展示@@
山县
崩
工行
巴伐@@
席间
平地
幻彩咏
广开
库尔@@
开行
张佑才
张志刚
张立昌
归于
影碟
心中
思念
总的@@
总设计师
恢@@
恩怨
悖
懂@@
懿@@
成绩@@
手续费
执掌
扶手
抗议者
抵近
抽验
拓@@
拣@@
拥军
接力
搏斗
搜掠
搬出
摔
收养
政治学
政治家们
政策组
教院
数以百计
数据@@
文科
旅游点
无害
无所作为
旧衣
春秋
昧@@
晨报
曼彻斯特
有为
机枪
机能
李福祥
杨振@@
板门店
枪杆子
框框
梁振英
梭织物
棍@@
正派
正确性
水不@@
沙伊@@
沙化
沿边
泌@@
波普
海洋局
海盗
清凉
渗漏
湄@@
漂白
焦急
牛津
特级
特辑
特里@@
猴@@
玄机
王家瑞
王建@@
环路
现世
瓜分
甚嚣尘上
生力军
由此
电工
电气化
痴@@
百分之九点三
百分之四十二
盗取
盗版@@
直通车
研究组
确是
碇@@
示弱
祁@@
祥街
种植@@
穷途末路
突变
竞投@@
筑@@
策动
筱@@
简陋
米洛@@
粗略
糟@@
紧守
纳州
纷纭
细菌@@
经贸@@
经贸办
经贸界
续牌
维兹
维多利亚@@
编入
罚金
老公
老牌
而后@@
聊天室
肠胃炎
胡达辉
能干
膏
自决
臭氧层
舅@@
舞龙
航点
良方
节水型
芯
菸
菸草
营办者
萨斯
葛林斯潘
藏品
血站
西边
观察团
言不@@
警声
训练有素
许可@@
诚然
象征性
货站
贷款人
贸工
贾南德拉
赫德
赵光华
超常
跨度
跳楼
车厂
车流
轨道站
边际
达尔@@
运筹
追逃
逐月
遇事
遥相
遵纪
钜@@
铜锣湾道
铮
银兴
镐
阀
防区
阶@@
附上
隔膜
集团@@
霍罗兆贞
非官守
韩战
顽抗
颗@@
飞航
驰名
驱
验出
骤@@
鬼话
魁@@
魏
魏礼群
鳄
137
13万
148
152
168
2.89
21@@
390
400亿
5.5
6.3%
7.0%
86@@
asia
chp
cial@@
d-@@
ile@@
labour
not@@
op@@
ric@@
s/ne-@@
smartid
vel@@
wh@@
wireless
x-@@
一九七四年
七三
下定
下方
不服
不知不觉
专辑
严阵以待
个中
中下游
中四
中孟
中度
中暑
主演
义勇@@
乘势而上
二00四年
二八六〇@@
五·二零
产妇
产子
亲善
以利
仰赖
任毓骏
休养生息
会合
伤心
低劣
低级
何为
佛像
佬
使团
信纳
候选
偏僻
做主
傲
克里
六一
其为
内罗毕
内销
冠军@@
冰雪
冲刺
冷漠
冼岩
准会
分业
刘涌
前无古人
力道
务员
劳工@@
劳工界
劳拉
勒令
十五万@@
卡加利
印本
历代
原子
反贪污
发酵
受众
受款人
变卖
叮@@
吁@@
同心@@
同江
名言
启航
吹捧
周转@@
品尝
哗然
商学院
四起
回过@@
园内
图强
圣公会
坠机
坦桑
坳@@
埃亚德马
塔拉尔
士业
复印
复康部
外贸@@
多夫
够@@
大典
大宇
太古
失言
头衔
夺目
妄加
妇委会
委屈
姚明
安省
实绩
实证
客流
宿务
对立面
尉
小巷
尤甘斯克
居民@@
岐
巴利街
巴拉圭
市级
布图
希腊@@
带返
并称
幽@@
库昌
延线
开普敦
开课
开路
当官
彰@@
徐四民
微小
志伟
念头
总分
悟@@
惩教所
戕害
戴麟趾
手上
手臂
扎根于
打印机
托马斯
批次
抬高
拉比
拚@@
指手画脚
探险
摔打
支取
救世军
救护员
救起
整编
斯特劳
新生@@
无铅
旱厕
普通@@
暗箱
更形
有目共睹
服务界
朽
杀戮
杀虫剂
杨国@@
林立
格列
梵
检查亭
棘
橄榄@@
欠债
正义@@
毛致用
毫不
民居
氯乙烯
污水渠
沪深
河野
治愈
法师
泳滩@@
洗衣机
洛杉@@
浴
浴@@
涨价
渖阳
火车头
灭火@@
灵童
热衷
熟知
牛头
犯罪率
狡猾
独具
王云坤
璞
甚微
电局
病死
痴
百分之一点零
百分之三十六
百分之六点六
百分之十点三
盛街
盟@@
相联
相见
真话
矢志
破障
碑@@
福街
禧
秉持
秦刚
窒碍
童工
第三十三
答卷
管理权
粉丝
粮价
纤
结语
维亚
维权
网通
网际
置之不理
老人家
聚精会神
脊髓
脚印
腕
自由度
航站
舰只
芜湖
菁
菇
菜街
蒙古国
薪资
藏身
蛋白质
蛙@@
蜡
螺@@
袁铭辉
袭击者
西西@@
覆辙
规矩
解释@@
警告@@
议定
识破
诞@@
请勿
课业
赫巴@@
走马@@
超载
趋同
路由器
身影
轻视
辈出
过好
还原
进城
违返
逐项
道美利
邮址
郊@@
配合@@
酱
重判
重金属
金马
钱包
钱币
铎
锚
闭关
阿南
陆桥
陈光毅
难产
露骨
非工业
面纱
鞭策
韦尔@@
顽@@
馀人
馨
高级别
鱼涌
黄镇东
,0@@
156
16万
1992
2.6
2.9
2000-@@
288@@
39%
44亿
45亿
47亿
53%
68%
7.4%
99%
:00
[2006-07
][8]
ations
cn
english
med@@
mt
nba
pa
secur@@
ster
sy@@
ter@@
tv
vo@@
wibro
━
〉
一九五五年
一点八
一百五十多
七点
七点七
三千五百万
上半@@
上山
不料
不理
专列
业权人
东方@@
严于
中伤
中校
中科
中转站
串联
乃倩
乔夫
九么么
乡乡
乾@@
事无@@
二三〇五七五@@
二五八二四九一八
二八六@@
二四
二百五十@@
以民为本
会商
传感器
伤健
住友
体检
保健员
保有
保税
保障力
假象
停水
僧
六五
六千五百@@
共同社
内乱
冲击@@
分界线
切切
切忌
刘励超
刘文@@
初始
判头
制空
剂量
前妻
力促
办报
加幅
南丹县
南通社
卡斯楚
原居
原谅
发明@@
发难
取道
台研所
吃掉
吊唁
吴水丽
呃我们
呢呃
命中率
咽@@
哈尔@@
哈桑
售罄
唯恐
四人帮
四千九百@@
固本
国务委员
土星
圣保禄
地势
坚挺
坠入
娱@@
嫖娼
审批@@
客家
客源
宣传片
宪兵
尉@@
屑@@
工业家
巴加湾市
巴洛@@
师团
带进
幡然
干戈
幸好
底部
延科
延续性
弗莱舍
张宝@@
张玉@@
往访
微调
微雨
德国队
心理战
悔
情人
惟茂
惠州
惯性
慨@@
懈怠
战友们
手推车
扎什伦布寺
托克帕克巴耶夫
执着
批发业
承载
抗大
抢劫案
报以
抵抗力
拖下
拙劣
拥有@@
指证
捷报
排行榜
接掌
搭档
摆设
摧@@
撤退
操练
擢升
收率
救世主
施放
无能
日夜
旭东
明春
明街
晴转多云
暴动
暴风
朴实
杂类
村山富市
杜哈
松脱
林彪
柬方
核威胁
检取
检走
棋盘
棺木
楼层
橙
欧阳@@
欺
欺世
歌舞团
毅然
毋庸置疑
比作
民政署
水东
沦@@
波特
洪圣爷湾
浮夸
海防道
淀
淫@@
清缴
游戏@@
满洲国
滤@@
潜移默化
澳大@@
激活
火炭
火药@@
火葬
点出
烧焦
燕山
爱岗
牟其中
牧场
特技
特种兵
狭义
王庆@@
王玉顺
王锡基
玻@@
理清
璀璨
生产性
由喜贵
电话卡
留待
百分之七十三
百分之九点七
百分之八点五
百团大战
盆景
睡房
石万鹏
硕
福清
禽类
窃听
等额
繁琐
红棉路
终审权
结合点
绵
缪@@
美味
美女
美容@@
翎
翡翠
联产
聪
脊
腹部
膝
臭味
舰载
花盆
苏志荣
苦苦
营业@@
萨苏
葡萄牙@@
葱@@
葵喜街
蒂奇
蔡元云
虚弱
衰落
计算@@
讨厌
议院
许世铨
诈@@
诉讼@@
说穿
财政厅
费俊龙
赐@@
起立
路易斯
身后
车场
转告
轮换
轻率
辛劳
辛辛@@
返国
进村
遗属
释囚
里海
钟悟思
铺垫
错位
长春市
长袖
防化兵
防备
阿达@@
陈志@@
陈清@@
难以为继
零八年
霜
霸占
非洲人
面谈
预选赛
风筝节
馀名
骅
高烧
高能
黄岩岛
黑手党
0218@@
0223@@
1,4@@
1,7@@
1.11
114
121
128
1500万
1962年
2.8
2007-@@
205@@
208
27亿
28056@@
31亿
5.0
5.8
6.0%
7-@@
8.6%
84%
900@@
999
C@@
age
ate
cpi@censtatd
du@@
e.@@
ev-71
href
pac@@
〈
一九七一年
一点四
一百一十万
一百六十万
三百零@@
三线
下议院
不下
不和
不啻
不知所@@
不足为@@
业于
东南欧
个别人
中小学生
中心区
中文@@
之战
二0
二八〇@@
二八九@@
二点六
于幼军
互致问候
五千亿
人材
人烟
伐@@
伪善
伴奏
保人
保释候查
倩@@
做客
健硕
傲@@
傻
充其量
光临
克劳斯
克里米亚
全员
八八
公交车
公式
共知
关节
其四
其是
军代表
农家
况@@
冷空气
准予
几十亿
凹
出局
刑责
刘云非
利库德
制衣业
剩余物
力主
加开
区域化
区委
医学会
十一@@
协约
单极化
南街
反覆
发回
发指
叛国
台股
右倾
名气
含意
命题
哈特
哈玛斯
商工
喷射
嘉木样
回暖
因病
团圆
围住
国民党籍
国运
在所@@
在押
坪
垣@@
埃文斯
基纳@@
堂堂正正
境况
壳类
外交@@
多姿
大报
奉辛比克党
奢侈@@
好比
姊妹
威廉斯
威灵顿街
嫩@@
孙女
学人
孵@@
富饶
对称
寿司
封闭@@
尚早
尼奇
崇敬
巍@@
巡逻队
布斯
布雷默
帮扶
干好
库马拉通加
底子
建筑界
建筑群
弄清楚
式样
张义山
当地人
御@@
德国人
德沙雷特
心勃勃
心甘情愿
忏悔
忠良
快于
怨声
总行
恩隆
恶心
恶行
情事
情人节
惠普
打听
抄
抚
报名@@
报复性
报案人
抽选
担保书
挂上
挑衅性
挚@@
挺身而出
接班
摺
撇帐
撤
撬@@
操作员
改革派
政工
教育组
数码化
斯曼
新竹
施君玉
无神论
无稽之谈
无锡
旧房
早晚
时而
昆明市
星火
晶晶
有所@@
有所不为
有组织
朗杰
朗诵
木偶
本科生
机长
李保东
李自健
杰克@@
松下
极刑
林健锋
枫
栏@@
核数
案率
桢
档案馆
欢快
武林
母体
毫升
水禽
汀
沉迷
河段
法兰西
法外
泪水
洛佩斯
津助
浙@@
涉华
淡薄
清廉
渔户
港资
潜水@@
火箭弹
焉
熟识
牛奶
犯错
王维澄
理查德
理论界
瓷砖
生育@@
用武之地
甲烷
百分之八十二
监察局
盘价
直飞
相去甚远
看准
真情
矗立
知识化
磨炼
祛@@
神学
福利金
私藏
科学城
科技馆
积蓄
移入
移民@@
立方
答允
练就
统一性
缓缓
老总
考评
而入
肾@@
胆识
脸色
自认
自选
致于
舆论界
舵
苏维埃
苗学礼
萃
营业税
萨瓦
蔡莹璧
藐视
虐囚
衡工
袁伟民
袍
西布曲明
规程
览@@
角力
解振华
试办
诵@@
读本
豁@@
质量@@
贪图
贺冲
赵宇
跟党走
转任
轻描淡写
轻而易举
辨@@
过世
迎战
进京
连署
追击
选务
遏阻
道夫
邻舍
重特大
重置
金字@@
闲置
阳县
阿拉斯加
陈国强
隐私
露营
非同寻常
顿珠
颁令
预早
频传
风琴
香菸
馨田
马利
驱赶
驻日
黄石
黄赌毒
0620@@
11.2%
11.6%
129
161
17万
18万
1948年
1969年
2015年
23]
269
3.8
51%
52%
550
5年
][13
all
bro@@
cn@@
emb.gov.hk
fi
fre@@
pl@@
plan@@
post@@
ub@@
yo@@
一万七千@@
一九五四年
一九四六年
一点六五
一百一十一
一百一十三
万宝瑞
上交
上议院
丑化
丝带
中国海
中央社
中游
中肯
主心骨
乃尔
义工队
二七一七一七七一
二九二一@@
二九六一八@@
二八三三@@
二八零@@
二百八十
二百六十
五六
亚州
亚斯
产业带
仅有
付货人
伏笔
会计法
低速
佐立克
余粮
佼@@
保监会
信息权
值得一提
偷逃
先知
光街
党政军
入么
入阁
全委会
公听会
兰人
共荣
关上
关系组
内塔尼亚胡
冒出
军训
冯志强
减为
凝结
凯旋
出血
刘古昌
创始
判案
判罪
制假
削@@
力战
务业
助选
劫难
勋@@
十六万@@
千百
卅@@
卓著
南市
占有量
原地
双重
反倾销税
反潜机
取水
叠
叮嘱
可携
可视化
同盟者
名胜区
后事之师
吏
吞吐
听任
哈尼
哨兵
哲宁
回应@@
围道
地主
地产@@
地震@@
坐标
坟@@
基本@@
堪
塘道
大不@@
大伟
大体上
大藏省
大麻@@
天弓
天王
央@@
夺走
媒@@
孙杰
安稳
审判庭
对路
寻获
导人
射线
小事
小浪底
就座
尺寸
尼斯@@
居民区
展位
岭市
工作服
差点
布伦@@
带去
年龄@@
庇护@@
应于
开创性
弓@@
张江
张祥
强奸@@
彩排
影星
德科夫
快报
怒江
总督察
恼@@
意涵
戈壁
成龙
户主
托人
执业者
批捕
承担@@
抑郁
投射
抹杀
拉合尔
拉宾
拜祭
括
拴@@
指模
捷径
掠过
接收@@
接过
推诿
撒谎
改进党
政体
数百亿
新四军
新界@@
无上
日照
明眼
易爆
显要
晦
暖化
未定
本年
杭
林市
枷锁
样板
桃园
桦
梭
椭@@
榕
正统
武韬
汇道
沼
法鲁@@
泳馆
洽
海旁
深加工
添加
渊
漂流
灌救
烤炉
热量
牧民
特务
特森
猎
王明
班车
琢磨
生命权
生还者
电联
男生
甸
疑难
百分之七点九
百分之三十五点@@
百分之三十八点@@
百分之四十三
百家争鸣
益于
监测@@
眼神
瞎
研究部
砥柱
票控
禽@@
稍有
穆塞韦尼
简洁
约瑟夫
经委
绝对@@
维利
维茨
缓期
罗门
置换
联运
肩上
背面
腐败@@
膜拜
自上而下
舒
船上
苏里南
英模
英语@@
薄扶林道
薄雾
衰竭
视同
解开
警察@@
警犬队
设计业
语常会
谈心
谍报
贝利
贝类
责任@@
购券
走私@@
跋涉
踏步
身手
车量
转眼
辅导组
返乡
远处
送出
选举法
逐
通知@@
遗嘱
遮打道
金塔
锏
错案
锻@@
镶@@
闽南@@
难受
零点
霍
霍震霆
非典
鞠躬
顶峰
颐年
风势
首发
骏@@
高乐
高产
高处
高昌礼
鱼翅
麦国风
黄咏华
龟@@
0.1
022@@
10.5%
120亿
133
139
145
1958年
1968年
2869
5.0%
5500
6.8
6599
65亿
72%
87%
9399
:05:03
:35@@
\@@
][12]
ence
fran@@
info@@
ke@@
mob@@
pan@@
syste@@
uf@@
um@@
―@@
一击
一哄而起
一大@@
一概
一百四十八
丁渝洲
三七
三万多
三千亿
三百一十@@
上方
下雨
不谋而合
不齿
专员署
专用@@
东京@@
严词
丧
中医师
丹瑞
为生
主业
义工@@
乍@@
乐成
乔治亚
九三学社
事务组
二八〇二一二五八
二十余
互派
五·@@
五千八百@@
五百五十
亚人
亢@@
交流@@
交流团
交货值
产经
今冬
令人@@
件@@
任达荣
体改委
何世忠
何必
余克礼
便衣
俄共
俄罗斯人
俭@@
修筑
倚重
偶像
光电
关照
兵戎相见
养殖@@
内存
内藏
冒充
写成
军阀
分目
刑事@@
刘少@@
刘松藩
刘金国
创作@@
创新@@
删减
刮起
券商
副产品
功课
加工厂
加拉@@
务官
募捐
化率
北京人
匾
十三万
华建敏
华立
华莱士
南德
卫生局
厅@@
友爱
反射
受旱
叠@@
另类
可信@@
台中
台方
吉祥
同感
听证
吸烟区
吹袭
周全
哈拉雷
哈里斯
哥伦@@
唤醒
喂
善款
喘@@
噩@@
四万五千
回教徒
回良玉
国徽
图利
地板
声请
备取
外经贸委
多米尼加
大兴@@
大山
大帽山
大旱
大老山
失聪
套汇
奢侈
奥尔特加
女大
妇女节
始作俑者
威吓
威廉姆斯
学问
宇航局
宰割
宽敞
对话会
小异
尽职尽责
层压式
峡道
川立派
巢
工期
工贸
差错
巴特列
巴耶夫
师级
希米
帕夫@@
常用
年复
庆幸
应得
府@@
度身订造
延缓
异己
弧
弩@@
强生
往下
征兆
志向
忽然
急促
性暴力
悬空
意大利@@
成克杰案
户户
打断
执行部
投机@@
抗药性
护卫@@
抽空
拉鲁
拼音
挤拥
捉拿
捐出
损耗
排水量
接收站
推陈出新
掩
握有
搁
搅
摩托@@
收债
改土
改良@@
改革@@
政改
政教合一
敌手
敦义
数典忘祖
数派
文翰
斩
斯特凡诺普洛斯
斯诺
新民
旅法
旅途
日联
旦
明辨
景致
替代@@
有志@@
朔
朝拜
期末
本·@@
机率
李国宝
李道豫
村级
来港
某地
根治
格格不入
梁光烈
梁医生
梅内姆
梅杰
森严
椅@@
欺诈@@
步兵师
毯
治税
泛起
浙
海关法
海河
淤塞
深井
淹
清正
温馨
漆
澳门@@
火势
灿@@
烟幕
烧烤
热络
焘
焚化炉
照相机
燃点
特产税
特备
猝@@
环太平洋
现实性
珞@@
甘乃迪
生息
用上
用途表
田毅
田街
疚
百分之八点六
百分之十二点五
百分之四十一
直升飞机
相声
眉
督查
矫正
研习班
研究局
磁碟
礼券
社会学
神六
祥道
离奇
穆加贝
空头
竞价
竣
类似于
粪
粹@@
精细
精英@@
紊乱
纸巾
纸板
经援
经陆路
绝食
缕
罕有
美光
美景
考试@@
联组
聚集@@
能动
脐带
舒缓
艺术界
芭蕾
芯@@
茨基
草木
菊@@
萍@@
落差
葬送
蟹
表四
西亚松
西安市
观塘道
触觉
认许
讲演
评委
评核局
诡辩
说词
谱@@
负数
贴现
赞叹
赢利
赦免
趋好
跌势
车胎
转折@@
轮候@@
输掉
输港
边关
过急
迎辞
还给
进退
迥@@
造纸
酷热
银行卡
锣
长寿
门牌
闫@@
间谍罪
防盗
陈国@@
陈海燕
降水
院内
顺便
颤@@
飘
飞利浦
馀万
马国
驳@@
验楼
骚
高座
鸦
鸿图
黄华@@
黄山
黛@@
,5@@
.org@@
0.6
1/4
10.3%
15000
155
183
187@@
1937年
2003-04
211
220@@
225
2887550@@
296@@
520
76%
9.8%
9001
dec
esdlife.com@@
gov.hk][5
html][6
ital
ju@@
liuyifeng
of@@
s/yl-@@
一九九一
一发@@
一型
一点一
一百三十八
一百二十亿
三十八亿
三百六十
下期
不义
不舍
不计其数
专供
业力
东北@@
东闸
丨@@
个人@@
中海油
乌有
九十多
买来
争吵
争当
争论不休
二八八七五五零六
二八八二四@@
二十一亿
亏损@@
亚银
人心所向
以供
任者
伊尔@@
伊斯
伏击
休斯敦
众人
传媒@@
伯特
佑@@
体面
佩尔松
便携式
保外就医
倒打一耙
偿付
催化
先天@@
党心
八九年
八二
公债
共进
兴街
兵法
冗长
军情局
几万
出土
函电
分享会
切尔诺@@
列示
刘启雄
利落
制剂
前车之鉴
副司令
加拉加斯
加税
动听
勾划
匹
半天
卡塔@@
卡罗@@
卡达
印刷@@
即席
去处
县市长
参事
双管齐下
反倾销@@
发作
发现@@
取暖
变造
叶震
合会
合论
同场
吴建民
吴霭仪
商企
四点六
园景
圣卢西亚
圣城
圭@@
地下室
地方@@
埃斯@@
堕入
塞舌尔
壹一@@
复习
夙愿
大方
大步
大过
天下之@@
套票
奥巴桑乔
奥斯汀
奥秘
奶类
娴
存折
孩童
守礁
实践者
家破人亡
宽恕
寮屋@@
对江
封信
小榄
尔后
尖面
山东@@
峡谷
巴布亚新几内亚
布热津斯基
干流
年初二
库斯
应征者
应约
度汛
康健
开幕词
弟@@
张伟@@
张德江
张敏仪
弦@@
强手
征信
徒
微幅
心力
必究
忌@@
志刚
急需
总社
总结@@
恼
悲伤
惩
成交价
或多或少
才俊
扑头
扒窃
执导
扫射
扬州
承判商
报废
拉里@@
拖入
挺进
损人
掏@@
掠
接续
援外
摩顿台
摺@@
收入者
救捞@@
教科文卫
整肃
文华
文明史
新症
无动于衷
无果
日出
日银
昭著
暑@@
有机可乘
朱德
权者
李东@@
李克强
李天@@
李显龙
杜梅
来世
林兆@@
林肯
某某
树苗
核发
核数师
格言
案底
桑切斯
欠下
次年
止境
正常人
正负
死海
民进党籍
氢气
水患
江西@@
沃尔
沙漠化
油尖旺区
治罪
洗涤
浓郁
海口市
海陆
液化气
清明
渔政
游离
潜心
灯会
点击
点头
然无@@
物权法
特委会
狐
狩猎
王德@@
王志乐
王晨
王雷鸣
环谘会
现实主义
理想@@
琵@@
瓶@@
甚至于
用家
电波
病历
痛斥
登岸
百分之一百
百分之九点五
百分之十一点三
百分之十二点七
盐田仔
盛载
相伴
眷@@
祖父
祖父母
神职
离子
离子@@
离港
秀丽
秃@@
稀少
程安东
税金
空射
站岗
簇@@
粮库
糊@@
繁衍
红外线
组员
统计期
缴税
罢免案
罪大恶极
而来
股息
肾
背心
脊骨
脑袋
自恃
自查
自警
致上
致癌
艳丽
艾森@@
芥@@
芭蕾舞
苏拉@@
英才
英语营
草稿
获奖者
萨拉@@
萨默斯
葵涌道
葵芳
蛛@@
蝉@@
补给@@
西式
詹懋海
誓师
警备区
计则
训练营
记录@@
许淇安
诚心
说呃
调入
谋生
谭悦新
豫
贩私
贵族
贿
赔款
赠款
起居
起跑线
越过
跳绳
踏进
蹲
车手
轧
转产
轻纺
辞呈
边防军
迁建
迄@@
进攻@@
远方
迭@@
逐个
通卡
逛
邀请@@
邀请赛
邓
酱@@
重拳
重铺
钉子
钜
钟丽帼
钢铁@@
销售商
销售率
锐利
闷@@
闸蟹
阅读@@
防城@@
阿卜@@
阿塔@@
降为
降雨量
除害
隐蔽@@
霎西街
非专利
非正规
顶级
频仍
颜霜
餐饮业
马尾
马方
马来西亚@@
高架
黄仁龙
黄容根
黄成智
黑夜
默哀
-5
000亿
0222@@
106@@
136
144
157
184@@
18780@@
20/@@
215
258250@@
301
67%
71%
8.0%
802.16
95@@
99亿
:35:03
I@@
afcd
amp
bay
cb@@
ea
hous@@
hz
ir
jsp][11
mer@@
plugfest
rfid
statisticalbookstore.gov.hk][5
urbti@@
一九五七年
一九六六年
一齐
七万五千
万物
三一八
三三
三份
三千九百@@
上文第
上诉庭
不休
不凡
不见
世妇会
丢失
中心会
中蒙
中阿
主政者
主教练
主权@@
举世闻名
举出
之无@@
也是
二三〇@@
二点九
二百八十@@
亚特
付给
代言人
伊斯梅尔
伤财
伪冒
低者
住用
佐敦
体魄
作收
保护局
保管@@
保良局
俨然
假话
先人
先河
入场证
全胜
公义
公事
公证
六千五百
关系网
其时
养殖场
军事@@
军医
冰川
凌驾@@
减肥药
出谋划策
出轨
分治
刊发
刘伟
刘千石
刘志@@
创业@@
加尔
加措
加注
加罗@@
劣质
动情
助学金
劳民
势将
募@@
北海道
匿藏
十五点@@
十字路口
卑鄙
单凭
南太平洋
原址
叉
反补贴
发光
发展处
受援国
古董
古道
台安法
司法界
吁
同甘共苦
呵呵
哈达
哼
啃
啡色
喇@@
喜道
囊@@
四分五裂
四千五百
四面八方
回稳
因势利导
困难重重
国安捐
国权
圆玄
土墙
地体
地库
坏账
垂
埃斯特拉达
堪忧
夏令营
夏日
外勤
外援
外移
外长级
夜晚
大事
大江
天津港
头盔
奠基@@
姊@@
始祖鸟
委们
姜颖
婷
子弟
子弟兵
子玉
孤立主义
安德烈
宋庆龄
定量
宝灵街
实则
实名
宠
宽裕
对抗性
对着
小偷
尚余
尼泊尔@@
屋脊
屯垦区
崔天凯
巨款
巴塞@@
巷@@
布卢@@
布阵
带队
年增长率
广东@@
广纳
康街
开幕会
开赛
弃置于
张军
张高丽
得益@@
德雷@@
心战
总而言之
惊奇
愧@@
成灾
所幸
手术@@
手部
扎卡维
扒@@
托卡耶夫
批租
投递
报关@@
拥有权
拦截器
拱手
按摩院
挤压
挨
挪@@
排洪
探求
接送
掳@@
操演
攻击者
教委会
教学法
教改
散养
新翼
无忧
无所谓
无睹
无踪
日俱增
明亮
明镜
星星
显像管
普及@@
暂住
有意义
未知
本意
札夸威
李泽军
杯葛
柄@@
柜@@
校友会
校监
梁世华
梁华
梦寐以求
械@@
棒球
楚歌
槽@@
檐篷
欠税
次承判商
歇尔
正轨
殖民@@
民营化
气压
永顺街
汇兑
汉墓
江乐士
沃罗宁
沈辛荪
沙利@@
沙雷
油尖旺
法律化
波夫
泰铢
洲岛
淑
清退
满月
滨海
漏水
灵灰@@
炊@@
煎@@
燮
爆出
片断
版权@@
牌证
牟新生
独立@@
王卫星
王国兴
王国齐
珲@@
琛
甄别
用型
电话机
画上
畏惧
登记费
白热化
百分之六十四
百分之十一点五
百分之四十八点@@
盘活
相依
相助
硝烟弥漫
祈求
祝酒辞
神化
离心机
租住屋
空气调节
空运业
笔记
第四十四
管理业
籽
精确度
素来
红利
纲@@
绊脚石
绌
维斯
缉拿
网罗
置信
羊肉
翡翠道
耶罗
联训
育才
能手
脾@@
腾空
自己人
自本
致公党
舒惠国
航限
艺团
节目组
芹
苏志@@
茂名
茶果
获益良多
菇@@
菱
萤幕
萨巴赫
葛兰@@
蒙面
虞云耀
行销
补偿@@
衷
裁判@@
裙
观感
规范性
詹姆斯
警卫局
警报器
认领
许塞尔
许愿
讽
词语
试飞员
说不定
读物
调到
调子
象征式
货柜船
贸易战
资优
赔@@
赞助商
起直追
起程
起重
超低硫
转型期
转弯
转强
边境@@
迁离
过失
过街
迎春
迎风
选校
通信业
都拉斯
酒厂
酸雨
重工
钉@@
钩
银行@@
铺平
销货量
长发
长长
闭会
闾丘
阿列斯克罗夫
陆恭蕙
陈伟@@
陈明@@
除恶务尽
隔离@@
难民署
集团化
零下@@
非对称
非理性
靠山
面上
韧
音频
顾忌
馀力
馆舍
首站
首领
马尔卡良
马特@@
马秀红
马赖
骨灰
高州
鲁豫
鹭
麦克
麦当劳
麻雀
鼠标
龙运
13.5%
143
185
1954年
2200
3.1
374
4.6
4.7
4.8
5-@@
5.7
57%
690
750
75亿
cia
commun@@
dis@@
ear@@
eg@@
fbi
gre@@
health
hwfb@@
info@@@
lay@@
new@@
sc.info
tion
ton
〇四年
一介平民
一六
一千一百万
一百四十四
七百亿
上策
不前
不愧
不渝
久远
义务@@
之以@@
乍街
乙醇
九一年
二七三四二九@@
二万四千
二点三
互设
井然
人情@@
人犯
仁爱
价格@@
会儿
会客厅
伟杰
体认
何谓
供港
侨报
俄亥俄州
修例
修缮
债权转
健康局
兑付
入住率
全党
八九
八千多
六合彩
共事
军属
冲天
冷落
减半
刀伤
分层
分院
列表
刘中山
刘方@@
刘玉权
初时
初见
利耶夫
制糖
前事
剩馀
劝吁
动因
劳永乐
勃
包润石
化物
十一亿
十六点@@
十四点@@
十戒
升为
半影
华大
华盛顿州
南京@@
卡杜@@
卡里
卢布尔雅那
卫勤
厌恶
厕@@
厢@@
去除
反观
受伤者
只许
台前
台词
合理化
吞
吴黎明
周刚
和约
哈米@@
哑@@
唯心@@
喜闻乐见
喷洒
嗣@@
四百零@@
回眸
国共
国大
地城
地皮
垄断性
城门河
基斯
塑料袋
塔亚
声器
多姿多采
多芬
大放@@
大王
太原@@
失察
如有
娃娃
字头
存旦
存款人
学子
学成
学雷锋
安乐死
安静
官们
官法
宜昌
实践性
密特
密谋
封山
小组会
小莉
尽责
履
崎@@
州人
巡
巨幅
差馆
巴格@@
布林@@
布雷@@
带离
平反
应为
底蕴
康奈尔
建委
建造@@
开玩笑
开票
张国光
张少@@
当事
彷@@
得道多助
德方
心中@@
思进
急难
总责
恩赐
情报组
惊叹
愈益
感染@@
戈尔@@
戏剧性
成风
戴姆勒
打球
承上启下
把戏
投注@@
报喜
报经
拆散
拉布
拉斯维加斯
拔尖
拖累
拚
拜年
挤出
摄制
摊分
摩星@@
撒手@@
救火
文彬
新款
方向性
旅客量
无助
无声
无故
日制
明哲
更衣室
月度
有悖于
有钱@@
有雨
本位
本营
朱幼麟
朱训
李洪@@
李郑屋
杨怀庆
杨汝万
果实
核电厂
梁智鸿
欧文
款期
步操
殿下
比尔@@
毕打街
气樽
水际
永明
汀@@
汀角路
汉莎
江门
汰@@
沃斯托@@
沥@@
法身
津贴额
浇筑
海路
涉黑
淡漠
清晰度
渗透率
渠@@
港澳@@
渺@@
滕文生
潜射
澳门人
烟帽队
熔@@
牟@@
狂言
独台
玄
王家@@
王炬@@
现予
珍珠
琦
瑙@@
瓦巴@@
生地
用膳
由来已久
男友
畸形
白沙湾
百分之七点四
百分之三点@@
百分之九十九
百分之五十四
皂
监会
直拨
砌
破碎
硬仗
碗@@
碰上
礼金
秦山
穷人
竭尽
第三十二
简达恒
篱
红海
红股
纳斯
纺@@
绝密
统促会
统计图
绮@@
维修@@
维修业
绿表
缀钉
缉毒@@
缉获
罗辉
美妙
美资
羞辱
老者
老路
耍@@
联邦院
肮脏
背信
背囊
胞
胡恩
脖@@
自筹
致残
舅
航太
良策
艺术家们
艾斯特拉达
花朵
苏南
苏智良
苛@@
荧@@
菲尔德
萨哈@@
葵涌区
蔽
血迹
衙@@
被劫
裂纹
装扮
装甲兵
西沙@@
见闻
触角
议书
讹诈
访问者
评税
谐式
货源
货运@@
贸易量
贾尼
赫姆斯
赵世炎
跨出
跨过
路易斯@@
路过
转账
轮廓
轴@@
轴承
迎宾馆
运钞车
进港
迷人
适销
透明化
逼人
遂@@
邓国斌
邮学会
邮集
采访团
重灾区
量值式
金刚山
钰成
锈
长荣
阵风
陈敏@@
陈耀@@
隆街
障@@
难解
雨雪
零七年
雷鸣@@
静漪
静观
面绩
韩振军
顶风
顾尔言
预见性
飞龙
饮酒
馆藏
首演
首脑@@
香客
香烛
马万祺
骗术
骥
高检院
高法
高薪
高院
魁北@@
鲨鱼
鸡苗
默认
默许
1,500
110.@@
127
130@@
14.1%
142
149
15:@@
165
1928@@
1966年
19万
2300
28605012
47%
6.3
90亿
:35:01
build@@
bus@@
c4@@
cdma
cp
crimeinf@police
doc
e-
gb
ie
immd
ou@@
p.
receivedtime
te
tp
tp@@
ty
wb
―
■
一三二章
一兆
一分为二
一成不变
一无所@@
一百一十七
一百五十八
三一
三令五申
三点一
三点四
三百五十@@
上场
上诉人
不屈
专场
世纪@@
两万多
中常会
中曾根康弘
主审
主观主义
主题@@
九一
二○○二年
二七〇@@
二亿五千万
二四一四@@
亏蚀
云图
互通@@
亚利桑@@
交所
交通费
京沪
仑@@
付诸实施
仙街
伊尔
伊德
伎
优尼科
会诊
传回
供货
侦
俘
信中
假装
做些
光环
克刚
克罗埃西亚
党报
全训
公判
六百五十
兰岛
共度
关塔那摩
内务部
准确度
凤琴
出席率
出缺
分科
刑诉法
划入
刘仲藜
刘皇发
初审
制图
制衣
剔除者
加控
加斯
助于
励
劳苦
势不可挡
包揽
北爱
匹林
医疗费
十四万
千头万绪
千百万
南线
印度人
危地马拉
原素
参考@@
发电机
台网
司法官
同告
名存实亡
后院
听完
吴乃仁
和尚
商业性
善待
噶@@
四千五百@@
围观
国土@@
土库曼
在先
圭亚那
地里
坐镇
坝@@
坦贾
堆积
堤@@
塔里@@
外露
多吉
大呼拉尔
大潭道
大老
头号
头面
奇卢巴
奖杯
威海
学生会
官校
官职
定能
客轮
宣明会
家门
密特朗
寻衅
尊心
少年团
尼尔@@
尼西亚
局申索
屎
展示会
屡见不鲜
岛区
巡察
巴里
市府
市道
帮凶
常额
干部们
平方公
平版
广播业
库房
张东@@
张学@@
当事@@
彭询元
影带
往上
往日
得罪
德堡
心肺
心跳
必会
急先锋
恪@@
惨烈
懈@@
戎
战争史
战例
戳穿
打成
扭亏无望
投得
投票所
抗疫
报请
拐
拢
按劳分配
挽留
捐赠@@
换班
捷运
控网
推敲
搜罗
操纵@@
政争
政客们
政教
救援@@
教导@@
教界
敬重
数学家
断裂
旁加@@
无尽
既得
日立
昆虫
明仁
显身手
曲目
曲直
曲解
有关连
有声有色
有钱
末世论
本息
朱小华
朴素
李云@@
李兆@@
李政团
李泽@@
李纪
村民们
杨国强
林和立
枪伤
架势
栖息
核安全
格利克曼
桩@@
梁乃鹏
梁家@@
梨@@
检察厅
检控@@
橙色
欠租
欧萨玛
正义感
步自封
殆尽
残留
民政局
水门
汉森
沉着
没什么
沮丧
法规@@
波哥大
波斯@@
派驻站
浩然
海淀区
涵
深海
渔具
渴求
满意度
漓江
演讲@@
火海
炮台
炼油
炽
烦恼
煎
照顾@@
爱港
片组
牵挂
特制
独居
玻
珠宝店
班底
甚或
生猪
田湾
田间
电影界
电车站
电闸
町@@
画画
畜@@
畿@@
疑人
疑凶
白银
百分之七点三
百分之九点一
百分之五十六
盖上
盗名
盛夏
相关@@
瞧
石器
矿石
破旧
破欠
礼炮
祖籍
私欲
科伦坡
科姆
科级
稍作
穆克
穆拉@@
究@@
竭@@
管理队
篇@@
粗放
素材
紧凑
纲目
纽约州
经社会
绞刑
统一部
统管
绿洲
缠
罗福欢
美制
美美
羽绒
老人院
老旧
职业性
职代会
联邦制
聚变
肘
肺尘埃
胡志明
能动性
膺
自保
自来水
船运
花市
英尺
英格@@
英航
茂盛
范徐丽泰
草坪
荚
获评
菁英
董特首
血债
行车@@
装运
要道
警监
计画@@
讲学
讲过
评审局
试问
试验性
误导性
诺曼@@
调往
调查者
调解@@
谈判@@
谘询@@
豚
负债率
责难
账目
赔偿@@
越权
跟车
路易@@
身居
辈@@
过人
远南
连贯
迷途知返
追悼
选好
选送
通信社
通缉令
遮盖
郝龙斌
酬@@
酸盐
重兵
钅旁
钱学森
钳@@
铨
长达
长齐
闻名@@
阮孟琴
防总
阿布贾
阿纳
陈元
陈家@@
陈志军
陈鉴林
集约化
雨势
零六年
非歧视
预测@@
风头
风雨同舟
飞赴
马晓@@
马普托
驶过
高架@@
龙腾
1,5@@
10-@@
10.4%
11,@@
11万
14.5%
18.5%
187
1947年
1952年
2009年
225@@
232
2400
340
430
59亿
73%
78%
79%
802.@@
[9]
ang@@
associ@@
bbc
cific
eng@@
fb@@
inc
ning
os
pec
port
ps@@
un
vii
y2k
一举一动
一九五一年
一九五六年
一九六八年
一百三十三
一百五十九
一百零八
一百零六
一百零四
七二
七成@@
三亿五千万
三四〇@@
三点二
三百八十二
不仅仅
不拘一格
不经
专利局
东非
严酷
串通
举报人
乌云
乎其@@
乒乓球队
乖@@
九六
买下
事部
二七九@@
二六六六四@@
二分之一
二十二亿
二十八亿
二点七
二点八
五二○
五千六百@@
五星级
亚当斯
亚马@@
亟@@
交通组
交集
产权@@
亭@@
亲生
人唯@@
人多
伊特
休止
会计@@
伟强
低洼
佛莱@@
作供
作文
佩带
供职
俑
保卫@@
修好
值归
偷渡@@
克勒@@
克林顿主义
党魁
八百一@@
公理
公车
六百一十@@
六百五十万
兰卡
共和@@
共和国院
兴利
养费
冈萨雷斯
冒雨
军器
农行
农资
冠心病
冶炼
冷暖
准绳
减到
减退
凑@@
凶残
出征
分辨率
划归
刘吴惠兰
刘汉铨
创收
判罚额
利益@@
制宪
券缴税
剧组
加尧姆
动物@@
勒斯
包装@@
匹敌
医疗界
十一万
十九点@@
十六@@
千古罪人
占尽
卡特里娜
卡齐@@
压缩@@
厚度
厨@@
反复@@
发号施令
发言@@
发财
受命
受惠@@
司令@@
合建
吉德
名声
名曲
名流
吏@@
向心力
启新
吴晓灵
吹风会
周遭
呼伦@@
呼啸
咫尺
哮@@
唬
商标@@
喀
喊出
喜灵洲
嗓@@
嗨
嘿
四一
国际级
土地@@
土方
在线
地球@@
坦克@@
培训处
塞迪
增量
壤@@
声量
夏文华
夏衍
外向
外资额
多瑙@@
大修
天文学家
失车
头街
奔向
姆斯
婴孩
孤岛
安县
宗爆
定线
实用性
害处
富明街
富苑
寒流
射杀
小报
尔加@@
尖锐性
尝到
就业@@
尼奥
工兵
市场@@
布伦特
希拉里
帕斯@@
平市
平衡@@
幼师
幽灵
应课税
康城
康斯坦@@
庾@@
引水
张世@@
强凌弱
归类
徐俊平
徐光春
御用
德拉
心人
必先
必需品
快反
思想性
恃
恋爱
恣意
恼火
惕@@
戎@@
成就@@
战国
战死
战略@@
房地产业
所见所闻
扁@@
扎特
打火@@
打非
执法必严
扫雷舰
把手
抗炎
抹煞
拉丹
拉克
拉法
拔
招来
拿走
指令性
指示牌
换来
排放物
接力@@
推介会
推进党
掺@@
提琴
揭
揭牌
援助金
搭桥
摇滚
摩西
擒
改弦易辙
政策会
教练@@
散直
敦煌
敲诈勒索
新址
新社
方圆
施虐者
旅游车
旅长
无不@@
无可辩驳
无处
无锡市
早点
时时刻刻
旷日持久
昆仑山
星凌日
景物
晴雨表
曲棍@@
曼哈顿
最先
月租
服务局
服务部
朝气
期待@@
未卜
李侃如
来源证
枉@@
林道
枢
查员
查局
标贴
栋@@
栋梁
格利@@
桥咀泳滩
梅西奇
死人
毁伤
沧
油气田
泵
浅出
海图
添加剂
渔业法
渣甸街
漠不关心
火花
灰质炎
烫@@
王发恩
王春正
王礼恒
玮
瑞典队
生之@@
生态@@
用药
电话簿
留驻
疆界
病变
百分之三十七点@@
百分之九点八
百分之十一点七
百分之十三点六
百分之四十五点@@
盈科
监听
监工
监督局
真切
着作
睦
瞄
矮@@
石河@@
石硖
研究生@@
社保
祛病
神父
神道
禁毒日
福林
秉公
科夫斯基
科济列夫
科瓦@@
科诊所
稍候
穿透
第五十七
等职
粗放型
粮棉
精灵
索尼
索托
纷呈
练习场
经济带
绝佳
维特
缓冲区
缓缴
网球场
罕@@
翡翠台
老子
考克斯
耳目一新
联防
肺部
背靠
胡晓明
脱口@@
自大
自杀@@
自由港
自给自足
船载
艺道
花架子
苍蝇
苏尔@@
范匡夫
莫斯
著@@
葫芦
葵
蒋经国
蜕@@
螺旋体病
血性
血脉相连
行署
行贿@@
袭港
西潘敦
要官
观音@@
观鸟
言之@@
讲讲
讹称
评论@@
译音
请愿@@
调回
谍机
谨向
谭荣@@
贱@@
贵党
贺国强
资源量
资费
赏识
赴会
赶走
越南人
跌宕
距今
跨地区
路途
踏实
车门
辞世
边界线
过于求
过热
运筹帷幄
进出口@@
远征
逃到
选举日
通晓
道琼斯
遗下
邀请书
邯@@
郑恩赐
里昂
金子
金属@@
金美龄
金龙
鑫@@
销区
锐
闪耀
闸门
阮文@@
阵脚
阿公@@
阿利@@
阿拉塔斯
阿訇
陀
陈慧@@
陈词
陪伴
雪地
零点一
零点三
雷洁@@
霆@@
非金属
韩磊
须有
飙涨
飞向
飞来
马大爷
驻台
高强
魔鬼
麦理浩
麦葛雷@@
黄浦@@
黑色@@
,6@@
0219@@
0220@@
0616@@
09@@
100年
11.1%
12.4%
140万
1963年
197
2004-@@
2006/07
201
28699399
310
69%
7.
81%
:05
:50:01
B@@
aa
apo@@
cm@@
corporation
david
dig@@
dr@@
ds
for
hao
mr@@
ng@@
nic@@
tur@@
一事
一枝独秀
一百二十一
一百六十二
一盘棋
一言一行
一身正气
七时@@
三十五亿
三千八百
三点三
不可思议
不智
不论@@
与讼人
专心
东九龙
东森
东涌道
两千三百万
严苛
中专
中文化
中时
中苏
举一反三
举手
之职
九三
乡亲们
争光
二二六八七三二一
二十五亿
二十多万
二百一十
二百多万
互致
五〇@@
亚洲杯
亡国
交通厅
亦步亦趋
产前
产后
人事@@
代理@@
伊国
众矢之的
伦斯
低压@@
何世柱
作恶多端
侃@@
保家卫国
保密@@
保障线
信徒们
债市
值班@@
公允
公社
兴芳路
其母
内功
内特
军事学
军火库
农奴主
出资@@
分列
分散@@
切莫
刘怡@@
判决书
利达
利雅@@
制作人
制动
制海权
刷
刻骨铭心
副研究员
力克
动产
动脑筋
励精图治
化作
十九万@@
十二亿多
十四亿
单行
单车径
卜拉@@
卡斯
卡赛
却步
厉行
厥词
反全球化
反过来
受虐
变坏
可见一斑
右边
司法权
吝@@
启超道
吵@@
呼机
哲理
唐代
商厦
商品@@
喊话
因时
团职
国统纲领
国队
国防费
在任
地貌
坚科
垃圾站
城泳滩
塔基
塔尔博特
增薪
士丹@@
复返
多佛@@
大相@@
天主教徒
天候
天文@@
太古城
太平@@
女婿
女足
奴
好过
如虎添翼
姥姥
子们
子宫
存保
存单
存取
存档
存续
孜@@
学以致用
学联
安人
安放
宏观性
官房
宝马
审查@@
家庭@@
宾客
少年@@
尔瓦@@
尝@@
尹鸿祝
山谷
山顶区
巴斯
巴罗佐
布莱特
带宽
常态
干洗
干涸
幸亏
幸免
幸存
幼童
应留
应试
开头
开放@@
弊病
引渡法
弗拉基@@
张宇人
张志芹
张晓@@
强而有力
心病
总的来看
悖@@
惧怕
想方
惶
慌@@
戏曲
手工业
托夫
执收
把好
拉迪@@
拓
挤满
挺身
捐躯
控蚊
提·@@
搞出
故宫
新机
新老
方刚
方正
无可置疑
无息
旧城
旱区
时程
明罪
普查员
晶体
智能式
有据
木河
木马
朱德@@
机头
机房
机翼
李成@@
李扁
来龙去脉
枕头
林李@@
枪声
查库
柯士甸路
标志@@
株@@
核反应堆
栽@@
梅克尔
梯间
模块
武拒
武断
死角
殉葬品
毒枭
比克
比勒陀利亚
比对表
毕
民法典
民街
气量
求进
没事
河谷
油街
治水
法方
流行@@
浏览@@
浓重
混杂
清仓
渔村
港交所
游玩
滩涂
漏报
潜藏
激昂
灿
烫
热战
爵士乐
片面性
犀@@
独到
狼狈为奸
环保局
玷污
瓜果
瓷@@
用到
用完
电气道
疲倦
疾呼
病源
登记官
登记证
百分之三点零
百分之六十二
百分之十一点二
百分之十二点二
百分之十四点五
盲目@@
直面
石兆彬
石湖墟
研拟
破浪
破门
祷@@
福尔@@
福布斯
福田
科室
科技股
租务
称道
穿过
笔记本
第五十四
等值
筒@@
箱子
糊涂
索契
纱线
经济学家们
络绎@@
维吾尔@@
缅甸@@
缆@@
缘何
缘故
缺位
罗文@@
羽毛@@
老老
而动
耳目
聋人
肉档
肢解
胡主席
胳@@
脑筋
自拔
致病
舞狮
船级社
艰困
芙蓉
芭@@
花式
苦果
英文科
茄
莫伊
营业性
营利
萨尔迪瓦
落败
蓝岭
藏身之地
行李@@
被盗
裁谈会
西亚@@
警轮
订金
评估@@
语种
说辞
课余
调解人
谋杀罪
谢瓦尔德纳泽
谭医生
貌埃
贝澳泳滩
质问
购车
费率
费解
赛前
赠予
走卒
走开
走来
赵朴老
赶超
起家
超收
越南@@
趣@@
身子
车窗
轩@@
载有关
载道
输入法
过后
迫击炮
迭
邪气
邮缴通
郝惠君
部下
采矿权
里加
重拾
金泳三
钦州
钱箱
钻探
铨叙
银币
链接
铿@@
锦囊
锦赛
门窗
闭口
闯关
防渗
阴魂不散
阵子
阻拦
阿尔及@@
阿拉威
附庸
陈镇源
陨@@
雄鹰
雅尔@@
雏@@
雪山
雷尔
霍克
霍恩
靠着
鞋子
鞍钢
风行
食谱
饶有@@
饼@@
高成
高端
高通
鱼排
鲜活
麦凯恩
麻生太郎
黄嘉@@
齐集
001
0217@@
0617@@
11.8%
12.
13.[
148@@
163
179
1990
284288@@
4.3
57亿
78亿
7:@@
@legco.gov.hk
afil
anna
br
chinese
econ@@
english][@@
f-15
goo@@
ly@@
nor@@
np
public
ran@@
ss
vcd
vd
world
一九五0
一九五三年
一六@@
一声@@
一旁
一点九
一百九十
一百二十五
一百四十亿
七国
七百五十
万圣@@
万寿@@
三千七百@@
三千三百@@
三点八
三轮@@
下手
不及@@
不堪设想
不足为奇
业化
东京都
东江水
丧心病狂
个儿
个子
中医组
中标者
丸@@
主渠道
义无反顾
之于@@
之意
书画
二百一十@@
二百一十三
二载列
二零八
互不@@
五二0
五千五百
亚拉巴马
人心@@
从于
付息
件件
任满
优质化
会唔
会徽
会战
会籍
伯德
低温
佐利克
佛杜@@
佣@@
使然
依时
侵略军
保持@@
保禄
保障部
停职
偷取
充
先行者
入户
全代会
公爵
关西
兵们
养殖区
兼施
内斯库
写上
农友
冲上
决策权
出勤
出场
出马
分判商
分头
分居
列伊
刘山
利奇
利率表
副总
副部长级
加进
动能
助学
劳保
包道格
北疆
十八万@@
十四万@@
半山
华丽
华明
协奏曲
印俄
原始@@
厦门港
反恐@@
发去
发期
古话
史前
右手
号召力
合同@@
合约@@
合道
同日
向外
向导
吕明华
吕福源
吞下
含糊@@
听命于
呆坏帐
周强
周旋
咨文
哟
售货员
商品粮
商贸区
噪@@
四九年
四千三百@@
回程
围栏
国会山
国峰会
国有制
国税局
图片@@
土耳其@@
圣诞@@
地网
坚赞
型机
城建
域多利
培训@@
士街
备考
复兴@@
多佛尔港
大哥
大款
失常
失掉
失踪者
契奇
奖学
女装
如愿以偿
姑
姨
嫁接
子民
季斯
学率
安市
宝山
家书
富翁
寒风
对外部
封锁@@
少先队员
尼克森
尼古@@
尼古丁
尼诺
展销会
嶂@@
州务@@
巡视组
工作队
巧克力
巳
巴哈马
巴希尔
布利@@
帧
常会
年历
年薪
应予
应尽
廿三日
廿四日
开审
开封
开门@@
张超雄
当驶
影院
御寒
微量
徵
德乌@@
徽号
心连心
急救@@
恍@@
您@@
悬崖
悬念
悼@@
惦@@
惧@@
惩罚性
打乱
打扫
打斗
打针
扣上
扫描@@
承销
技师
投资区
报批
拆息
拉各斯
拉特
拙
招数
拦
授权书
掏空
推论
掷物
描@@
提振
提讯
摆平
撞上
撞向
播音员
改稿
改进型
放风
政商
政治犯
教研
整风
文明@@
文艺@@
料理
新泽西
新西@@
新路
无虚@@
无间
日薪
时份
昭告
普宁
有病
有过@@
未果
本票
朱大强
朱曼@@
朱锋
杂技@@
权力@@
李树@@
李秀@@
李赣骝
杜邦
杜鹃
松弛
松散
构
架子
柑@@
柔性
查察
查摆
柳
标本@@
标语牌
格达费
桃
检调
楼盘
榜@@
模糊@@
武当
殃及
残缺
比绍
毛毛
水力
永基路
永康街
汉奸
沁@@
沈路涛
沙林
油品
油漆
治疗@@
泉水
法工委
法律案
洗刷
洪区
活动区
浇油
浏览器
浮躁
海鲁@@
涉农
混合@@
渡假
渣甸@@
游说团
演练场
潮水式
瀑布
瀚
炮舰
点子
烤@@
爱国@@
爱德@@
爱琴海
爷爷
爽@@
牛池湾
特斯
特曼
犹太教
狮子@@
猪农
王翔
现身说法
珊瑚鱼
珠宝@@
班汉
瑕疵
生机勃勃
甫@@
留人
疲惫
病童
登台
百分之五十九
百分之八点一
百分之六点九
百分之十点一
百分之四点零
监票人
直升
相容
真确
眩
矢口
石棉
矽@@
矿物
破产人
破冰
破损
砺
硬体
碍@@
种苗
秩@@
稽
穆斯@@
空虚
突击@@
站台
笏
管教
篮球场
米特@@
粪@@
糕@@
糜@@
索人
繁育
红火@@
级市
组网
继承人
绵延
绵阳
缠身
缴费@@
罂@@
罗德里格斯
罗汉松
罪证
美观
翅@@
翻滚
耀武扬威
老有所@@
而论
耶尔@@
联系@@
联系点
肉体
肩章
背负
能型
腺@@
腾空而起
自私
艘次
英法
范跃宁
茫@@
荃锦
荐
荧屏
荼毒
菊花
萌@@
萨诸@@
落马
蒂尼
蒙特利尔
藻类
螺丝
衡器
补发
表姐
西庆
西沙路
西米蒂斯
要地
见之于
见诸@@
观众@@
觅食
视察科
警犬
计较
记者团
讲法
讳莫如深
许长青
评判团
评局
诉讼人
诗歌
说谎
请愿书
谭
贝德
贤街
贪赃
贵会
费时
资方
赵建@@
身价
转归
辑录
辟为
辨析
达沃斯
过激
迎面
运输部
迟疑
迭起
选者
选题
逍遥
通盘
道亨
道破
道落山
遗书
避孕
避而不谈
邬满海
邮票@@
采行
重投
重犯
金一哲
金永@@
金秋
金立群
钱尼
铁轨
锦田@@
锵@@
长沙市
长远@@
闭
问号
闻讯
防暴
防病
陈列@@
陈育德
隧道费
难以@@
集约
集贸
雕刻
零度
雷诺@@
非永久性
顽固@@
预演
风声
风景区
食具
饰物
马匹
骗罪
高炮团
鲁尔
鸭鹅
麻醉品
黄华
![2]
,7@@
--@@
0.4
10.1%
11.5%
12.1%
12.5%
1244
1300万
15.9%
1500亿
158
174
181
188@@
2002-@@
206
27855711
2b
3.3
310@@
313
350万
59%
76亿
9.0%
[2005-06
ad
b.@@
hab
heal@@
hkedcity
hon
htm][4
idf
int
isr
j.p
networ@@
ony
p-
power
tm
ts@@
tt
ⅸ@@
一九六四年
一千五百多
一掷
一片@@
一百三十二
一百五十一
一百八十万
一百六十多
一百零三
七千五百
七四
万隆
三一〇六八八@@
三万二千
三六
三十一亿
三千二百
三千四百@@
三思@@
上水@@
不确定
不究
不绝于耳
东隧
中丹
中华区
中环线
中英@@
为辅
为限
主板
丽华
乔乐平
乔治·@@
书包
书展
二○@@
二○○一年
二七七三五二二〇
二七六@@
二万零@@
二三十
二五八@@
二炮
二胡
二零二零年
于今早
交通日
亨氏
京九
京华
亮丽
亮出
人种
代表院
企业网
伊凡诺夫
优势@@
传召
传输@@
传阅
佐夫
何塞@@
佛教界
供认不讳
保税仓
倒毙
候查
借此
倪四义
傅志寰
僵
兆瓦
光天化日
克里斯@@
全军@@
八三
八六三
八时@@
公平性
兰芳道
兴华
兵役
内向
册@@
农业法
冥镪
冶@@
减息
几千万
凯歌
凯西
分布@@
分配组
分龄
刘春玲
利物@@
制度@@
前哨
剔@@
副理事长
加尼
加添
努乔@@
劳尔
勿@@
包叙定
北卡罗@@
区义国
区块
十八亿
十六亿
十几万
千千万万
千里@@
半成品
单一@@
南沙群岛
博览@@
卡什@@
卧
印花
即是说
厚爱
原籍
厨师
双氧水
取信@@
口岸区
口服
只顾
可泣
台中@@
台港
史丹@@
司徒
司法所
合照
吉林市
名列前茅
后任
后半@@
呆滞
告示@@
咱
咽
哈西@@
哈里@@
哈马迪
哩
唁电
喀喇@@
喉舌
喜事
喷雾
嘱@@
噬
四九
四二
四千四百@@
团组
国际主义
国际部
圆面
圣安
地狱
埃米尔
堕胎
堕轨
塞尔
复诊
外宾
多云@@
多头
夜空
大学@@
天机
天生
夭@@
失物
失窃
奇妙
女友
女方
好在
如愿
妓
姆松
娅@@
嬉水池
安然
官塘
客务
富士@@
小丑
小伙@@
小孩子
少见
尔市
尾气
屁@@
屿
岌@@
崎岖
巡逻机
巨响
巴西@@
布培
布拉托维奇
师德
平沼赳夫
年内
广袤
庐山
库尔德人
廓@@
建好
廿九
廿八日
开始于
异性
引以为傲
张树田
张金@@
彩云
彼得@@
待发
徐文@@
德克萨斯州
德马尔科
忧患
怪圈
惊慌
意见@@
感应器
慰问@@
戊
戍边
成文
战略家
戚
戴维斯
所能
手令
执政者
抓大放小
投标书
投递箱
拉巴
拍手@@
拖拉@@
拖鞋
拘控
拨乱
捡获
探访者
接通
推广@@
摄取
收押
改由
攻击型
放纵
政事
教书
教旨@@
数码站
斋@@
斯特拉纳
新编
新西伯利亚
方面@@
旅行袋
时代性
时艰
昕
显赫
普降
暮@@
曾德@@
最高峰
有损于
有碍
有约
期许
本地人
机制化
机车
权势
权谋私
李凤英
李南@@
李德洙
杜鲁@@
杨屋@@
杭@@
柯士@@
柯斯塔
校生
格调
栽培
案值
桐@@
桑帕约
梁国@@
梯子
检测@@
楠@@
款者
歌剧院
正当@@
比分
民商
民房
民法
气枪
气魄
水冷式
汉堡
沙尔平
沫@@
沸腾
法学家
泰德
洞库
活活
活猪
测序
浓雾
海员
海研
深为
清扫
温州市
溯
滑雪
演训
潮汐
澄@@
瀛仙馆
火箭军
灭绝人性
灵通
炬@@
炮轰
点击率
烙@@
照亮
煽风
熄灭
熊熊
爱立信
特立@@
狭长
狮子
王永志
玩乐
环顾
玲@@
珍珠港
珠穆朗@@
理论家
理财师
瑶@@
电业
电灯
电话亭
畅泳
留宿
登堡
登月
百分之三十九
百分之九点九
百分之九点六
百分之六十七
百分之四十点@@
盈富
盎然
盏
目标区
直观
相对@@
相干
看中
真心诚意
眠@@
督导级
矢志@@
示意
礼节性
神教
秦华
积存
稻
空导弹
突如其来
立派
立者
童话
管乐团
篮球队
米拉
精制
精深
紧扣
红眼@@
约瑟@@
纯度
纳斯@@
组赛
绑架@@
结合@@
综上所述
缩写
罐头
网内
美中
美国式
羽毛
翔实
翠道
耐人寻味
联络会
胺@@
膝@@
自主性
自传
自励
自食其@@
航空港
艾
芒@@
花篮
苏里@@
苏门@@
英灵
荔枝角道
董赵洪娉
薛红军
蚀@@
融化
螺旋桨
血案
血病
行凶
行政署
衣履
衣架
裸露
西环
西电
观礼@@
视光师
誓
警们
计分
讨回
议员团
讳
论坛报
设点
诈
试训
诗丽吉
读性
调整期
谈会
谩骂
财政性
货币@@
购案
费尔南@@
贺咭
资信
赎@@
赖士葆
赫塞尔廷
赵桂凤
起诉书
越界
趣味性
路牌
踪迹
躲过
轮机
输给
边陲
辽阳
过胖
过路@@
迈达尼
运通
返回式
还击
进步@@
迪尔
送去
逐出
造血
道而@@
遗忘
邓竟成
郑和
采夫
里人
重案
重罚
金钟@@
铢
铺开
长沙@@
长虹
门廊
闪烁
闯进
阿布沙伊夫
阿达米
陈博志
陈规
院子
难者
雌
霸市
面具
项目区
顺乎
顾问团
预告
领先于
领率
领袖们
飞扬
饭碗
饲养场
饿@@
马侃
马文@@
马永@@
驶近
骇浪
高大
高射炮
高雄@@
鸽派
黄金周
鼓励类
0.9
1.6@@
10.9%
100,000
11.3%
13.8%
140亿
146
160亿
182
2.2
2/3
2006-07
2012年
222
237
241
253719@@
28021258
295
315
41%
480
5.6
7.1
7.3
7.4
700万
74%
83%
9.
92%
:20:01
Napster
O@@
[3@@
cer@@
ck@@
dome@@
eral
ern@@
fer@@
hongkong@@
hs
instit@@
john
ley
ne
ong@@
org@@
q@@@
ri@@
tech@@
tor@@
univers@@
xhz@@
ya@@
一刀切
一千三百万
一四
一块
一百七十万
一百二十四
一百六十一
一百六十亿
万国
三乱
三二@@
三八@@
三十年代
三十点@@
不光彩
不忘
专利@@
世界报
世足赛
东涌线
严惩不贷
中三
中行
举杯
举止
乘船
二一五@@
二三零@@
二五八二五@@
二五八二四七三@@
二八八一七四九八
二十四万
二千一百
二千二百
二千四百
二四一七@@
二百七十@@
云龙
五三
五千七百@@
京剧
亮起
人才观
仓促
付诸实践
任凭
份者
伊拉@@
传真@@
传话
伤人
伤痛
伯利恒
佐敦@@
佐治@@
何来
作客
作祟
侦办
保姆
信口
信德
假借
假扮
偏东
傻@@
僧尼
兄长
先天
光宝
光道
克勒
党旗
入出
八·一七
内斯
内裤
冒险@@
军事家
冯兴@@
冷却@@
分利
分包商
分得
分手
分水@@
刑满
刘国松
删@@
判词
利维
制华
前嫌
副庭长
副总干事
办权
加藤
包涵
化工厂
化验所
十楼
千瓦时
升息
华基
协调人
单日
南辕北辙
博大精深
博彩税
卡莫纳
卢安达
卫平
原料@@
友们
双打
发案
发电站
发祥
取舍
受限
变种
可循
可用
台南
台当局
叶尔莫申
叶菊兰
同日而语
告捷
呕吐@@
呼和浩@@
咨@@
品业
哈巴德
哺乳@@
商业@@
喷
四八
四十三亿
四千二百
四千零@@
四面
回事
回函
回笼
国内部
国贸
土生土长
地勤
坎帕拉
坏处
坚冰
埃尔
埃居
基本面
增加@@
增选
增长期
声声
备份
夏特沃斯
大调
大起大落
天体
天经地义
太子
太平洋@@
奄@@
奉公守法
奏响
奔波
妇产科
妇人
妖魔化
妨害
娶
孙运璇
安德鲁
宝珠
审判@@
审裁
害死
封存
小型化
尼尔
尽全力
尽心尽力
居屋屋苑
山崎拓
山林
岚
峻@@
工联
左边
师生@@
希普@@
带子
广豫
库尔德@@
座椅
庸俗
建国党
开发式
异动
弈
引以为戒
引火@@
张学明
张宏@@
张昭雄
张继臣
张维@@
弥偿
弱小
强人
彝@@
征召
征款
徒步
微处理器
德斯
德道
志士
急迫
恐龙@@
惊心动魄
惨不忍睹
想像力
想见
感应
感慨@@
战地
打鼓
托洛孔斯基
扛
执罚
承租
把持
投票权
报界
押解
拉法@@
拉特@@
拉赫
拖到
拳脚
拼装
挖潜
换装
掏
接机
揉@@
搜狐
搞成
搬上
摄影@@
撮@@
攘@@
教师@@
文明委
斯克@@
新州
新猷
方便@@
无可奈何
日落案
早早
显眼
晓得
普密@@
曼德@@
最新型
有朝一日
有法必依
有的放矢
木质
机身
机降
李佳@@
李汉扬
李钟@@
条块
杨亨燮
杨家@@
杨铁梁
柔道
查维斯
柴松岳
校庆
核导弹
案人
梁永立
梯次
榴@@
模拟器
欢迎会
正教
死亡@@
殓@@
殴
毒者
毗连
氏症
民怨
水井
水口
水式
求证
汉江
汲@@
油船
法治@@
波浪
泥头
洪永世
浅水
浅色
浚
海泉
海边
涡
湾路
滋扰性
满怀@@
满足感
灌木
火爆
炜@@
烦@@
热土
焯@@
爱因斯坦
父母亲
物证
特种@@
特警
犯罪案
独大
独特性
猎潜艇
甘于
生生@@
用处
用工
田纳西州
电据
电磁@@
畜禽
疤
痴人
登门
白石角
百分之七十七
百分之九点二
百分之六十六
百分之十四点八
百分之十点五
皖南
盈馀
盐酸
监督法
相看
相类
盼@@
真知灼见
着火
督导员
石出
石流
矿场
矿砂
破产案
磨练
礼让
社发
禄@@
福德
福田@@
福荣街
离心
秉
科研@@
科考
积贫积弱
窘@@
立例
竞标
简单化
算起
系科
纸上
纾解
绝望
统派
绯闻
综治办
绽放
编导
罗兰
翌年
老手
而言之
耶鲁
聂海胜
联机
联盟党
聘为
聘任制
肆@@
肖
肚
肝癌
胡康生
胡思远
脑海
腐烂
腾腾
自以为
自虐
至高@@
致贺
航管
船坞
艾西费特
节点
芮氏
花言巧语
苏启@@
草场
荧光棒
莫哈@@
莱克
莱尔
菜刀
菱@@
营业部
营运者
萨利赫
萨里
葬身
蒙古@@
蒜
蔬@@
薪点
虚伪性
虚构
蚊剂
蛋类
血脉
行政村
行道
衣带水
被判
要诀
观礼
规划图
认出
认认
认购价
让出
讲稿
调研@@
谢非
谭盾
贡
货机
货柜港
贪污罪
贵街
赐
赛义德
赵国@@
赵朴初
赵玉存
超卓
越发
跨学科
跨省
践行
蹈@@
轨道舱
轩尼@@
轰鸣
载誉
较快
辍学
输家
辟作
辽河
达木
过山车
运至
运街
运输商
进出@@
连费
逃废
选举人
选拔@@
选集
透水
通信团
遇险
遮打
邓厚江
邓广@@
郊游
部族
酬劳
重围
重提
釜@@
钢琴家
铁人
铁蹄
铃木
铺张浪费
锤
锥@@
锦绣
长袖衫
阎学通
防水
阻截
阿尔卡特
陈嘉@@
陈师孟
陈广@@
险境
零点四
雷什
震远
霸权@@
霸气
非传统
非洲@@
韬@@
音乐剧
韶
须由
顽症
顾秀莲
预览
颅
颠簸
风扇
飞蝗
首发式
马利@@
马拉松@@
马西@@
驯@@
驰骋
驻场
骗税案
高尚全
高效能
高祀仁
鲜为人知
鸠@@
龙鼓@@
龚育之
.com@@
fes@@
ii@@
ong
post
vis@@
}
~@@
不起
专营@@
伊斯坦@@
佯@@
侈@@
内亚
农业@@
冥@@
准备@@
劳永@@
匿@@
华尔@@
厮@@
参加@@
发扬@@
发起@@
叭
和街
喱@@
嚣
囤@@
国内@@
图书@@
圆形
圣地@@
堰
墟@@
婉
嫩
宠@@
崭@@
希拉@@
干诺@@
廊@@
开销
引渡@@
引黄@@
张建军
张旭东
张荣恭
弱国
强将
当下
当权者
形而
彪@@
待业
微不足道
微米
心底
心智
总后@@
总督府
恶不@@
恶人
患难
意思是
意想不到
慎
成果@@
戳@@
房租
打人
打动
打拐
打私
托波@@
扬扬
批批
承诺@@
抗辩
抢劫@@
报效
拉姆斯@@
拉瓦@@
拉米雷斯
拔萃
拘留所
拨备
指吓
挑唆
挖出
挥
接踵而至
推器
措施@@
描写
摄影师
摇摇@@
摈弃
擅@@
攀比
支会
收发
救国
新入职
新墨西哥州
新风
方舱
旋即
旋风
无缺
日月
日朝
易明
显利
晤@@
普林斯顿
暗里
有弊
期不远
木工
未知@@
本主义
本区
李传韵
李国英
李廷彬
李术峰
杨国庆
构架
林博士
果树
某型
柯恩
棺材
植树日
模拟化
模样
款率
歌颂
步调
死伤者
死难
毅夫
毛皮
民企
气站
气象厅
氢
水文站
永葆@@
永道
汇编
汉口道
汛
沃尔芬@@
沉淀
沉渣
沐浴
河口
治沙法
治爆@@
法文
泰王国
洛桑@@
流浪汉
流经
海参崴
海洋@@
消耗@@
涯
深情厚谊
深陷
混为一谈
淹@@
清案
清辉
滔@@
演奏家
澜宫
澳大利亚队
灌区
火光
灵位
炳章
焉@@
焯
燃料油
燃气@@
父老
牒
牛潭尾
牟尼
牵线
猎杀
猴
玉帛
王立@@
王荣@@
现身
琅@@
琉璃街
甄@@
生命@@
用场
电压
电热线
画册
畜牧
痨
痴心妄想
登岛
登打士街
白南@@
百万分之@@
百分之七十六
百分之三十四点@@
百分之九十六
百分之二点零
百分之八点八
百分之八点四
百分之六十三
百分之十点二
皆知
皇民化
皮书
盆栽
盖好
盛开
相悖
相接
睬
睿智
短袖
短评
矮
矿务局
研习@@
研修班
砝码
祗会
祯
禁售
福斯
秋子
科幻
科罗拉@@
租出
称许
税前
税赋
稽@@
穗@@
穷追@@
空想
筏
筲箕
算尽
粮改
约谈
纳扎罗夫
线性
组训
终点@@
经货
绿党
缄@@
缜密
罄@@
网队
罗伯逊
罗氏
罪责
置评
群组
翻阅
老一代
老院
耸人@@
职安局
联华
联络处
聘书
肠道
肺癌
胁
胃
胜利@@
胡定旭
脱身
臃肿
臆测
自决权
自力
自破
航船
艺员
艾马@@
芋
芙@@
苏军
苏尔
苏美
荣辱与共
药费
莞@@
葡萄@@
蒂尔@@
蒂斯
蓉@@
薪金率
虔诚
蚬@@
蝶
行性
表及
裹
裹@@
西半球
西省
要闻
规划师
解禁
触摸
训局
讴@@
访法
诉讼费
语系
谘商
谙
贯彻@@
费尽
费林
贺兰山
贾德
赃
赃@@
资委
赈@@
赖者
赤裸
赫普图拉
赵志@@
超常规
越南籍
趋势图
跌入
跳远
蹄@@
身裁
身负
轻重@@
辅导@@
边检
达莱马
迁居
迁至
过大
运业
运走
这个@@
远隔
违约
连云港
连成
迷恋
适于
逗@@
通畅
通缉@@
造假
遥测
遮掩
避重就轻
邓肇@@
那斯达克
邮电@@
邮电部
邵琪伟
郑百文
郭超人
配角
酗酒
醋
里奇
金瓦拉
金钱@@
钮茂生
铁丝网
铁路网
银行法
锤@@
阐@@
防毒
防空军
阻延
阿尔巴@@
阿布哈兹
阿斯塔纳
陀@@
陆家嘴
陈俊@@
陈哲男
陈玉@@
陜西
隆平
隐私权
雀跃
雷击
震感
静静
非战
面粉
韦奇立
项下
顺德市
领导@@
领衔
风切变
飞过
首相@@
马六甲
马赫
骗者
高中生
高炮@@
高频
魔爪
鲍彻
鸦@@
鹰号
麦克纳马拉
麻醉剂
黄国@@
黄少@@
鼎盛
龃龉
龙汇路
chin@@
iel@@
statisticalbookstor@@
五二@@
五分
交国
仆
代会
体化
佟@@
依赖@@
入境@@
凑
凛@@
切尔@@
刘思@@
刹
包山
匣@@
卡里@@
卸区
叔
叵@@
叶国@@
同乐@@
吼
周德@@
咎@@
在在
垒
堕
增长@@
壹
夸
奚@@
奥会
对性
巳@@
巴拿@@
巴罗@@
平均@@
弓
弧@@
忾
怂@@
感性
憩@@
拇@@
捆
揪@@
撰@@
效性
文版
无望
旬
昃@@
曾荫@@
格兰
棱
橘
毋庸@@
氟@@
氾@@
汀九@@
汹@@
沾
浊
渗透@@
澎@@
炽@@
烛@@
焊@@
然大@@
狠@@
王乐@@
王云@@
王旁
王英@@
琐@@
疙@@
瘩
睿@@
矛@@
矢@@
穴@@
簧@@
粹
糊
繁
缁@@
美华
胁@@
舞团
蕊
蚕@@
蜚@@
蝗
蝶@@
袒@@
西伯@@
视察@@
讷@@
诫
迸@@
遁@@
钠
铁木@@
销商
陈镇@@
靴
饕
黝@@
2004@@
254@@
:02
中海
之举
二七七三@@
二二六八七三@@
二八四@@
二手@@
凰@@
分配@@
加利福@@
助金
勘
发局
咒
哀
嘿@@
国产@@
圜
坛@@
复合@@
复康@@
大卫@@
大有@@
娴@@
孕@@
宇航@@
宰
尽心@@
屯
崇
巩@@
帜
幌
年人
弋
弛
德街
忆
恨@@
慕
戏剧@@
戴维@@
挽@@
摄像@@
支持@@
新加@@
普林@@
智能@@
枫@@
沸
法西@@
滦
澈
焦
爱尔@@
王国@@
琉@@
瑰
生们
疮@@
百万@@
监护@@
目标@@
矶@@
磷
礽
禅@@
竺@@
箴@@
结核
聆
胡长@@
膜炎
舜
茹@@
荐@@
萱
蔽@@
藻@@
虐@@
裸@@
警报@@
诲
货额
贩
轿
辑@@
鄙@@
钾
阿不来@@
非同@@
预备@@
2887@@
=@@
na
produc@@
●@@
一堂
一言@@
且@@
中华@@
主任委员
之谈
二三四@@
付诸@@
体性
佛罗里@@
兄@@
光华
克兰
兔@@
共产@@
冗@@
决策@@
击机
切尔
劈@@
单车@@
国安@@
圭
坟
坳
墩
孕
孤
孽
安达
容加@@
寨
寮
尼加
崔
巍
巫@@
希望@@
庭长
引以为@@
引力
徕
怠@@
悸
慌
憾
戾@@
晃@@
晕
有制
李丽@@
李明@@
杜拉
栗
梗
梨
汕@@
汶@@
淑仪
淫
溯@@
溱
滤
漩@@
牲@@
狞
狰@@
猿@@
王春@@
甸@@
痒
砌@@
砾
窦@@
笛@@
簧
精神@@
绒
美湾
肴
背湾
腥@@
臆@@
茬
荔
蝉
袜@@
规会
讨论@@
论坛@@
财政@@
资额
轨道@@
郭家@@
醇@@
钝
锚@@
雀
饶
馁
馥@@
驴
鹅@@
黩@@
～
1878@@
9]
hy@@
sw@@
ⅸ
上诉@@
下之@@
不入
事国
人亡
仅@@
优越@@
俟
债权@@
光耀
兔
凋@@
创造@@
利道
别于
制作@@
刽@@
员国
咋@@
咪
哄
啬
国民@@
坂
垢
基金@@
多姿@@
央
头来
婷@@
嫂
孔雀@@
客量
尼克@@
尼奥@@
岑@@
巴加@@
庚
张德@@
弭
强加@@
惺@@
承租@@
抖@@
排放@@
教条@@
数字@@
文字@@
文斯
斜
斥@@
星期@@
昧
显示@@
晖@@
机关@@
栾@@
模拟@@
永强
油机
溥@@
然性
爹
甩
瞄@@
瞰
砾@@
确定性
磊@@
神论
稚@@
空降@@
窑
粕
絮
绊
缔@@
罩@@
肤
自于
自给@@
艰
芸
蒲
蚌@@
蜜
衬
讥@@
诡
谋私
跆@@
转多云
辅助@@
辙
迳@@
遏
酌
镌@@
镖
长春@@
隅@@
隧@@
霎@@
霞@@
鞭
饪
鲸
鳌
鹭@@
龟
..@@
des@@
ser@@
’@@
”@@
东南@@
东山@@
严重@@
事者
二八八@@
产区
元化
冲绳@@
创始@@
利比@@
前所未@@
务处
厌
各样
周永@@
咏
哇@@
哗
喔
嘎
士站
大使@@
妆
威胁@@
媳@@
寂@@
屿@@
崖@@
庚@@
彤@@
情愿
懒@@
挠
新月@@
有机@@
本土@@
杉@@
栓
武器@@
氯
水利@@
洲人
淦
渣@@
濒@@
炙
煦
熄@@
燥
牡@@
牺牲@@
瑾
甚远
町
瘤
瞬
础
磕@@
祀
祟@@
窄@@
竿
笠@@
练习@@
聿@@
肿@@
胖
能性
茵@@
落马@@
薰@@
蘑@@
蚝
衷@@
袜
裱
褛
谆
谆@@
谎
谒
谛
豉@@
豫@@
贼@@
赫尔@@
踌@@
遐@@
邰@@
铵
阀@@
阪@@
隅
隐
雇
雍@@
韧@@
颠
鹌@@
M@@
N@@
ht@@
×@@
丈@@
之计
乒@@
习惯@@
于求
以为@@
僭@@
力于
化器
参谋部
啡
多采
夷
妨@@
娼@@
媳
宝灵@@
害性
容性
寝
对抗@@
尹
尿
嵇@@
己见
巴赫
张立@@
录像@@
徇@@
律性
恃@@
恺
感器
成长@@
拍卖@@
拮@@
捅
文卫
斌@@
斐
李瑞@@
查询@@
沫
泓@@
涝
漂
潇@@
澳道
灏
灏@@
烘@@
燮@@
物理@@
犁@@
猩@@
玟@@
玻利@@
璐
瓦拉
疽@@
瘁
瘫
私家@@
窍@@
窑@@
竖@@
笋
系统@@
羹
翱@@
而起
能源@@
舷
舷@@
艰@@
荟@@
蟮@@
赂@@
趴
踩@@
遨@@
郴@@
酥@@
铉
阈
陆空
陋@@
顷@@
驴@@
鲍
鲸@@
鷊
鹑
2005-@@
258@@
B
fe@@
sc@@
win@@
□@@
不远
为人知
之路
乒乓@@
乖
事会
介绍@@
代代
以色列@@
以赴
价值@@
伊斯兰@@
伦敦@@
体字
倡廉
储蓄@@
凄@@
加连@@
勤部
卡斯@@
司徒@@
合格@@
呕@@
呵@@
坏帐
垣
塔斯
壳@@
姊
姬@@
娃@@
娇
嬉@@
客们
寇
年初@@
开普@@
德里
怕@@
惰@@
惺
愉
扳@@
抖
招待@@
捺
掷
斯潘
方向@@
朵@@
机动@@
杖
杠@@
柩
栅@@
殴@@
毋@@
泾@@
涩
满意@@
漠@@
熹
璧@@
生会
疯
皂@@
眶
睦@@
穆罕默@@
笠
缭@@
羞
耆@@
股份@@
胜者
脆@@
腔@@
舜@@
芦须@@
药性
葵青@@
蕙@@
蠕@@
袖
装备部
谣@@
贱
遵
遽
重奏
隶@@
霄
饮
饮食@@
饺@@
骤
齐下
A
W@@
`@@
ld
net@@
serv@@
v.@@
{@@
‰
ㄉ@@
业员
二八〇二一@@
亘@@
亢
京士@@
今为止
佰@@
侬
儆@@
兑@@
入口@@
六六四@@
利亚队
剿@@
办者
勉@@
化验@@
华德
可乘
吗@@
呕
咳@@
哈拉@@
唇
嚷
国务@@
囿@@
地下@@
天主@@
太子@@
威特
婪
安健
宓@@
宕
富街
寥
尔多@@
尧@@
峦
布尔
循序@@
徽@@
恙
悭@@
惘
惭
扇@@
投递@@
拉纳
拷@@
指导@@
揆
揣@@
敛
文署
旺区
晟
晤
普洛斯
暄
暨@@
有化
来源@@
枭@@
桂冠
梅尔@@
检疫@@
棚@@
棣
楞
楷
橙@@
歪
殁@@
殚@@
比如@@
活道
海燕
浸
淀@@
淄@@
淋
淤
滏@@
滓
潍@@
潢
激
烷@@
烽
焊
物局
狈
珊@@
甩@@
瘀@@
盾@@
砺@@
磋@@
租值
秤
税局
穆沙@@
窥
纶
经营@@
结构@@
绣
绣@@
羡
而至
肆
肋
菅@@
葆
葛
蜡@@
行者
袂
裙@@
观性
觑
议者
诵
诶
谐
谜@@
谬@@
贾庆@@
赵洪@@
超道
躁@@
输入@@
迅
逞@@
酷
铐
镛
镳
阿米@@
隧道@@
集约@@
食环@@
鲨
鸽@@
鹊
鹫
麒@@
齐心@@
龛@@
280212@@
_
hw@@
window@@
一哄@@
举报@@
之徒
五七五@@
亵
克瓦@@
全球@@
兵师
其反
刃@@
券@@
剥
匆@@
化学@@
危险@@
厉
口蹄@@
唔@@
嗬
嘀@@
嘲
垮@@
塔纳
多米@@
奉公
奥林匹@@
娥
媛
宁街
密集@@
寇@@
居留@@
庵@@
建民
心所@@
怜
思议
惜@@
惩教@@
慷@@
憋
戍@@
所有@@
捍@@
捎@@
提供@@
搪@@
摹
撰
斓@@
无遗
明会
期性
李家@@
杏
极化
析@@
栗@@
栽
次性
氨
浚@@
涤@@
渍
渴@@
滇@@
漳@@
灿荣
物流@@
猥@@
猩
王进@@
璐@@
用率
略性
瘟@@
百分之二十@@
皓@@
砂@@
祺@@
秸@@
笨
筋
筛@@
粟
绽
缀
翘
耶路撒@@
耿
苟
莆@@
萤@@
营运@@
蚬
蝇@@
褪@@
解放@@
谕@@
谘
货人
逗
邃
醇
野战@@
钸
铱@@
锌
锯@@
镀
阉@@
阿根@@
阿马@@
陋
隙@@
霉@@
音速
项目@@
飙
飨
鸬@@
鹊@@
黎巴@@
黜
﹗
S@@
ational
bu@@
fic
inde@@
land@@
rel@@
tim@@
tv@@
‘@@
━@@
不久@@
不移
之机
九一八
交汇@@
交界@@
仗@@
佩去@@
佬@@
保健@@
光春
兜
兮
切性
卅
口市
叩@@
可乐
吉林@@
呢@@
哼@@
唤@@
售票@@
啥@@
喜贵
嗅@@
坚持@@
夂@@
嫉@@
嫦
孢@@
孤立@@
学术@@
学礼
安东
尼日@@
庞
弗莱@@
形式@@
徵@@
德米@@
怜@@
怯
懵@@
戈斯
扩张@@
挛
挠@@
排污@@
撕
操作@@
放矢
政署
敛@@
斟@@
旨@@
晒@@
李登@@
李荣@@
格莱@@
梓
棱@@
棺
椎
樊
樵
檀@@
比克@@
汶
海南@@
湎@@
溶
濠@@
烁@@
焚
煞
煲
燎@@
爵@@
瞪@@
瞿@@
砂
硅
确性
示威@@
祯@@
福建@@
禺
穆加@@
竞
筋@@
篑
篱@@
线湾
练功@@
经纪@@
绒@@
绰@@
腺
臧@@
舂坎@@
茜
萝@@
薮
行之@@
诃@@
诛
诟@@
谐@@
谢长@@
赅
赡@@
蹉@@
轨@@
选择@@
钳
铬
铲@@
锦华
锯
阿姆斯特@@
韦斯
颁
风雨@@
髓@@
髦
黄志@@
2824@@
28875@@
ati@@
j.@@
police
sm
stor@@
上加@@
产业部
何去@@
健康@@
傀@@
儡
先进@@
克曼
共体
内斯@@
凤英
出新
制衣@@
制造@@
助理@@
匀
博彩@@
卦
卿@@
参赛@@
发式
吆@@
同盟@@
名制
咒@@
哈克
唑@@
喙
四川@@
城市@@
增值@@
壕
大呼@@
太华
妒
娇@@
婴@@
孟加拉@@
安徽@@
实习@@
屑
希德
心理@@
息日
愕
懦@@
敷
旅行@@
无线@@
旷@@
曦
李传@@
枯
栖
桅
梵蒂@@
植树@@
殃
毙@@
活性
浣@@
渤@@
滇
满洲@@
爵士@@
狡@@
琛@@
甘肃@@
田中@@
疲
痉@@
瘾@@
磅@@
示牌
祐
祠@@
粘@@
粥
粥@@
纪录@@
纪德@@
绊@@
续不断
缚
缢
罄
罗德
罗拉
联盟@@
联邦@@
胰@@
脍@@
茧
荟
蔺@@
蕉@@
蕙
蚁@@
蛟@@
蜻@@
褥
覃@@
觊@@
觎
触
诤@@
财经@@
贮
逄@@
邓厚@@
鎏
钧@@
铂@@
锈@@
阿塞@@
附加@@
雳
霹@@
鞍山
鞘
预防@@
马克思@@
马舰
驼
髓
高望@@
鹃@@
鹏飞
鹚
黔
**@@
....@@
2005-06
M
der
der@@
一无@@
不拔
为人@@
么样
乌鲁@@
乞
伊万@@
伊拉克@@
侃
侠@@
修班
俸
俺
倘
债务@@
僚
克斯坦
公布@@
兮@@
关键@@
凿
创性
利克
利性
利昂
制令
剽@@
匦@@
卑
原子@@
厨
同于
吟@@
吸烟@@
咙
哉
哥尔@@
唬@@
啧
噢@@
噪
四分之@@
基里@@
塑
壑
士顿
大仙@@
妍
姗@@
娣
审裁@@
巴基@@
建新
怎么@@
恐怖@@
截止@@
才智
扫雷@@
择
掀@@
攘
时时@@
暇@@
曦@@
杉
杞@@
格鲁@@
梁展@@
梗@@
榄
正正
水厂
汹
沅
沱@@
波罗@@
浏
浏@@
浑
深圳@@
渭@@
游乐@@
漪
烤
王金@@
珊瑚@@
琴家
瘫@@
真理@@
矩@@
硅@@
禹@@
稔@@
窖
笨@@
篷
纷
羲@@
耀宗
老人@@
聆@@
腑
腻
臭@@
舵@@
芸@@
苹@@
茱@@
菩@@
萦@@
薯
蛀@@
蛊@@
袁
访问@@
责性
赞助@@
超人
跤
踵
躯@@
软件@@
逛@@
遑@@
酋@@
酣
金正@@
金率
钵
铰
镶
闭幕@@
阖@@
阿富@@
面性
靴@@
饷@@
馒@@
驼@@
骥@@
鱿@@
鲅@@
10+@@
D@@
P@@
dow@@
grou@@
inf@@
order@@
sar@@
smar@@
业性
二四三@@
亘
亚历山@@
亡者
京生
侪
六合@@
凳@@
出人@@
刘柔芬
办人
匠@@
叶尔@@
呗
周一@@
哑
唔
嚷@@
大中
妃@@
姨@@
姻
嫦@@
孚@@
宛
实际@@
宾逊
导性
导火@@
尼亚州
岛线
嵘
帖@@
弼@@
彬@@
很@@
律政@@
心诚意
慑@@
所在@@
扭
折不@@
拉丁@@
掖
接踵@@
擂@@
文龙
晓明
晔
曾庆@@
李铁@@
林健@@
柚@@
柬@@
桅@@
梁锦@@
椎@@
榨@@
榷
歉
毒案
毗@@
民进@@
江水
沙尔@@
沛
泓
法援@@
泣
测绘@@
湛
滕
烬
王凤@@
王启@@
琨
琶
痿
眺@@
瞬@@
秆
科斯
窍
窿
笏@@
箝@@
约束@@
绮
缓冲@@
罹@@
肋@@
舂@@
舆@@
舫
芽@@
茗@@
荧
萎@@
萨市
蒂尔
蔼@@
薇@@
螳@@
螺旋@@
角区
调整@@
谍@@
谘@@
谢尔盖@@
豁免@@
贝鲁@@
购价
跋@@
蹦@@
躯
车处
轧@@
迄
邑
钊@@
锩
锹
镉
隼
隽
雷鸣
雹
鞍
麾@@
﹣@@
#
28788@@
C
O
bookstor@@
invest@@
lab@@
lim@@
nn
por@@
°
一一三@@
一格
不容@@
乐业
二六七五@@
亚历@@
仕
侵略@@
保释@@
倡
儒
公司@@
冉
剃@@
前所@@
前茅
劳教@@
厄瓜@@
发街
周知
咕
哽@@
唁
嗜@@
嘶@@
噎@@
因特@@
园道
囱
垦@@
埠@@
基会
壬@@
奕
奠@@
妖@@
嫂@@
寰@@
尤曾家@@
层楼
峥@@
崖
嵩@@
徊@@
忽
悯
扈
扮@@
搓@@
摩理臣@@
摹@@
撼
政处
敝
斓
无家可@@
旷
权威@@
杜勒
杰福@@
案组
梓@@
梢@@
梵@@
楣
殡
氮@@
沌
泱
泱@@
洼@@
浇
淇
淇@@
淌
源源@@
煦@@
特兰@@
狩@@
狸
玶
理化
璇
疼@@
痍
眨@@
睁
睛
睽@@
瞒
瞳
研所
硝
碉@@
磐@@
礴
立街
立足@@
笆@@
笔记@@
笙
箍@@
翌@@
耽@@
胡同
膏@@
自修@@
自治@@
茄@@
茏
茗
莽@@
蟹@@
西方@@
议员@@
记忆@@
诘@@
谚@@
赛义@@
践@@
辐@@
边主义
辽
达尼
郝
酢
酵@@
钓@@
钥
锺
镀@@
陜@@
霜@@
骄
骸@@
2815@@
sec@@
servic@@
─@@
ぷ@@
不管@@
业务@@
丫
中生@@
二七七@@
二五八
二八八七五@@
人道@@
以待
优质@@
侮@@
俎@@
保育@@
兢
六三
击队
分之二
刘建@@
剩@@
化炉
华团
卢卡@@
印花@@
印象@@
反应@@
吨@@
咪@@
啤@@
啦@@
嘹@@
域网
埸@@
塔利@@
壶@@
大潭@@
天水@@
夭
奈何
妄
媛@@
孳@@
屉
岱
崛@@
布鲁克
幡
幢@@
平方@@
庆市
得一@@
必行
怎@@
总理@@
恕@@
惠国
戟
房屋@@
执迷@@
拌@@
拘留@@
拣
挹@@
掂@@
探测@@
摒@@
撙@@
敞@@
斋
斯特拉@@
新华@@
无阻
既往
明华
晰@@
更上@@
朝气@@
杆子
李少@@
李汉@@
枉
枚@@
树根
梁永@@
梅内@@
梢
梳@@
榻@@
歉@@
殡@@
母舰
沱
涧
深情厚@@
渎
滋
漓@@
濂@@
炬
烩
煌@@
猷@@
王学@@
王忠@@
玶@@
瑙
疡
痞
痢@@
痪@@
痼@@
皖
矗
砟
破产@@
穆塞@@
窠@@
窦
筷@@
箔
纫@@
组会
织物
绚@@
综
缸@@
肃
胧
腌@@
臀@@
自封
致病性
芙
芽
莽
萸
落客@@
藩
蚂@@
蜀
蝇
装备@@
裘@@
警戒@@
讧
议局
讹@@
谒@@
豢@@
贬
贵州@@
赘@@
趾@@
踝
迩
适应@@
造业
金刚@@
钾@@
难民@@
雌@@
雷特
鞣@@
韫
马绍@@
骚@@
高官@@
鳞@@
麓
麦国@@
黄鸿@@
鼓励@@
@police
D
S
n1
pow@@
不足@@
与会@@
业业
中医@@
主人@@
争鸣
二七三四@@
二五三七一九一@@
亚特兰@@
仟@@
伶@@
住脚
佩尔@@
全景
八方
六一八@@
冽
凝
刨@@
剿
升降@@
卉
友谊@@
吩@@
啼@@
土瓜@@
坭
垠
堑
多尔
奢
娈@@
孀
它@@
寅
小巴@@
工会@@
布赖@@
帕克@@
彗@@
御
悼
愣@@
懊@@
戌
戛@@
托斯
拓展@@
捅@@
捍
撇
敖@@
斤@@
旦@@
有人
李淑@@
李炳@@
枸@@
栅
桨
棉花@@
棣@@
檐
正案
此同时
民化
氚@@
永久@@
沐@@
沙特@@
浆@@
涕@@
滂@@
炊
炫
炯
熄
猷
王汉@@
玑
玫
理论@@
瑜@@
瓣
瓦尔德@@
甥
痘
痴迷@@
百花@@
皱@@
盔
瞠@@
碌
碌@@
秧@@
穹@@
突破@@
策划@@
糕
糙
终审@@
缨
羔@@
肌
膛
膳@@
臾
般@@
莹@@
萨斯@@
蒂安
蕾@@
虫剂
蝶湾
衍
衣机
警卫@@
讹
评审@@
诅@@
谲@@
负担@@
资助@@
赈
赊@@
趸
踪@@
蹶@@
躇@@
辍@@
送者
通行@@
逝@@
逞
逮
邱
邸
鄂
鄱@@
酿
銮@@
钚
钻石@@
铀@@
铁站
锑
防患@@
饥
高尔@@
鳎
鸵@@
龚
&
cep@@
ise
max
ww@@
Ⅲ
★
一下@@
一新
一蹴@@
不绝@@
为盈
为鉴
主任@@
之处
事处
伥
伶
伺@@
侵
便利@@
俏
信用@@
俸@@
倬
偌@@
偕@@
停滞@@
傍@@
元朗@@
免疫@@
公安@@
六甲
军火@@
分离@@
列宁@@
刘玉@@
删
剂@@
加德@@
匿
南斯@@
受聘@@
叮
告人
咙@@
哈萨@@
哥华
唉@@
啪
啪@@
国主义者
地化
地马拉
坚韧@@
大气@@
天然@@
娓@@
婿
嫌@@
寅@@
屎@@
岔@@
岛市
庖
康复@@
恬@@
息息@@
悍
慰安@@
懒
戊@@
扒
抗力
报会
拉亚@@
挟@@
捩@@
掀
授权@@
揣
攒@@
改会
敝@@
斯洛伐@@
昕@@
昙@@
朦@@
柿
栉@@
桑帕@@
榈
橱@@
正规@@
求斯
沓@@
沙姆@@
沽
法制@@
海权
涕
渎@@
渗
演奏@@
濯
瀚@@
烯@@
熬@@
爷@@
特殊@@
犹太@@
狸@@
王维@@
珀
璧
畸@@
疤@@
疽
瞭@@
石硖@@
禅
科特@@
秒@@
筝
纬
络@@
聋
聩
腕@@
膺@@
臼
茎
荏
荧光@@
莓
莘
菁@@
萌
萎
蒸
薯@@
蚤
蛆@@
蜓@@
蟮
行人@@
装配@@
裳
褓@@
论是
诽@@
负债@@
赞成@@
赣
赵玉@@
跪@@
迢
迢@@
遏@@
道格
那摩
钞@@
镁@@
镣@@
镯
阿不@@
阿塞拜@@
限性
靡@@
韦尼
韬
顷
颅@@
马科夫
驱逐@@
验室
高丽
髹@@
鲤@@
鸥
鹬@@
$
284@@
H@@
R@@
ba
crimeinf@@
jsp@@
rou@@
weath@@
Ⅱ@@
◆
么么
之急
买提
二零二@@
件人
倾销@@
催
册子
凳
出租@@
刘金@@
判商
剌@@
力点
匀@@
匕@@
匙@@
十字
卢维@@
卲@@
参谋@@
反对@@
发会
呦
咆@@
咋
哦@@
唾@@
啡@@
喋@@
嚼
囗
囹@@
图拉
圃@@
圄
堑@@
外线
外经贸@@
大洋@@
头人
如一
妊@@
姆林宫
宴@@
小泉@@
屁
峨
峨@@
巅@@
差饷@@
巴诺夫
帕拉
干部@@
徨
志平
恳
惭@@
懋@@
懑
戮@@
拉合@@
挞
挞@@
挫@@
捭@@
搂
搓
擅
擎@@
斯特罗@@
日起
明书
显龙
普罗@@
未决
李亚@@
李克@@
枣@@
核区
棺@@
楞@@
榔@@
槌
橘@@
汕
汾@@
沂@@
涓
淋淋
淖@@
清拆@@
烨
烯
焚@@
熠@@
爪
猛进
琅
琉璃@@
琶@@
璜
痨@@
痰
瘠
百分之十@@
皓
盐田@@
直升@@
眈
眈@@
矩
祟
票人
竟@@
竦@@
粱
维夫
羌@@
翊
联欢@@
肪@@
芾@@
苇
苍
茉@@
茹
莘@@
莫斯@@
菠@@
萨利@@
藏身@@
藩@@
虞@@
蚍@@
蜀@@
衫@@
裔@@
褪
西提
诫@@
谲
赎
跛@@
蹊@@
辆@@
辍
辕
辫@@
迪士尼@@
逅
遮
避风@@
邂@@
量级
铲
阖
阿姆@@
陂@@
陈水@@
隋@@
颁奖@@
颤
饲养@@
马湾@@
鳄@@
050@@
20年
2802@@
I
T
legco.gov.hk
soci@@
┮@@
一盘@@
二八八一七@@
亓@@
亩@@
代史
伯利@@
体上
余物
俄亥@@
俐
倦@@
傩@@
克礼
刘汉@@
力军
加利@@
区域@@
卤@@
厢
口道
呛@@
咕@@
哈拉
哺
喜街
嗡
嗷@@
噤@@
困难@@
域街
墒
壕@@
多约诺
大利
大藏@@
奏曲
如其@@
始终@@
始至终
威茨
娠
娼
嫖@@
嬗@@
字楼
学家们
官守
定书
尕@@
山湾
岢@@
岿@@
峪@@
嵬
巅
巴勒@@
巴哈@@
巴沙@@
布宜诺斯艾@@
布特@@
庶
庶@@
庹@@
张继@@
弭@@
归属@@
得票@@
德福
悄@@
慨
懋
成药
批准@@
拭@@
挝@@
捣@@
掖@@
揶@@
搀@@
撬
擂
收益@@
攸@@
斡@@
斯达@@
旎
旖@@
晓松
景湾
机坪
杞
杨立@@
栈@@
桓
桓@@
桔@@
榻
槌@@
欺人
武库
沃克
浩辉
涪@@
淑珍
溅@@
漾
瀛@@
炔
热病
然不同
熨
爹@@
王锡@@
玛巴
现实@@
瓮
用期
瘟
瘤@@
癖
皙
皱
监理@@
石角
礼宾@@
禀@@
禁飞@@
稷@@
空间@@
箫@@
米亚
籼@@
籽@@
纲图
经理@@
绞
绥
维多@@
综援@@
缎@@
罗德里@@
罟@@
羚@@
翩
翩@@
膨
自动@@
节目@@
茜@@
荡荡
荻@@
萝
葆@@
蔑
薜@@
虽@@
蜉@@
装甲@@
讦
诌
贽
赁@@
赖昌@@
蹬@@
躺@@
运站
逖@@
遽@@
郸
酚
重来
銮
鏖@@
钴
锟
陈育@@
露无遗
餐饮@@
馏
馑
驷
骇
高射@@
魇
魏茨@@
鲲
黄金@@
黛
﹃
2006-@@
2829@@
E@@
P
_@@
chinese/@@
esdlife@@
ime@@
l-@@
lic
lic@@
nn@@
pub@@
public@@
Ⅲ@@
上所述
不觉
主持@@
二二六八@@
二恶@@
亳@@
仝@@
代之
伙伴@@
估@@
侏@@
俘@@
僻@@
兀
克道
党化
凯克
刘启@@
力而@@
务署
匈牙@@
千禧@@
卡多@@
卢古嘉@@
压式
厥
发制人
口岸@@
可为
合时宜
吉尔吉斯@@
向型
吭@@
呜
呜@@
咐
咚@@
咣@@
哈比@@
圩@@
堂皇
塑料@@
塔吉@@
奠
她@@
好者
姻@@
娄@@
婕
嫡@@
孢
学组
宅@@
巡视@@
差不@@
差瓦@@
布寺
希特@@
帼
幽
弊@@
张俊@@
影响@@
志愿@@
怯@@
总督@@
恺@@
悴
所为
按摩@@
振英
掐@@
推车
掳
提名@@
斯特凡@@
旗鼓
旬@@
昼
晓阳
晟@@
暹
李福@@
柿@@
桥本@@
桦@@
椿
榭@@
榴弹
槟@@
正华
歧
氖@@
永波
洪圣爷@@
涩@@
淤@@
深入@@
渔期
渭
湍@@
湾市
溃
澡
濮@@
烃
烙
熨@@
牟
牧业
狭@@
獭
瓷
田纳@@
疮
病率
睽
睾@@
碁
祷
禺@@
科索@@
秽@@
笪@@
筐
筠
箴
簇
糅@@
纰@@
纵火@@
羲
翰@@
聪明@@
胫@@
腑@@
自主@@
英年
苹
荃
荣街
萱@@
葫@@
蓓@@
蕃
薮@@
蛛
蜗@@
蝙@@
衔@@
袢@@
西班@@
视性
诏@@
诠@@
诧@@
豹@@
赘
起诉@@
跎
蹋
躇
辗@@
辽宁@@
迈阿@@
连锁@@
迩@@
逻@@
遥遥@@
郗@@
鄙
里夫
钛@@
钠@@
钰@@
铡@@
锌@@
锰@@
镍@@
镑
长洲@@
门店
闰@@
阙@@
阿米塔@@
陈哲@@
霄@@
鞠@@
颊
飙@@
饵
马其@@
驰@@
驿@@
骊@@
魅@@
鹦@@
龀@@
龉@@
﹄
29212@@
G@@
chines@@
gc@@
gle
ipv@@
leg@@
『
』
一席@@
一览@@
不悟
乌兹@@
乍
二0一@@
亵@@
亻@@
伦斯@@
倭@@
健行
儋@@
兆荣
克仑特@@
共同@@
共管
冢@@
决权
凌弱
凤山
劲松
劼
势所@@
化妆@@
匡
华纳
卡帕
厦门@@
叭@@
合唱@@
吉布@@
吞吐@@
启后
喆
喱
喽
嗣
嘈@@
嘉璐
嘘@@
嚓
国论
地人
圳
塔赫
夙@@
多端
大党
大浪@@
夫球
妨
孙玉@@
孰@@
安乐@@
宓
寓
岬@@
岱@@
工资@@
布隆@@
帼@@
庐
异于
张宇@@
录音@@
徒们
忌惮
恢
惬@@
憔@@
戍
戳
所闻
批发@@
拉米@@
拎
拗
拱
持牌@@
振宇
捂@@
捏@@
掣@@
搐
擞
政者
教团
数码@@
旌@@
暹@@
曙@@
曹
有的@@
李承@@
极端@@
枕
林明@@
枣
枷@@
栩@@
档案@@
桧@@
楔@@
榨
槐@@
檐@@
歹@@
殒@@
沃斯
沌@@
泞
泸@@
泻@@
泾
洁性
涎@@
涟@@
涯@@
淦@@
渖@@
湮@@
漕@@
瀛
灵顿
熔
燧@@
爱德华@@
爵
牌照@@
牍
牛仔@@
犀
犁
狄
猖@@
王兆@@
王瑞@@
珩
琪@@
瑞典@@
瓦纳
生生
疯牛@@
痹@@
瘪
瘴@@
皮诺@@
相承
盹
眺
睿
研室
础@@
祝酒@@
禧@@
箍
簊@@
粗放@@
红棉@@
纶@@
绯@@
缛@@
罢免@@
而生
肄@@
脚石
脚踏@@
腮@@
自卫@@
舢@@
芊
芜@@
苓
茂生
茧@@
荚@@
莅@@
莆
莒@@
莺
蓖@@
蕊@@
藕@@
蜘@@
蜥@@
蜿@@
议性
许志@@
证会
诙@@
话会
诤
谟
谤@@
贪污@@
贰
贲@@
路军
蹭@@
辰@@
迦
道南
邑@@
邕@@
邡@@
醛
醴@@
镉@@
门子
闩@@
阿罗@@
陈云@@
陕
零售@@
霏
霓@@
鞘@@
颍@@
饨
驷@@
骆
骛
骡@@
高峰@@
魄
鲣@@
鳍@@
鸳@@
鹉
鹗@@
/05
2003-@@
403
F@@
K@@
L
L@@
ath@@
dav@@
e/@@
h5@@
ited
service
ā
⑽@@
万变
三星@@
业局
之师
乌兰@@
乒
乓@@
事们
二二六@@
亚当@@
交换@@
伫@@
伽
低点
余若@@
佰
俎
俱乐@@
倭
偕
克林@@
关法
兴奋@@
农牧@@
凝聚@@
凿@@
刘云@@
刘春@@
剁@@
加达
动荡@@
卢萨@@
厄立特@@
厝
发言人@@
吉亚
吉祥@@
吟
呐@@
呱@@
呼吸@@
咔@@
咛
咧@@
哩@@
啤
啼
嗟@@
嗤@@
嗦
噼@@
国主义
国统@@
土库曼@@
坂@@
坯
垄
大屿@@
大爷
天津@@
奥巴@@
妤
妾
姥@@
威斯@@
嫣@@
孩@@
孺@@
官僚@@
容根
尔巴耶夫
尼派
山崎@@
岣@@
崮
帽@@
建局
张思@@
徘@@
忿@@
总领@@
恬
惚
惠兰
惰
意向@@
懔@@
懿
战队
扛@@
抠
抽水@@
担保@@
拈@@
拭
揄
撂@@
撷@@
放射@@
日喀@@
智囊@@
暋
李子@@
李自@@
格勒@@
棘@@
森喜@@
椿@@
歹
气机
江苏@@
汪恕@@
汴
沐
泣@@
泮
浬
海外@@
淬@@
淼
渔农@@
溟@@
滤器
漱
瀑@@
灵顿街
炯@@
焖@@
焰@@
煲@@
燥@@
猓
玉明
瑞拉
瓢@@
甘菊
甚者
甥@@
疟
睇
睛@@
睹@@
瞅@@
矍@@
砦
砭
硷
磷@@
秧
稼
箕
粽@@
糸@@
纣@@
羡@@
而下
肯尼@@
胭@@
自己@@
致用
芜
苏维@@
英雄@@
茔
茸
荻
葺@@
蔗
蕉
蚱@@
蝠
蟠@@
被捕@@
西雅@@
觅@@
角咀
解码@@
计师
讷
试飞@@
诘
诣
谛@@
谧
谴
贡献@@
资会
资局
足赛
车之鉴
辄@@
达瓦@@
迳
退休@@
透明@@
醚
醮
钝@@
钡@@
钮@@
铜锣@@
铮@@
铿
镰@@
阿不都热@@
隘
隽@@
难性
集邮@@
鞑@@
顺街
风筝@@
饷
马达@@
高中@@
鸯
鸲
麒
麻醉@@
黎加
﹪@@
.gov.hk][5
13]
X
Y@@
cess
city
co.gov.hk
dp
engl@@
ev-@@
gov.@@
joh@@
plu@@
rf@@
sor@@
uti@@
ǎ
α
→
∶
│
一块@@
一气
一脉@@
万宝@@
不知@@
不见@@
不言@@
中转@@
久拖@@
乐平
二五五
二八八七五五@@
五角@@
交道
保加@@
偃@@
偈@@
克里斯托@@
党人
兢@@
公益@@
兰山
凸
出一辙
出谋@@
利坚
力行
加拉
区性
匾@@
华仁
卒@@
参展@@
叨@@
各行@@
吠@@
听会
呀@@
咖@@
哈玛@@
哮
唠@@
喃@@
嗖
嘟@@
国库@@
在必行
垩@@
堀@@
塔尼亚
墅@@
壤
大选@@
奥尔特@@
妒@@
始祖@@
娣@@
嬴
孺
完成@@
宙@@
实质@@
实践@@
寐
小儿@@
尔港
居高@@
山顶@@
岑
岸线
峭@@
嵩
巫
巾@@
庇
建物
张福@@
後
徙
忐@@
怖
怠
怵
恤@@
悚@@
惆@@
意外@@
懵
成章
扉
抡@@
报率
拦截@@
拧
持久@@
挛@@
捱@@
掸@@
揪
搁@@
搂@@
搔@@
摁@@
擎
攒
斯德@@
斯德哥尔@@
於
时代@@
昶
显明
晾
有增无@@
札
朱丽@@
来水
柬埔@@
梁爱@@
棵@@
楝@@
楷@@
槐
槟
殇
毓
毛泽@@
毫无@@
氓@@
汁@@
汨@@
汲
沁
浃@@
浠
涅
涎
淖
清晰@@
渐进@@
湎
演播@@
濡@@
濯@@
灸
烘
煜@@
爱琴@@
狭
獗@@
王光@@
玖
玠
珈
理所@@
琢
生素
申科
癫@@
癸@@
睇@@
督导@@
矢
矶
砰
硎@@
磁
磨灭
禹
秃
稠
稷
立陶@@
笾@@
箔@@
篡@@
粑
经常@@
绛@@
绦
罗汉@@
罘
罟
聪@@
肓
胀
胧@@
脆
腥
膀@@
膨@@
舍维奇
舸@@
芥
董会
蔬
薄扶@@
薰
蘸
蚩
蛙
蛟
蛾
蜒
蝎@@
螅
螺
蟒@@
袄
褂
褓
襁@@
观主义
角路
詹
讪
讳@@
谄@@
谏
谙@@
贻
赦@@
趋势@@
足轻重
趸@@
践
跷@@
蹑@@
蹭
辖@@
酥
酰@@
酶
醋@@
醮@@
金旁
钕
钿
铆@@
铰@@
镬
閒
阈@@
阚
防化@@
阿布哈@@
陲@@
隼@@
霭@@
霾
鞠
韫@@
领袖@@
飨@@
馄@@
馅@@
马时@@
驯
骋
骋@@
骞
髦@@
髯@@
鳌@@
鹜
麓@@
麻原彰@@
龄化
01-@@
2537@@
2877@@
399
7711
H
V@@
eng
hd
ivers@@
φ@@
①
②
一如@@
三一〇@@
不以为@@
丐
丫@@
中介@@
九三@@
二一四@@
亚太@@
亚市
例者
俨
偬@@
傣@@
共青@@
兴路
刨
利尔
劈
功于
匍@@
北省
匣
友会
叱@@
吭
吴晓@@
吼@@
呒@@
周明@@
呻@@
咝
咝@@
咸街
哆@@
哥大
唏@@
唐家@@
唛
啧@@
啬@@
啶
啸
喃
嗜
嗷
嘘
嘻@@
噜
嚼@@
四分@@
国党
国有@@
坷@@
垄断@@
埃塞@@
塞拉@@
塾
壮阔
复性
大利@@
妫
姘@@
娥@@
孪@@
安哥@@
安生
实性
密封@@
富而@@
尼察
屋屋苑
屣
岐@@
岔
峙@@
崽
巴尔舍@@
带水
帧@@
幼儿@@
庖@@
建商
弛@@
徐冠@@
徙@@
心脏@@
忑@@
志们
思危
悻@@
愁@@
愕@@
愣
慷
憩
成交@@
戴克@@
戾
托克@@
扬长@@
扮
拌
拗@@
拧@@
拯
掰
摩洛@@
攥@@
斯特罗
昊@@
明智@@
昝@@
昭雄
晓华
曼哈@@
曾俊@@
末路
朱小@@
李侃@@
李道@@
桔
梁建@@
梳
榴
橄@@
欤
毌@@
毽
氰@@
沆@@
沈国@@
波澜@@
海防@@
淌@@
淘
渔业@@
湄
溴@@
滨市
漓
澈@@
炫@@
烛
焜@@
独秀
珍珠@@
琉
瑛@@
璃
瓒
用途@@
痣
痰@@
瘸@@
皑
盔@@
目的@@
相当@@
眸
石湖@@
砥@@
砷
硐
磺@@
祈
祉@@
禁烟@@
秀华
秀莲
科罗@@
秣@@
积弱
稔
稣@@
窈@@
窿@@
竦
糌@@
糙@@
纾
绎@@
经国
结核@@
绢
绸@@
缀@@
缕@@
缚@@
缯@@
罅@@
翟
耸
职者
胡志@@
胥@@
胪@@
自足
自食@@
舶@@
艄@@
芝加@@
芭蕾@@
芹@@
苁@@
莫桑@@
获益@@
莺@@
萨斯州
葛林@@
蔗@@
蕃@@
虏
虏@@
虱@@
蚕
蚯@@
蛋白@@
蛰@@
蛹@@
蜓
蜗
蜢
蝎
螃@@
蟒
裰@@
褚@@
订造
讣@@
诀@@
诺斯@@
谏@@
谓@@
谝@@
谭国@@
貉
赛马@@
赦
赳夫
赵世@@
赵明@@
趣坊
跑马@@
蹼
辘
迨@@
逑
造福@@
逯@@
逶@@
遑
遣队
邓兆@@
酌@@
酣@@
酯
野洋@@
鋈@@
钙
钙@@
钛
钨
钪@@
铄
铬@@
锄@@
阿列@@
陆炳@@
隋
障碍@@
集体@@
集装@@
雒@@
非亚
颡@@
飚@@
饩@@
马士@@
马普@@
驭@@
鲈@@
鲲@@
鳍
麦理@@
龅@@
龋
*@@
15年
2001-@@
287818@@
2]
F
hong@@
ild@@
ne-@@
oth@@
time
urb@@
ǖ@@
ο@@
χ@@
┎@@
┐
ㄒ@@
万众@@
不决
不思@@
不散
丕@@
丰富@@
之风
些时候
亥@@
人生@@
仃@@
仟
会厅
传染@@
似于
余力
侗@@
俊平
俏@@
保守@@
俩@@
俺@@
倔@@
倩
倪
傩
入场@@
公示@@
冈山
军法
冢
决书
凯恩
击率
划策
刘江@@
别力
剜@@
千古@@
博会
卞@@
卯@@
原彰@@
反腐@@
受害@@
受雇@@
叩
可待
吉尔吉@@
吮@@
吱
周光@@
呲@@
哓@@
唁@@
唧
唯物@@
啕@@
喷嚏
噱@@
嚎@@
嚣@@
四军
土耳@@
地亚
圻
垢@@
城镇@@
堰@@
墑
复盖@@
多伦@@
大国
大大@@
大连@@
夯
奄
奋发@@
妓@@
妞
威道
娑@@
娶@@
婀@@
婢@@
嬖@@
嬴@@
孓@@
孱@@
家宝
居港@@
展销@@
屹@@
岬
岷@@
峪
帝汶
引人@@
弗利@@
徭@@
德沙@@
忻@@
怅
怆
思是
思远
愎
意性
懦
托维奇
抠@@
拂
拙@@
拢@@
拴
挑衅@@
挽
捂
揉
携式
摁
摞
撩@@
攥
政军
救世@@
敕@@
数以@@
施君@@
日内@@
昵@@
暧@@
曜@@
曳
月娥
有甚者
朱閒@@
机器@@
朽@@
林中@@
林顿
枰
柑
核准@@
桢@@
梁世@@
椐
楫
模特@@
樱
橇
此起彼@@
氯胺@@
水文@@
汨
汪道@@
汾
法特
泯
泯@@
泰晤士@@
派出@@
派驻@@
海油
涤
涮
混凝@@
淼@@
渥@@
渺
演练@@
漱@@
澍@@
濉
灶@@
炎黄@@
炕@@
爸@@
特尼@@
犊
猗@@
獒
玖@@
珂
琢@@
琦@@
瑞华
璞@@
瓦杰@@
甑@@
生存@@
甭@@
田弘@@
畹@@
痂
眩@@
眷
瞑@@
瞧@@
瞳@@
砒@@
研讨@@
砦@@
砧@@
砰@@
砷@@
硐@@
硷@@
税表
立克
竞争@@
笈
笕@@
笫@@
笺
箩
粕@@
纽约@@
绂
绎
统治@@
缁
缥@@
缮@@
罅
罗育
罗范椒@@
翅
腋@@
膊@@
苇@@
苻@@
莎白
菰
葬品
葵涌@@
蔑@@
虐者
蜥
蝴@@
蟆
衙
衩
褶
西湾@@
覃
讥
讫
诊疗@@
该@@
诧
诮@@
谅@@
谌
谍
谟@@
谠@@
贝尔格莱@@
贝巴
货员
趟@@
踹@@
辎@@
辏
辩驳
边缘@@
运筹@@
迓
远流长
逍@@
郫@@
鄐@@
酝@@
醯@@
钩@@
铆
铋
铎@@
铱
锉
锉@@
锒@@
锢@@
锴
锷
锾
镁
闩
闾@@
阍
阜
防办
陈希@@
隍@@
隘@@
雅丽@@
青海@@
鞣
鞲@@
顽
飚
马万@@
马兰@@
马来@@
马英@@
驮@@
骊
髹
魅
鲈
鲮@@
鳗@@
鸩@@
鹫@@
麦鸿@@
黄竹@@
默斯
鼐
龃@@
﹄@@
..
10年
557@@
568
6111
:03
hongk@@
ile
inst@@
intern@@
lcsd
ntr
ofta@@
scdma
td-@@
ü@@
γ
│@@
■@@
さ@@
の
一厢@@
下降@@
不拘@@
不计@@
世文
乇@@
亚拉巴@@
亥
产税
代代@@
伦坡
伪性
作曲@@
佤@@
侄
侯赛@@
俐@@
俚
俟@@
俳
倏@@
倚
倬@@
偎
僻
八·@@
公主@@
公平@@
共睹
关塔@@
冕@@
减肥@@
出席@@
刂@@
制化
制空@@
剐
剖
加索
勃生机
勒马
匐
危机@@
厍
厣
受贿@@
叨
可靠@@
史密@@
叶利@@
叻@@
合伙@@
吋
吋@@
吧@@
呱
咚
咧
哈塔@@
唆@@
唐天@@
唑
唢@@
喇
喧
嗅
嗽@@
噙
四面@@
圣彼得@@
垄@@
垛
埭
基因@@
塔斯@@
墀
墨尔@@
墩@@
夏威@@
多约@@
大亚@@
头市
奘
奥姆@@
妍@@
妪
妾@@
娟@@
婵
婺@@
嬉
孑
存异
安居@@
宙斯@@
审员
宣部
家正
密码@@
小川
屯垦@@
峭
崮@@
嵋@@
布达@@
帛@@
干涉@@
年轻@@
张树@@
张超@@
弼
彝
徊
忧心@@
快餐@@
怵@@
恫@@
悄
悍@@
悸@@
悻
惊心
惮@@
憨@@
憬@@
战部
戡@@
扰性
拽
挈@@
捎
掂
掰@@
掼@@
揍
摩理@@
敖
数师
旆@@
旎@@
昆仑@@
昱
晰
暾
有增@@
杳@@
林光@@
桨@@
梁智@@
歆
殓
毡@@
氐
氐@@
氛@@
氡@@
永世
汐@@
沂
沃尔福@@
沓
沔
沣
法兰@@
泗@@
洱
洼
流浪@@
流离失@@
涓@@
涣
淞
温和@@
渲
漯@@
漳
潇
潘文@@
澍
澳泳滩
濠
灼
炕
炖
炷@@
烷
焙
焱
煊
熠
牛潭@@
牡
牦@@
牺@@
犬队
狯
猿
玮@@
珉
琏
瑕@@
瑾@@
瓣@@
疟@@
痈@@
癫
皈@@
皑@@
皖@@
盎@@
目惊心
眯
眶@@
瞥@@
砜@@
砣@@
硌
硝烟@@
祛
福尔摩@@
秀茂@@
秋节
科济@@
税区
稞@@
稠@@
窕
窘
窟@@
立群
笆
笕
笥@@
简单@@
箩@@
篆
篆@@
粘
粱@@
糖尿@@
糸
絮@@
縳
纳扎@@
纳米@@
绢@@
绸缪
绽@@
缎
缦@@
缨@@
羌
羔
翊@@
老山
耘
肛@@
肢@@
胍
胚@@
胝@@
胡锦@@
腭@@
膜@@
臬
臭名@@
臻@@
舍尔
舔@@
芩
苒
苛
茬@@
荏@@
荣辱@@
荪
荪@@
莳
萄@@
蒋任@@
蒙得维的@@
蒿@@
蓓
蔓
蘅
虔@@
虢@@
蚴@@
蛹
蜃@@
蟀
蟋@@
蟠
衅@@
衩@@
袍@@
裨@@
褂@@
规模@@
觐@@
觯
警备@@
许世@@
许光@@
诬
诿@@
谅
谋杀@@
谑
谖@@
谚
豚@@
豺@@
赀
趾
跚
路涛
跷
踹
蹒@@
蹿@@
身分@@
车之@@
轰炸@@
轾
辋@@
辖市
辗
辙@@
达辉
连云@@
连臣
迤
迫击@@
逯
逵
遛@@
邋@@
邓国@@
郄
郑汝@@
郡@@
郤@@
酚@@
酶@@
量力而@@
鎏@@
鏊@@
钡
钥@@
钮
铐@@
镒@@
阋@@
阮
阿齐@@
陇
陈光@@
陈智@@
陡
雯@@
雹@@
需求@@
霁@@
霈
霖@@
颉
颓
颔
颚
饲
馍
馍@@
馐@@
马列@@
驸@@
骞@@
骷@@
高士@@
髡@@
鬯
魇@@
鲆@@
鲇
鷊@@
麝@@
麦葛@@
黏
齑@@
龋@@
龙永@@
﹃@@
#@@
12年
3010
E
N
crime@@
ers@@
labou@@
order
s/y@@
statistic@@
wi-@@
xh@@
ú@@
ü
б@@
с@@
у@@
′@@
Ⅰ
⑽
╩
ぁ
て@@
ひ@@
む
め
ㄕ
ㄖ@@
一身@@
东条英@@
主动@@
举世@@
义国
乜
二七三四九@@
二八八四@@
亍
亚夫
亚德@@
亲们
人节
什图@@
仄
任关@@
何世@@
佩克
使命@@
俯
倪四@@
兀@@
克林顿@@
兖@@
其数
凌日
击者
分类@@
刈
刈@@
刍@@
刘慧@@
刘锦@@
制于
剁
勺@@
包商
半年
华盛顿@@
南南@@
占有@@
卯
厩
召集@@
可见@@
可视@@
叶尔莫@@
叻
叽@@
各司其@@
合众@@
合家@@
合法@@
吉隆@@
吝
呓
呛
呦@@
呷@@
咄
咄@@
咣
咤@@
咦
咨
哂@@
哈瓦@@
哉@@
唆
唧@@
唰
唰@@
唳
喀麦@@
喙@@
嗍@@
嗑
嗑@@
嗖@@
嗡@@
嗨@@
嘀
嘉手@@
嘞
嘟
噌@@
噶
嚓@@
国性
坯@@
埂
埙
堇
墒@@
墨西@@
壅@@
壑@@
壬
天凯
奂
妖
妗
姆贝@@
委内@@
姬胜@@
娄
娑
媾@@
嫉
孑@@
孓
孛@@
孝严
学金
宀@@
安倍@@
宙
定权
宥
家华
富尔
寡助
导体
尢@@
岘@@
岜
岢
岫@@
崂@@
崭
嵊@@
嶂
工贸@@
巴托
帔
帘@@
幌@@
幔
幡@@
庐@@
库德
废弃@@
廓
张左@@
彀
归根@@
归根结@@
彭定@@
徜@@
德黑@@
忖
忖@@
志道
忱
忿
怀庆
恪
惫@@
愈来@@
愦@@
憋@@
成千@@
戮
扬威
抡
抻@@
拄
挚
掐
掴
掺
描
揽@@
撮
撸
擘@@
擢
收入@@
敞
文昌
文生
斛
斯加
斯敦
施若@@
日来
旯@@
晌@@
晦@@
智光
曙
曳@@
曾宪@@
曾建@@
杂志@@
李万@@
李肇@@
杖@@
林善@@
林瑞@@
林秉@@
枭
柚
栈
栌
树备
桀@@
框@@
桥咀@@
桶@@
梆@@
梧
榈@@
榷@@
樯
橹
檬@@
欤@@
殡仪@@
毁灭@@
氖
氛
氧化物
氲
水型
汝
汞
汤曜@@
沃罗@@
沤@@
沪宁
泗
津斯基
津贴@@
浈@@
浒@@
涝@@
涧@@
淙@@
渚@@
溱@@
演唱@@
澡@@
澹
濂
濉@@
瀑
焙@@
焱@@
煊@@
照表
熏
爰@@
牛池@@
狈@@
猕@@
獾
珑
瑁
璀@@
瓦时
瓯
瓯@@
生人
甬@@
甯@@
田曾@@
畦@@
畴
畹
痕@@
百家@@
盗窃@@
盱@@
睐@@
睬@@
瞅
瞪
瞰@@
石礼@@
砩@@
硬派
碘
碚
碾@@
磬
磺
礻@@
祀@@
祁
祖康
祸首
秣
秤@@
秭@@
秽
稞
稼@@
立信
竺
竽
笙@@
筇@@
篓
篡
籁
精益@@
糠
糠@@
素帕@@
綮
纥
纨@@
组委
绅
绰
绷@@
绸
绻
缈
缰
罔@@
罡
罨
美龄
群众@@
老一@@
耄
耄@@
耆
耋
聂
聊天@@
聒@@
胀@@
胥
胳
脐@@
脖
脯
腩
腮
舐@@
艏
芡@@
芦
芮
芴@@
苏黎@@
茅
茛@@
荆
荔枝@@
荦
莠
莠@@
莫纳
莫诺夫
莱马
获得@@
菪
萁
萨摩@@
董秉@@
蓟@@
蔡元@@
蔼
蕞@@
蕲@@
蕴
薄弱@@
蚓
蛀
蛎@@
蜴
螂
螟
蟛@@
蠢
蠹@@
衢
补短
袄@@
裁者
褡@@
褥@@
褶@@
西哈@@
西州
要性
覆盖@@
觑@@
言人
誊@@
讪@@
讵@@
讶@@
许仕@@
许淇@@
讽@@
诛@@
诠
询问@@
诩@@
诰
诳@@
诶@@
谀@@
谌@@
谥@@
豌@@
贯穿@@
贲
贽@@
赖于
赝@@
赳
跫
蹦
蹩@@
蹴@@
身份@@
躬
轫
轮功
轶@@
轼
迂@@
这样@@
逑@@
遢
邢
邵
邸@@
郑汉@@
鄣@@
鄯@@
酃@@
酉
酒店@@
里约热内@@
金一@@
金石
鉴于@@
钏@@
钓鱼@@
钤@@
铁道@@
铑
铛
铢@@
铨@@
铯
锂
锏@@
锕@@
锜
锥
锩@@
锹@@
长治@@
阄@@
阙
阚@@
阮国@@
阿旺@@
陌@@
除此@@
随者
需品
霏@@
霰@@
霾@@
靓
靓@@
鞯
鞯@@
颂苑
颌@@
颍
颦@@
飒@@
飓@@
饨@@
饵@@
马伦@@
马兰奇
驿
骅@@
骜@@
骰@@
髁@@
高利@@
鬣@@
魑
魑@@
鲂@@
鲇@@
鲎@@
鲔@@
鲤鱼@@
鲨@@
鲳
鳎@@
鳖
鳖@@
鳗
黄镇@@
黝
黾@@
龌@@
﹚
2006@@
28911@@
3]
6]
EC
G
boo@@
corpor@@
fest
life@@
polic@@
shern@@
vest@@
www@@
β@@
ο
ω@@
а
в
′
℃
≈@@
③
③@@
④@@
┐@@
┑@@
┒
┙@@
┟@@
〖
〗
〝
い
だ
ど@@
に@@
ぷ
ィ
サ@@
タ@@
ㄉ
ㄊ@@
ㄍ
ㄓ@@
ㄔ
ㄗ@@
一七七
一意
一般@@
上而下
不愧@@
严惩不@@
义无@@
乌干@@
乜@@
事实@@
二七七三五二@@
二五一一@@
二五三七@@
二五二七七@@
云生
五一四@@
亚贝巴
享乐@@
仍@@
令性
任制
任毓@@
伺
何文@@
佗
佩英
侬@@
俚@@
保东
保家@@
信片
倜
傅全@@
僇
克罗夫
入住@@
入息@@
全力@@
公交@@
冷式
冼
出发@@
分为@@
切实际
刘仲@@
别有@@
剐@@
加勒@@
勐@@
匏
北调
匝@@
匦
协进@@
博特
卢森@@
卤
卦@@
卮@@
厝@@
参观@@
叟
叶世@@
各业
同德
同日而@@
向荣
吮
吴作@@
呔
呔@@
呶
咂@@
咔
咛@@
咤
咯@@
咵
哂
哒
哟@@
哥斯达@@
唛@@
啜@@
啮@@
啵
喔@@
喜灵@@
嗄@@
嗍
嗽
嘣
嘧@@
嘭
噎
噔
噜@@
因斯坦
国兴
国院
圳@@
址@@
坭@@
坷
垓@@
域道
壮年
复燃
大刀@@
奂@@
奥林@@
妆@@
姗
娲
婀
媪@@
嫖
嬷@@
孽@@
宄
安门
实事@@
密不可@@
尚全
屇
岖@@
岣
岫
岵@@
峁
峁@@
崃@@
布会
希涅夫斯基
帕伊
帜@@
帷
幷@@
广泛@@
庋
庑@@
廉洁@@
建敏
弈@@
弑@@
弩
彿
徨@@
德怀
忤@@
忧患@@
怅@@
怦@@
恚
恣@@
悚
悭
愫
慊@@
成克杰@@
戕
手足@@
打道
扭亏@@
承前@@
护署
拉姆斯菲@@
拉那
拑@@
挎@@
捌@@
捶@@
接再厉
掮@@
揆@@
搴@@
摞@@
撅@@
播音@@
擢@@
攸
改委
改税
教唆@@
斫@@
旁贷
旌
旳
昀
昂船@@
明园
明扬
昦
智良
暮
暼
曼彻@@
朱熔@@
杌
李卓@@
李术@@
李继@@
李远@@
李郑@@
杓
枞@@
枥
枨@@
柠@@
柢
标者
栓@@
根于
根据@@
桥头@@
椁
楢@@
楣@@
榉@@
榔
樵@@
橐@@
橱
橹@@
欧元@@
欧萨@@
殆
殉
毗
民杰
氦@@
氪
氲@@
水湾
沔@@
沙群岛
泰晤@@
洌
洎
洙@@
海胜
涑@@
涣@@
淙
淞@@
渥
渲@@
湔@@
溅
溟
滨逊
潞@@
濡
灸@@
炖@@
烁
烊@@
焖
焗@@
煜
煨@@
煴@@
牍@@
獗
獾@@
王礼@@
珅
珐@@
琐
琚@@
琬
瑕
璨
瓦努阿@@
瓴
瓿@@
甄
甘乃@@
疱
疱@@
疴
痞@@
痢
痹
瘀
皎@@
盅@@
盏@@
监处
盹@@
眉睫
睐
瞌@@
瞵
矗@@
知返
矫
石广@@
石绿
砑
砝@@
砟@@
砼
硖@@
碜
碾
磋
祐@@
祚@@
秀红
秸
税案
窬@@
笮@@
筚@@
筲箕@@
筷
箕@@
粼
粼@@
紊@@
纟@@
纡@@
约旦@@
纭
纳税@@
线图
绔@@
绦@@
绱@@
绶@@
绾
缔约@@
缶@@
罡@@
罨@@
羁
羟@@
翎@@
老金
而不谈
而就
联部
聪敏
肇
肘@@
胡启@@
胤
胱@@
胼@@
脓@@
腓@@
自明
自焚@@
致性
致病@@
臼@@
舂
舄
舄@@
航运@@
艘@@
艿
芄@@
芏
芰@@
芾
苏贞@@
苤@@
荼
菅
菏@@
菟@@
葜@@
蒜@@
蒽@@
蔻
蔻@@
薛
蘸@@
蚌
蚺@@
蛆
蛔@@
蜻
蟑@@
蟪@@
蟾@@
蠊
蠊@@
蠓
袖衫
袤@@
袼@@
裆@@
裴
褐
褡
西奇
规范@@
觥@@
讠@@
讴
论界
评判@@
诓
诓@@
诜@@
诺罗@@
谑@@
谔@@
谕
谧@@
谳
貂
负责@@
赖士@@
赜@@
赳@@
超英
趴@@
跫@@
踊@@
蹬
蹿
躐
载难逢
辫
达姆
近利
选赛
逍
逦@@
遄@@
遐
邛@@
邬满@@
郄@@
郑家@@
郭永@@
鄞@@
鄢@@
醌@@
醪@@
釉@@
金日@@
釜
錾@@
鍪@@
鐾@@
钌@@
钗@@
钺@@
钼@@
铋@@
铛@@
铵@@
锄
锶
镆
镏@@
阃@@
阡@@
防治@@
防火@@
陉
鞅
鞒@@
鞴@@
韪
颚@@
飧@@
饔@@
饺
馊@@
馋
馋@@
馔
馕
骇@@
骸
骺@@
骼
髡
魄@@
鲋@@
鲠@@
鲨网
鲫
鸨
鸪@@
鹑@@
鹗
鹧@@
麦当@@
黑龙@@
黯
鼋@@
鼬
龅
龆@@
龇
龊
﹗@@
.info
;@@
J@@
R
V
duc@@
istic@@
|
±
á
ā@@
ǜ
ǜ@@
γ@@
ι
ι@@
κ@@
τ@@
φ
в@@
о@@
с
Ⅰ@@
ⅹ@@
→@@
∑@@
∧@@
≡@@
≥
⊥@@
①@@
⑤@@
┃
┍@@
┑
└
┕
┟
┡
┢@@
┤
┩@@
┪
┮
╁@@
▼@@
○○@@
〇〇〇〇
さ
し@@
す@@
ぞ@@
っ@@
と@@
な@@
に
ィ@@
ザ@@
シ
ㄅ@@
ㄓ
ㄔ@@
ㄕ@@
一三二@@
一介@@
万户
下药
下落@@
不可挡
不忍@@
不择@@
不遗@@
业率
丶
义和@@
乓
乡村@@
争论@@
二七一七@@
二八六八@@
二连@@
亓
亚利@@
亚的斯@@
亚美@@
亚那
亳
人才@@
人票
仉@@
仞
仡@@
仨
仨@@
伋@@
伫
估价@@
体病
佚@@
佞
佞@@
侈
依存@@
侣@@
侪@@
俊仁
俞
俨@@
俪@@
俳@@
倌
倔
偎@@
偑@@
傈@@
僭
僯
僳@@
光师
克力
全意
公明@@
兴未@@
兵戎@@
农奴@@
决于
凇
凇@@
凵@@
击案
凼
凼@@
刂
分享@@
刍
列市
刘健@@
刘励@@
刘千@@
刘柔@@
刘葆@@
制区
剀@@
前例
剜
力所@@
务队
劬@@
劭@@
劾@@
勐
勺
匚@@
华案
华莱@@
卓绝
单仲@@
南丹@@
卡因
卡比@@
卡西亚@@
卢布尔@@
卮
却@@
厍@@
厶@@
双刃@@
反顾
发症
变动@@
可口@@
叵
叶刘@@
叽
同学@@
名胜@@
后遗@@
吕杏茜
吠
吡@@
吲@@
吴惠兰
吴荣@@
呓@@
呤
呯@@
命于
咐@@
哽
唏
唾
啖
啰
喏
喑
喟@@
喳
喳@@
喽@@
嗉@@
嗌@@
嗒@@
嗙@@
嗥@@
嗫@@
嗬@@
嗲@@
嗵
嘌@@
嘛@@
嘤
嘱
噫
嚅
囗@@
四人@@
四民
囡
囡@@
图们@@
圣地亚@@
圣殿@@
在此@@
圮
坨
坻@@
垠@@
垴@@
垸
埃塞俄@@
域多@@
埭@@
埯
基文
埽@@
堻
填区
塬@@
塾@@
墼
夤
大强
天下之大不@@
天下之大不韪
失踪@@
失道@@
奇卢@@
如此@@
娉
娉@@
娌
婊@@
婧@@
婪@@
婶
媊@@
媪
嫜
嬷
孀@@
孔斯基
孙广@@
孝华
学社
孩
安局
安法
寤@@
寻味
封建@@
小儿麻痹@@
小型@@
小泉纯@@
尖沙@@
尘暴
尚慕@@
尨
尼科
尽职守
局性
岖
岚@@
岜@@
峋
峒@@
峙
峤@@
峦@@
崃
崛
崧
崧@@
崴@@
崽@@
崾@@
嵛
嵝@@
嵬@@
嶝
巩
布加勒@@
布热@@
布达拉@@
常化
年青@@
幸存@@
幼军
庀@@
庄市
库业
廛
开幕@@
张万@@
弣@@
当其@@
徉
德拉鲁@@
德新街
德金
怂
怔
急功@@
怺@@
怼@@
恁
恍
恣
恲@@
恸
悌
悯@@
悴@@
情局
惘@@
惩罚@@
愆
愦
愧于
慑
慕尼@@
憬
憾@@
懈
懮
戒急用@@
戕@@
或少
戥@@
戬
扈@@
扎伊
扎卡@@
扎扎@@
扪@@
扼
抉
拇
拉各@@
拎@@
拽@@
挎
挝
振军
振甫
挲
挻@@
捋
捋@@
捗@@
捺@@
推陈@@
揄@@
揖@@
揩@@
搽
搿
撵@@
撸@@
攫@@
改弦更@@
攻坚@@
敕
文康@@
新网
新街
斲@@
旃
无家@@
明敏
昶@@
显像@@
晁@@
晏
晙@@
普理@@
普遍@@
暧
更生@@
曾培@@
有所值
有素
朊@@
朐@@
末世@@
李岚@@
李纪@@
村山@@
杜老@@
杨洁@@
林焕@@
林郑@@
枘@@
枥@@
枰@@
柞
柢@@
柯布@@
桧
梁乃@@
梁肃@@
梅嘉@@
梳士@@
椋
椤@@
椥@@
椰
楂
楔
楝
楮@@
榛@@
榧@@
槛
槲
檩@@
欢欣@@
歆@@
殇@@
毒所
比什@@
比勒@@
比勒陀@@
氚
氦
氻
求真@@
求精
汉市
汩@@
沅@@
沙尼亚
沪祥
沮@@
油尖@@
法委
泞@@
泠
泠@@
泶@@
泷@@
洄@@
洪圣@@
流长
浒
浓缩@@
海参@@
涅夫斯基
涫@@
涿@@
淆@@
深情@@
渌
渌@@
湟@@
溤@@
溥
溧@@
溽@@
滁@@
满足@@
滢
漉
漠化
漯
潢@@
潸@@
澧
澹@@
濑
灞@@
灬@@
灭绝@@
炵
炼油@@
烊
烬@@
焓@@
煸@@
熊光@@
熘@@
熟虑
熹@@
燹
牯@@
牲
特沃斯
犄@@
犰
犰@@
犷
狒
狒@@
狳
猗
猾
王发@@
王恩@@
玟
玳@@
珉@@
珏
珖
珮@@
理财@@
琏@@
琥
琬@@
琰
璃@@
璎
璪
瓢
瓥@@
瓦多
瓦蒂
瓮@@
瓴@@
甑
甘斯克
甙@@
畋@@
畛
畛@@
畿
疃
疃@@
疚@@
疝@@
疵
疸@@
疹@@
病狂
痒@@
痔
痘@@
痚@@
痧
痪
瘑
瘕@@
瘢
瘢@@
瘸
瘼
皋
皮诺契@@
目一新
相去@@
看守@@
真理教
眦
眯@@
睢@@
瞗
瞩@@
矜@@
矣@@
矬@@
矸@@
砉
砉@@
砡@@
砫@@
砻@@
硇@@
硗@@
硪@@
碘@@
碛@@
磕
礂@@
祚
福源
种族@@
秩
秪
稗@@
稚
稣
穑@@
穰@@
穻
窒@@
窖@@
窭
窸@@
立面
站式
竭尽@@
竽@@
笄@@
笊@@
笋@@
笞@@
笤@@
笥
笫
笳
笳@@
筐@@
筛
筜@@
筲
筼@@
箅
箧
篕
篦@@
粽
糁@@
糨@@
糯@@
紆@@
纂@@
纗@@
红十字@@
约翰内斯@@
纫
纮
纳拉亚@@
终端@@
绐
绫@@
绲@@
维也@@
绶
绾@@
缇
缇@@
缈@@
缙@@
缡@@
缤@@
缧
缮
缯
缱
缱@@
缶
罕默@@
罗福@@
美联@@
羯@@
羸@@
翥
翦@@
翮
而不舍
耪@@
耽
联体
肃方
肓@@
肮@@
肽@@
胀率
背道而@@
胗
胙@@
胝
脐
脓
腆
腱@@
腻@@
腼@@
膘
膛@@
臀
臁
自古@@
至终
舔
舨@@
舶
舸
艾哈@@
艿@@
芊@@
芍
芎@@
芏@@
芭
苈@@
苊@@
苋@@
苏哈@@
苏有@@
苔@@
苕@@
苞@@
苣@@
苤
苫@@
茁@@
茌@@
茎@@
茓@@
荤
莳@@
莶@@
菏
萋@@
萦
萨格勒@@
萿@@
葩
蒬
蒸蒸@@
蒿
蓦@@
蔓@@
薜
薷@@
藕
蘩
虬
虱
虻@@
蚜@@
蚣@@
蚧
蚧@@
蚪
蚱
蚶@@
蛏@@
蛤
蛤@@
蛩@@
蛰
蛴@@
蜈@@
蜒@@
蜕
蜷
蝌@@
蝠@@
螂@@
螅@@
蠓@@
蠖@@
蠛@@
蠡@@
蠼@@
行榜
衢@@
衲@@
袁守@@
袅@@
袒
袢
袷@@
裉
裘
裥
裥@@
裰
裱@@
裸
褒
褫@@
褰@@
褴@@
襄
西气东@@
西米@@
覂
觐
觥
觯@@
訾@@
諵
謇@@
许信@@
访团
证法
诂
评核@@
诅
诏
诒@@
试法
诖@@
诨
诨@@
诮
诲@@
说服@@
读于
谀
谁@@
谂@@
谡
谡@@
谢列兹尼奥@@
谬
谳@@
谴@@
豸
贶
贶@@
费特
贾春@@
赂
赓@@
赫尔辛@@
赫普@@
赭@@
走险
赵桂@@
起跑@@
趄
趑@@
趣味@@
跋
跏
跏@@
跹
跺@@
踅@@
踊
踝@@
踞@@
踱
踵@@
躏
轱@@
轲
轿@@
辶
辶@@
达恒
迆
过渡@@
返回@@
迨
迫在@@
透社
逭@@
逻
遒@@
遨
避害
邅@@
邝
邝其@@
邦联@@
邳@@
邵琪@@
邹
郏
郜@@
鄹
酐
酩
酯@@
醣@@
釉
野中广@@
金局
金泳@@
金润@@
鋈
鋋@@
鍪
钋@@
钕@@
钟丽@@
钵@@
钺
铁山
铂
铄@@
铡
铣
铩
铭心
银矿@@
铼@@
锂@@
锃@@
锛
锡堃
锰
锲
锸
锻
镏
镐@@
镗
镣
镰
长补短
闱@@
闳@@
阃
阆@@
阌
阍@@
阑@@
阒@@
阛
阶段@@
陈佐@@
陈冯富@@
陈方@@
陌
陛
隐私@@
隳
隶
雎@@
霁
霍罗@@
霓
霭
靼@@
鞫@@
鞴
韭
韱
韱@@
音机
顾尔@@
预警@@
颔@@
颢@@
颦
饩
饬
饯@@
馁@@
馈
馉
馏@@
馦@@
驧
驩@@
马尔卡@@
驮
驹@@
骧
骱@@
骷
髅@@
髆
高检@@
鬓
鬓@@
魃
魈@@
魉
魉@@
魍@@
鲂
鲆
鲎
鲔
鲛
鲤
鲳@@
鲷
鳏@@
鳔
鳕@@
鵟@@
鸠
鸥@@
鸵
鸶
鸷
鸸
鸾
鸾@@
鸿震
鹄
鹎
鹜@@
鹪@@
鹮@@
鹳
麂
麰@@
麴@@
黄庆@@
黠
鼍@@
鼓岭
鼙@@
鼾
齐放
龉
龖@@
﹙
﹙@@
﹛
/07
/3
2878@@
4]
7]
?@@
J
K
PEC
U
X@@
Y
book@@
c&@@
esd@@
exec@@
executi@@
gpo@@
lcs@@
mbian
nix
rece@@
receiv@@
ref
vision
wirel@@
y2@@
}@@
±@@
è
ê
ê@@
í@@
ò
ò@@
ù@@
ǎ@@
ǔ
ǖ
ǘ
α@@
ζ@@
θ
ξ
ρ
σ
τ
ψ
ψ@@
ω
а@@
г
г@@
е
м
ъ
ъ@@
ь@@
″
″@@
℃@@
ⅲ
∈
∈@@
∑
∠
∠@@
∨@@
∪@@
∮
∷
∷@@
∽@@
≌@@
≡
⊙
②@@
④
⑥
⒔
┎
┓@@
┕@@
├@@
┡@@
┤@@
┫
┫@@
┭
┯@@
┱
┱@@
┳
┳@@
╮
▲
▼
◆@@
◎
★@@
☆
〔
く
げ@@
こ@@
じ
じ@@
ず@@
せ
ぜ@@
そ@@
ち@@
ぢ@@
で
の@@
び@@
ぴ
ぶ@@
ァ
ァ@@
ケ
コ@@
ゴ@@
シ@@
ズ@@
セ@@
ゼ
ゼ@@
ソ@@
ダ
ダ@@
ッ@@
ツ@@
ト@@
パ@@
ヒ
ヒ@@
ブ@@
プ@@
ョ@@
ヴ
ㄅ
ㄆ@@
ㄋ@@
ㄍ@@
ㄏ@@
ㄐ@@
ㄒ
ㄖ
ㄜ
ㄧ
一刀@@
一心@@
一斑
一来
一针@@
万鹏
下跌@@
不屈@@
不忍睹
不挠
专员@@
专注@@
丕
东坡
丝网
丽泰
丿
乃仁
乌鲁木@@
乔宗@@
二氧化@@
仃
仄@@
令营
以史@@
以身@@
仳
伂
伊凡@@
伎@@
众所@@
伢
伲
佃@@
体户
何厚@@
何祚@@
佘
作则
佟
佩定
佯
侗
侥@@
促会
俄罗@@
俑@@
俜
俜@@
保税@@
俞宗@@
倏
倥@@
倨@@
值得一@@
偃
偬
偻
偾@@
偿金
傰@@
僮@@
僯@@
儩@@
克列@@
克莱斯@@
兖
共苦
关村
兴道
其责
养鱼@@
内罗@@
冈萨@@
冒牌@@
农德@@
冥
冯富@@
凛
凰
出一@@
刁
分辨@@
切变
列前茅
刘仁@@
刘华@@
刘古@@
刘松@@
利避害
制人
刻刻
剌
前卒
前瞻@@
劗
务尽
劭
勯@@
化日
北海@@
北辙
北部@@
匚
匝
升股
卉@@
南省
博东
卡特里@@
卢武@@
卢耀@@
卢西亚
厄立@@
厣@@
厮
厰
反尔
右倾@@
叼
各式@@
同存异
后顾之@@
吒
吒@@
吕孝@@
吕杏@@
吖
吖@@
吡
吤
吱@@
吲
吴亮@@
吴基@@
吴水@@
吹风@@
吻@@
呋@@
呖
呖@@
呯
呶@@
呷
呸
咂
和立
咖
咦@@
咩
咫
咴
咴@@
咻
咿@@
哐@@
哒@@
哝
哧
哧@@
哿@@
唷
唿
啃@@
商部
啭
啵@@
啷
啷@@
啻@@
喁
喟
嗉
嗝@@
嗥
嗳@@
嗵@@
嗾@@
嘁
嘞@@
嘣@@
嘤@@
嘹
嘻
噩
噰
嚍@@
嚎
囔
四七五
囟@@
囫@@
囵
图治
囿
在野@@
地义
坍
坚定@@
坞
坦桑@@
坼
垃
垄断法
垌
垲
垵@@
垸@@
埂@@
埃西亚
埲
埽
堃
堃@@
堙
堞
塔尼亚@@
塞内@@
塞尔廷
塞浦路@@
塞舌@@
墉@@
墑@@
备忘@@
夤@@
大奖@@
大马士@@
奖者
妗@@
妞@@
妣
妦@@
妩@@
妫@@
姘
姜春@@
姝@@
姣
姹@@
娆
娠@@
婊
婧
婶@@
媢@@
嫌疑@@
嫔
嫔@@
嫜@@
嫠
嫠@@
嫣
嫱@@
嬖
嬲
孛
季候@@
孤行
孵
安队
宋楚@@
实实@@
宥@@
宦
宦@@
宸
宿者
密特@@
富市
寞
小浪@@
尢
尴@@
尼泊@@
屋宇@@
山车
屹
岌
岷
岽
峄
峄@@
峥
峲@@
崔崇@@
崤@@
崦
崦@@
崴
嵊
嵋
嵘@@
嵯@@
嶀
嶝@@
巽@@
布宜@@
布赖特
帚
帠
帡
并论
庆龄
庋@@
庑
庠@@
庥
庥@@
庰
庵
庾
廱
廴@@
弑
张克@@
张铭@@
彭询@@
徆@@
徐才@@
得税
德己@@
心积@@
忑
忝@@
忻
怐@@
怖@@
怞
怴
怷@@
怼
恁@@
恂
恂@@
恅@@
恓
恫
恿@@
悫
悫道
悬崖@@
惆
惕
惠芳
惴
惴@@
愀@@
愈烈
愓
愫@@
慑力
憍
憎
憝
憨
憪@@
憯
成克@@
成智
或缺
戚火@@
戟@@
戡
戴姆@@
扉@@
扪
扽
抉@@
抒
抨
抨@@
抯
拉斯维@@
拉脱@@
拉那@@
拷
挜
挟洋@@
挬
捌
损于
捻
掍
掬
揖
援国
揿
搀
搌@@
搡
搧@@
搴
摇头@@
摈@@
摏@@
摗
摡
摩尔多@@
摰
撂
撋@@
撘@@
撩
撵
撷
擗@@
攴
教统@@
敫@@
文锦@@
斛@@
斡
斯洛文@@
斯特拉达
斯达克
方法@@
於@@
施令
无事@@
无锡@@
日俱@@
旰@@
旺达
明市
明节
是说
昵
晌
晔@@
暙
暝@@
暾@@
曭@@
曰@@
有法@@
朕@@
朦
札夸@@
朿@@
杀伤@@
杈@@
李向@@
李廷@@
李诗@@
杩@@
杲
杳
杼
松花@@
枇
枋@@
枨
枱
枳
枷
柙
柙@@
柜员@@
查到底
柯伊拉@@
柰@@
柴松@@
栀@@
标赛
栉
格达@@
栾
桉
桑切@@
桮
梆
棂
棹
椐@@
楹
楹@@
榍@@
榖@@
榧
榫@@
榭
榱
槊@@
槎@@
槠
槭@@
槿@@
樑
樗@@
樟
樨
樯@@
橄
橇@@
橛@@
橥
檄@@
檬
殃@@
残疾@@
殍
殛
殹
毂@@
毛里@@
气东@@
气壮
氘
氤
氤@@
氩@@
水北调
氵@@
江乐@@
江省
汩
沙法
沥
泔@@
法兰克@@
泰英
泸
泺@@
洏@@
洕
洹
流浮@@
浃
浔@@
浜
浜@@
浬@@
浯
海洛@@
涠@@
液化@@
涸@@
涿
淄
淅
淅@@
淠
淬
深思@@
添加@@
渍@@
湃
湃@@
湓@@
湔
湟
湮
溉
溴
滓@@
滶
滹@@
漆咸@@
漍
漞@@
漶@@
潞
潟
潦
潦@@
潼
灁@@
灞
火葬@@
灱
炀
炔@@
炝
炝@@
烃@@
烈烈
烨@@
烩@@
烹
煅
煺@@
熘
燊@@
燏
燧
爱丁@@
爿
牊
牒@@
牖@@
牬
牳
牷
特惠@@
犊@@
犒@@
犮
犴
狂犬@@
狻
狻@@
狼狈@@
猝
猢@@
猬
獃
獃@@
獍@@
獠
獠@@
獭@@
獯
率表
王在@@
玛嘉@@
玥
珂@@
珈@@
珗@@
珝
班迪
珲
琊
琊@@
琥@@
瑚
瑷@@
瑼
璇@@
璊@@
璋@@
璠
璩@@
瓒@@
瓛
瓞
甈@@
甓
甬
甭
畋
畲
畲@@
疋
疠
疡@@
疣
疵@@
症室
痈
痊@@
痚
痤@@
痫@@
痺@@
瘝
瘴
癜
癜@@
癞@@
癣
癯@@
癸
皉
盅
盚@@
盥
相成
相辅@@
眨
眭@@
睅@@
睋@@
睑
瞟
瞥
瞽@@
矜
矞@@
矽
砑@@
砗
砗@@
砚
砚@@
砣
砭@@
砻
砼@@
硇
硌@@
硒@@
硖
硙@@
硫量
碇
碉
碓@@
碚@@
碜@@
磈
磡@@
磢
磥
磪
礜
礼人
祅
祧
禀
禤
秀冬
秆@@
秉国
科什图@@
科生
秙
秙@@
积极@@
稆
程证
稹
穄
空而起
窀@@
窆
窈
窕@@
窭@@
窱@@
窳
竁@@
端午@@
竹篙@@
笮
笱
笾
筊
筏@@
管齐下
箧@@
篓@@
篕@@
篚
篚@@
篣
篥
篧
篷@@
篾
簂
簪
簸@@
粜
粜@@
粢@@
糇
糜
糮
糮@@
糷
糷@@
紫阳
綦@@
繙@@
纭@@
纳泽
绅@@
绐@@
绲
绺@@
绻@@
缃
缃@@
缌@@
缔
缛
缜
缟
缟@@
缤
缦
缧@@
缪
缫
缫@@
缬@@
缰@@
罂
罔闻
罗范@@
罚额
罱@@
罴
罴@@
羚
羝
羿
翚
翬
翳@@
翻天@@
耀忠
而易@@
而走险
耘@@
耙
耙@@
耨
耪
耵@@
职业@@
聒
聩@@
聱@@
肄
肆无@@
肟
肪
肮
肱@@
肷
肷@@
肽
胄
胄@@
胍@@
胚
胛@@
胤@@
胫
胰
胱
脬@@
脾
腈
腈@@
腋
腌
腓
腩@@
腱
膂@@
膈
臃@@
臊
臧
自愿@@
臭氧@@
舋
舛
舨
舻@@
艉
艉@@
艟@@
艹@@
艽
艽@@
芋@@
芗@@
芘
芟
芨@@
芩@@
芰
花明
芳路
苁
苄
苄@@
苞
苡@@
苦卓绝
苫
茁
茆@@
茉
茏@@
茠
茠@@
茪
茴@@
茸@@
荀@@
荂
荠
荥@@
荩
荩@@
药剂@@
莓@@
莩
莪
莸
菀@@
菊兰
菔
菥
菩
菰@@
萁@@
萄
萆@@
萋
萤
营化
萧如@@
萧炯@@
萩@@
萼
萼@@
葑
葜
葶
蓟
蓥
蓿
蔡莹@@
蔷@@
蕨
薷
薹
薹@@
藁@@
藜@@
藭@@
蘑
虺@@
虻
蚍
蚓@@
蚜
蚨@@
蚰@@
蛂
蛄@@
蛉
蛎
蛏
蛐@@
蛑
蛔
蛘
蛘@@
蛞@@
蛩
蛭
蛲
蛳@@
蛴
蜇
蜍
蜍@@
蜱
蝛@@
蝜
蝴
蝼
螫@@
蟊@@
蟪
蟾
蠖
蠡
蠲@@
蠼
衁
衅
衮
衮@@
衿@@
袁铭@@
袂@@
袊
袕
袷
裆
裢@@
裣@@
裨
裳@@
裾@@
褊@@
褚
褰
西布@@
西潘@@
观其@@
览会
觳
觳@@
詑@@
譬@@
讣
诋
诎@@
诒
诔@@
诖
诙
诜
诰@@
诹@@
诼
诼@@
课题@@
诿
谊@@
谠
谢列兹@@
谤
谥
谨申
谩
谩@@
谯@@
谰@@
豁
豕
豢
貙@@
賳@@
货膨@@
贷存@@
赁
赉@@
赡
赵启@@
赵洪娉
趔
跄
跄@@
跎@@
跖@@
跞
跞@@
跤@@
跨越@@
跬
路撒@@
路滑
跹@@
踉@@
踔
踡
蹋@@
身体@@
身订造
轩尼诗@@
轫@@
轰轰@@
轲@@
轶
轺@@
辄
辏@@
辚
辚@@
迂
运钞@@
迕@@
连心
迟浩@@
迥
逋@@
逡
逡@@
逭
逵@@
遁
遄
道多@@
邥
邦国
邬维@@
邱义@@
邶@@
郅@@
郏@@
郑百@@
郑若@@
郢@@
郦
郧@@
郸@@
郾@@
鄢
鄱
鄹@@
酆@@
酉@@
酋
酩@@
酪
酪@@
酰
酵
醺
醺@@
釆
里约@@
重机
鉾
銋@@
銎@@
鎔@@
钅@@
钏
钐
钐@@
钒@@
钚@@
钣@@
钲
钴@@
钹
铁梁
铉@@
铊@@
铙@@
铣@@
铤
铧
锆@@
锇
锇@@
锑@@
锖
锖@@
锘
锘@@
锝
锞
锞@@
锟@@
锨@@
锱@@
锲@@
锷@@
锸@@
镅
镆@@
镎
镑@@
镒
镖@@
镙
镙@@
镪@@
镫
镬@@
镭@@
长国
长治久@@
閒@@
闳
闶@@
闺@@
闼@@
阂
阉
阎
阎学@@
阛@@
阝
防变
阿布沙@@
阿联@@
陂
陈婉@@
陈慕@@
陟@@
院令
除者
陨
陪同@@
隗@@
隹@@
雃
雈@@
雉@@
雍
雎
雏
雠
雠@@
霈@@
霍震@@
霎
靖国@@
靘@@
靾
鞊
鞑
鞒
鞲
鞳
韖
韟
韭@@
頫
顸
预见@@
颊@@
颌
颟@@
颧@@
飑@@
飒
飓
飕
飕@@
餬@@
餮
饣
饧
馅
馆业
馇
馎@@
馓@@
馔@@
馕@@
馗
馨@@
騋
騕
騚@@
騛
騛@@
騞@@
騫
騿
骁@@
骐
骝
骢
骰
骱
骺
骼@@
髁
髂
髂@@
髋@@
髌@@
高寿
高屋建@@
高瞻@@
髟
髶
髶@@
髻
髻@@
鬃@@
鬅
鬈@@
魏礼@@
魟@@
鱿
鲟
鲩
鲫@@
鲷@@
鳃
鳒
鳝
鳞
鴗
鴾
鶦@@
鶱
鶾
鷑
鷛
鸫@@
鸮
鸳
鹄@@
鹆
鹆@@
鹇@@
鹐
鹘
鹘@@
鹦
鹾
麸@@
麻生@@
麽
黄仁@@
黄咏@@
黖
黤
黾
鼗@@
鼢
鼯@@
鼾@@
齐市
齯
齱
齱@@
龀
龃
龆
龇@@
龙太郎
龙斌
﹠
﹢
